#version: 0.2 - Trained by `huggingface/tokenizers`
Ġ t
h e
Ġ a
i n
Ġt he
e r
o n
r e
Ġ s
Ġ w
Ġ o
e d
n d
a t
i s
o r
e n
i t
Ġ f
Ġ c
Ġ b
a n
a r
Ġo f
e s
Ġ in
a l
in g
o u
a s
Ġa nd
Ġ p
Ġt o
Ġ m
Ġ h
i c
Ġ d
l e
i on
o m
Ġ T
â Ģ
Ġ S
i l
Ġt h
Ġ I
Ġ A
en t
Ġ l
e l
s t
Ġ re
r o
Ġ C
Ġ n
a d
Ġw as
a m
Ġ he
a c
Ġ e
Ġ 1
Ġ g
o l
Ġ M
e t
i d
Ġ on
l y
o t
u t
ĠT he
Ġ H
u r
i m
o w
e c
Ġf or
Ġ B
i v
i r
i g
Ġ is
a y
Ġ "
u s
Ġa s
Ġs t
it h
t er
at ion
Ġb e
Ġ P
v er
Ġw ith
c h
Ġ 2
u n
Ġth at
e m
Ġw h
Ġ D
Ġ R
c e
Ġa l
u l
a nd
Ġ W
Ġa t
Ġ F
Ġ L
Ġa n
Ġ it
Ġ (
Ġh is
Ġ y
a v
Ġ G
he r
er s
c t
Ġ1 9
t h
o s
Ġf r
Ġ N
Ġb y
a g
a in
l d
Ġ r
Ġ J
Ġc on
is t
Ġ âĢ
âĢ Ļ
u m
o d
' s
Ġ E
Ġ2 0
i f
es t
Ġfr om
il l
o p
a p
ig h
Ġc om
r i
Ġ O
a k
o re
a b
Ġp ro
u p
Ġ v
o c
ĠI n
ar t
ĠâĢ ľ
al l
âĢ Ŀ
Ġy ou
e w
ar d
at e
it y
an t
re s
Ġs e
Ġhe r
s e
Ġo r
g h
es s
u d
Ġd e
i es
Ġa re
ĠH e
b er
q u
Ġ k
er e
or t
Ġ K
Ġh ad
Ġs h
Ġc h
Ġe x
i p
ic h
r ou
e ar
igh t
Ġw ere
Ġ le
ou ld
Ġp l
el l
iv e
at ed
ou r
u st
av e
Ġ U
g e
Ġn ot
ac k
o v
o k
on g
i an
u b
i a
as t
ec t
am e
Ġs p
Ġt r
re d
ĠS t
n t
al ly
m ent
e p
ou t
i e
ar y
ĠC h
Ġ20 1
o st
Ġs he
om e
in e
Ġb ut
Ġw he
Ġwh ich
Ġw or
ĠI t
u c
Ġh ave
Ġ un
t her
Ġ j
ou s
u re
Ġm e
is h
Ġin t
id e
Ġa b
p p
Ġ V
s o
Ġc l
he d
i al
Ġ us
Ġth is
Ġcom p
o g
ion s
or d
u e
r a
ow n
Ġh im
Ġal l
Ġ up
Ġo ut
Ġthe ir
0 0
Ġg o
Ġon e
ir st
Ġh as
k e
r y
f f
ag e
ĠT h
ic e
as s
m er
c l
Ġa r
f ter
Ġwh o
Ġal so
Ġthe y
im e
on e
i re
i z
ac e
ou nd
u nd
in d
Ġw e
Ġ20 0
Ġk n
on d
Ġcon t
Ġf irst
a re
an s
o ok
Ġt w
. âĢĿ
Ġa g
p er
ig n
Ġd o
Ġm an
ac t
ac h
er v
ic al
at er
Ġa d
Ġn e
Ġs a
ou gh
an g
Ġbe en
Ġ ro
p l
Ġit s
Ġ Y
t e
Ġm y
Ġp art
re e
Ġw ould
w n
r it
r ic
en ce
ou nt
em ber
Ġ en
l l
Ġre s
Ġo ver
Ġint o
Ġ1 8
Ġa c
i b
Ġp r
p t
Ġof f
Ġb ec
ĠU n
i le
Ġo ther
Ġa pp
Ġt e
an ce
Ġs o
Ġc an
ul t
u g
ĠS he
Ġy ear
ad e
it ion
ar k
or m
p ort
ak e
Ġtw o
Ġs c
ol l
or n
ation s
" ,
el y
en s
ol d
Ġp er
Ġthe m
ur n
u ch
le ct
Ġt ime
il d
Ġe v
w ay
Ġpl ay
Ġ 3
Ġwor k
Ġ im
Ġd is
cl ud
o in
u ct
os e
) ,
a il
n g
o od
am p
or y
o ol
Ġre c
t ed
ab le
Ġwhe n
i ed
it e
Ġa fter
Ġab out
l and
ic k
ation al
i ke
rou gh
res s
at h
Ġm ore
ing s
Ġthe re
ver y
w ard
m an
w e
at es
Ġin clud
ter n
f er
o y
ur ing
ĠA s
is s
ent s
Ġ und
" .
) .
rou nd
t s
Ġd es
ĠO n
v e
ĠA r
Ġsa id
as e
Ġb ack
it ed
Ġcom m
an c
as ed
or s
Ġ qu
Ġag ain
on s
e nd
ub l
Ġn ew
. "
o b
Ġs ome
i ous
Ġp re
Ġthe n
Ġd id
Ġund er
l es
Ġc ould
Ġ19 9
a w
ĠA l
Ġon ly
f t
Ġf e
f ore
ch ool
h ip
Ġg r
Ġf l
er ed
a us
ĠM ar
âĢ ĵ
Ġc o
g an
Ġb et
Ġb l
Ġp e
ot h
Ġa ct
an k
v el
Ġwhe re
Ġs ec
il y
Ġw ill
f orm
Ġth rough
a h
Ġan y
iv ers
Ġ 4
Ġl oc
re at
Ġn o
Ġs erv
Ġwh at
Ġs m
p en
ĠL e
a ir
el f
in k
h n
re n
Ġl ike
Ġf in
l ed
al s
Ġb u
Ġfor m
ĠTh is
Ġre m
oll ow
Ġcon s
on t
T he
Ġm ade
Ġth an
as on
is hed
ĠN ew
p e
Ġyear s
ou th
oc k
if e
i o
ot her
e y
Ġat t
a u
ĠC om
Ġbe fore
in ce
c ess
op le
Ġe ar
ri b
t le
he n
Ġre t
en c
Ġm ost
Ġa m
? âĢĿ
Ġl ook
Ġj ust
t ing
Ġre g
Ġd ec
Ġm ov
mer ic
Ġin d
ĠF r
Ġs up
Ġf ound
Ġ 5
ou se
we en
Ġ if
il m
Ġin ter
Ġ19 8
Ġre l
Ġ Ġ
Ġb r
Ġas s
Ġf am
or k
at her
ou n
he s
i x
ĠR e
at ing
Ġst ud
Ġd own
b r
a z
Ġf ollow
id ent
, âĢĿ
h ing
Ġc all
Ġkn ow
Ġbet ween
t on
Ġd r
Ġe nd
Ġst r
Ġc ol
an n
ĠA meric
p r
ĠS h
Ġth ree
Ġyou r
u al
en er
Ġs ub
ic t
p ed
ul ar
g r
i k
Ġp ubl
e ver
Ġpro d
Ġpe ople
Ġbe ing
Ġg et
Ġw ell
Ġte am
Ġd ay
Ġ ent
h y
or th
Ġh and
Ġc ent
Ġd uring
r al
i el
in n
Ġs uch
ol og
is ion
ic s
ro s
em ent
st r
Ġhe ad
Â ł
ire ct
o ot
aus e
ĠJ o
u ary
Ġ 6
Ġ19 7
Ġus ed
if ic
ĠA n
ro w
Ġsp ec
ĠThe y
f ul
iv ed
al k
os s
an y
1 9
Ġs y
Ġn ow
Ġl ater
Ġp res
Ġsec ond
Ġp ol
Ġc ar
Ġd ist
Ġre le
i et
ver n
Ġn um
Ġl ong
Ġf ilm
it ies
i er
is e
t en
t y
at ive
Ġo wn
Ġth ough
Ġh ow
Ġs ur
j ect
a red
ow er
rou p
Ġwh ile
al e
ter s
am es
Ġs et
Ġin v
ivers ity
a j
Ġs l
Ġin c
Ġm ay
Ġman y
Ġ Z
Ġa round
Ġun t
. .
s on
Ġst art
Ġde f
ĠW h
Ġagain st
ĠA t
Ġp op
t ain
Ġs chool
' t
er m
c c
Ġw ay
Ġse e
Ġe m
Ġl ar
Ġb ro
Ġbec ame
Ġw ant
ĠI nd
Ġe lect
Ġ19 6
ak ing
Ġkn own
Ġac c
ver s
om et
Ġm us
Ġpro v
d er
b all
Ġo pen
Ġunt il
Ġg u
Ġb el
Ġb oth
Ġex p
ri ed
iv er
ul l
Ġf our
ĠB r
er n
in es
ĠH is
Ġr ight
Ġse ason
Ġtr ans
p h
ĠUn ited
ĠC ol
vel op
ĠA fter
it s
s elf
ĠâĢ ĵ
Ġd irect
Ġs er
Ġad d
ep t
em b
Ġsh ow
u ally
ur y
ov e
Ġd if
ĠC l
ion al
le y
ĠP ro
Ġev en
Ġle ad
i red
Ġ 7
Ġe very
v en
u res
ĠA nd
e x
Ġ ed
ĠI s
en n
ĠThe re
Ġm in
oun c
ĠS c
ĠUn iversity
o ber
Ġc ount
iz ed
iel d
ar s
in s
uc k
e k
Ġh igh
Ġch ar
in a
Ġs ign
Ã ©
Ġfam ily
Ġrec ord
ros s
i ew
Ġn ame
Ġm et
urn ed
ist s
Ġs ame
Ġc re
Ġre p
ĠAmeric an
Ġar t
an ge
Ġs ing
Ġthe se
ers on
Ġ19 4
Ġw rit
Ġto ok
b um
Ġo b
ur ch
Ġinclud ing
i am
Ġst ill
Ġm at
ce pt
ĠF or
Ġne ed
Ġin s
Ġs ay
ĠM ay
g et
ib le
Ġas k
ĠE ng
ĠJo hn
Ġc ap
ĠW e
Ġg roup
ar m
Ġm on
Ġm ar
ĠS p
im es
iv ing
Ġr un
Ġ 8
v ed
uct ion
ain ed
Ġm ain
Ġhe l
Ġl it
am ed
Ġ1 7
st em
un e
os ed
Ġ Q
ig in
Ġse ver
Ġm ed
is m
Ġcont in
Ġl ife
c o
ĠD e
au gh
ar n
p le
Ġe y
iv es
Ġcall ed
ric t
ĠT r
is ed
Ġbec ause
Ġnum ber
s h
Ġbu ild
Ġ19 5
ut h
Ġ est
Ġde velop
Ġal bum
ĠH ow
00 0
Ġcomp le
Ġch ild
ur al
x t
Ġpl ace
Ġ -
Ġe ach
as h
ar l
Ġ 9
ĠG r
ag ue
Ġle ft
st it
Ġw on
ir d
a x
us s
Ġm od
Ġm ake
Ġc ur
Ġw om
ĠJ an
or ld
Ġm uch
Ġ1 0
Ġd on
av ing
Ġsm all
vern ment
Ġwor ld
Ġbe gan
ĠCom m
Ġc r
Ġp ass
ĠA ll
Ġp oin
in c
Ġre ce
el s
Ġo per
is ter
ut ion
Ġo ur
Ġare a
od y
Ġo ld
Ġ very
ĠC on
Ġp h
id ed
Ġn ear
Ġres p
Ġus e
ĠâĢ ĺ
g er
b le
ĠP r
ĠY ou
Ġl ast
en e
r ap
Ġh ome
ĠA d
ad y
i ent
Ġplay ed
Ġg l
Ġa ir
Ġg ener
m y
Ġh ouse
u ed
t he
Ġth ink
ĠB l
Ġsh ould
b y
Ġs ince
Ġsever al
ĠSt ates
er man
ĠB e
Ġde p
Ġs ong
Ġc are
r ist
Ġ '
Ġrele ased
re t
ut e
Ġoff ic
ul ation
Ġb ook
ĠW orld
Ġor igin
Ġan n
Ġs omet
u es
2 0
our n
Ġ1 5
Ġdif fer
ain s
ant s
c k
il ity
Ġ1 6
Ġsy stem
t o
u red
Ġth ose
i ally
Ġal ong
Ġhis t
ĠA ust
Ġs im
Ġgo od
ac ed
Ġc ity
h at
g ed
u ro
Ġdes ign
ĠN ational
Ġb re
Ġv ar
Ġb o
Ġs uc
Ġan other
ĠJ u
c hed
Ġdid n
Ġser ies
Ġa way
ward s
Ġper form
Ġim p
ĠO r
Ġt ake
Ġl and
ĠE d
n ess
ĠC ount
Ġhe ld
gr am
v ent
Ġc ame
Ġc our
Ġe ff
ĠB rit
Ġear ly
Ġfollow ing
it al
a i
l ing
Ġto wn
ĠB ut
Ġ19 3
Ġg ame
an e
iss ion
ro p
i or
f l
Ġgo ing
Ġmus ic
Ġne ver
aj or
Ġpr om
Ġfe at
re nt
Ġst ate
Ġre al
il t
uc ed
Ġhe re
Ġpubl ic
ĠS e
y ing
f ess
ĠS chool
at ely
ug ust
Ġf ew
ĠP h
ĠN ov
ĠC an
te nd
ĠW ar
ĠH er
Ġb us
p or
Ġj oin
m ed
ĠD ec
u ff
Ġre st
ĠW hen
oc i
ĠS outh
et s
Ġp erson
Ġor gan
Ġpart ic
ĠA ugust
Ġw ent
ept ember
r on
d ay
ent ly
l ish
i um
Ġo cc
Ġ1 2
Ġs ide
ag es
Ġf oot
Ġcomm un
Ġto o
ment s
i ence
âĢ Ķ
Ġey es
Ġs w
ĠP l
n e
in ess
ĠO ct
her n
ĠG erman
ĠS eptember
Ġc he
ĠF e
Ġsup port
Ġs k
ĠG e
ĠMar ch
ĠJan uary
ĠY ork
Ġf ind
ĠJ une
Ġst and
ic ally
Ġgo vernment
Ġfor mer
Ġcl ass
tern ational
Ġ el
ar ch
le ge
ap p
Ġm en
Ġre f
un g
ĠOct ober
Ġbe h
Ġle t
re w
ain ing
Ġp os
al es
ĠC ent
ĠJu ly
Ġres ult
o or
, "
olog y
pr il
ore d
amp ions
Ġh um
Ġl ist
Ġv ill
on y
ĠCh rist
th ing
ĠE uro
Ġd et
er ing
ect ion
Ġpro gram
Ġre d
Ġw ater
ic es
Ġl a
Ġthough t
re en
b e
Ġhel p
Ġb and
Ġask ed
Ġro om
ak es
Ġcon c
Ġne xt
Ġex t
Ġg ot
ĠA m
Ġlook ed
ĠA pril
emb ers
ĠW ill
g est
iv en
el t
ĠHow ever
en g
at s
Ġloc ated
Ġlar ge
ĠNov ember
ect ed
Ġapp ear
ar r
1 8
id es
le t
Ġwith in
Ġcomp et
Ġl ine
ie nd
Ġa ge
Ġapp ro
Ġdes c
le v
Ġsuc cess
ian s
s ide
res ent
Ġs it
ĠM us
in ed
Ġbel ie
ĠCount y
Ġcomp any
a e
ĠDec ember
ĠN orth
th ough
Ġloc al
ot t
Ġpop ulation
r act
Ġpol it
is on
Ġre pl
Ġt it
n er
Ġm ajor
Ġlit tle
Ġfr iend
c om
Ġcont ro
c es
Ġn amed
Ġf ather
Ġp ower
Ġdiffer ent
ĠG od
Ġst ation
at or
m p
Ġde ath
Ġstart ed
m s
Ġto p
iv al
m in
Ġb est
ard s
as ter
Ġev ent
Y ou
Ġ1 1
Ġle g
Ġ .
Ġf ace
ec hn
y l
Ġin st
h am
Ġsp e
al f
if ied
id d
ir l
ill ion
Ġcl ub
Ġk ill
ĠAust ral
Ġex pl
Ġall ow
st er
ĠAs s
Ġ $
Ġcons id
qu e
Ġcom e
Ġs ix
g y
Ġb orn
Ġm il
Ġrece ived
er t
Ġ1 4
c on
Ġsing le
Ġm embers
a im
ĠC ity
ĠC o
Ġm ember
Ġest ab
ĠBrit ish
et er
Ġsh ort
Ġl aw
v es
Ġf ive
Ġs oc
Ġdo es
at ch
v iew
Ġen g
ĠEuro pe
Ġv is
Ġd em
Ġ1 3
Ġp oss
Ġwor d
Ġp ut
Ġt erm
Ġ201 0
Ġl ight
Ġre port
Ġsomet hing
Ġserv ed
Ġt ell
ro d
iz e
re et
Ġmov ed
Ġm ark
br uary
Ġar r
way s
Ġpro t
v ious
as k
ĠK ing
Ġcon d
Ġf act
Ġre qu
ĠG u
Ġwith out
Ġbe g
Ġchild ren
Ġt y
Ġex per
en se
ĠC ar
iet y
l ess
e ep
Ġchar ac
ĠU S
ampions hip
Ġbu ilt
Ġg reat
Ġf ore
Ġfe el
Ġbuild ing
b orn
Ġpres ent
ac hed
ord ing
m e
ĠFe bruary
Ġre fer
iv ely
at ure
Ġo pp
Ġn ight
Ġad v
ĠE l
s p
Ġyou ng
Ġ19 2
al th
Ġc le
ac es
Ġc amp
Ġw alk
Ġb ody
ri es
Ġc or
at ic
Ġb ased
ĠB ro
ĠC al
ĠP ol
o ice
at t
ĠSt ate
âĢ ¦
Ġd ied
Ġa v
Ġst op
Ġ201 1
ag ed
og rap
Ġse em
Ġ es
al y
ĠM an
Ġm ust
Ġhim self
Ġn orth
it ions
Ġs on
Ġdis c
inn ing
Ġp ain
Ġfin al
ec h
Ġd ue
ĠA b
Ġinclud e
a ff
Ġw ar
il le
om in
Ġdo or
ĠLe ague
Ġ201 2
ent ion
re am
Ġpro fess
i od
ĠD uring
Ġim port
ĠW ith
ĠA f
ĠD r
ĠGe or
Ġcon f
b o
Ġcur rent
Ġp at
ĠN o
ĠĠ ĠĠ
ĠG o
ĠW est
ĠCan ad
he re
Ġvill age
anc es
ĠI I
ab ly
Ġdesc rib
ĠF l
Ġcent ury
uth or
Ġwe ek
Ġspec ies
Ġd iv
Ġn ational
Ġde b
Ġsa w
Ġth ird
enc y
um b
od e
ĠR o
Ġp ar
ĠOn e
ren ch
Ġmon th
ĠM c
Ġ( "
Ġv al
Ġof ten
Ġ vers
ĠR ep
Ġl ed
Ġh aving
al ity
Ġfoot ball
Ġ201 3
y n
Ġ201 4
Ġwom en
Ġ &
enc es
Ġinc re
ĠM in
Ġt urned
Ġp ost
s c
u it
Ġpubl ished
an a
ak en
Ġrep resent
ĠE x
ubl ic
Ġh old
id ge
Ġs outh
a f
Ġbec ome
Ġinclud ed
om an
Ġor der
ĠB y
ie f
Ġco ver
Ġt urn
c hes
a ul
Ġ19 1
ĠB ar
Ġ200 9
iz ation
o on
Ġ200 8
ĠI f
Ġatt ack
Ġsh ip
e ad
Ġle vel
m ost
Ġbus iness
p ar
ap e
get her
Ġto gether
ĠD ist
ĠS w
et h
Ġe qu
Ġ201 5
ang u
Ġch ang
z e
Ġl ate
Ġfr ont
Ġam ong
n a
.. .
w ork
Ġg iven
a it
es tern
er r
are nt
Ġis s
os p
Ġd el
Ġday s
on es
ounc il
Ġret urn
em pt
Ġs old
ĠM y
at tle
Ġtr ad
ĠWill iam
ul a
am a
ĠH igh
Ġs ound
Ġapp e
Ġper iod
Ġt imes
? "
it her
ar a
Ġ201 6
Ġbeh ind
ĠEng lish
op e
art ment
Ġm other
ĠD av
al d
Ġa ff
ĠRe g
ĠF rench
Ġm ag
c he
Ġcount ry
Ġon ce
Ġf elt
ur s
Ġadd ition
it ary
Ġf ull
Ġpro ject
ed er
Ã ¡
es e
Ġ200 6
er y
u k
Ġac ross
Ġcontin ued
c ed
Ġ X
ĠTh at
ap an
Ġto ld
Ġf un
Ġe p
Ġs ol
ow s
Ġh ard
Ġ200 7
ur g
m it
Ġ2 5
Ġann ounc
Ġg ave
ĠP art
Ġh alf
Ġre ad
n ing
p s
Ġk eep
o f
Ġt alk
at a
Ġn on
ur ther
e e
Ġkn ew
Ġs ent
ĠH ar
Ġcon str
Ġto t
Ġc rit
ra w
er tain
Ġm om
Ġf re
ra ft
o le
Ġw in
Ġp ort
ĠP ar
ĠP ark
Ġed uc
Ġcare er
Ġ ide
Ġopen ed
Ġme et
ĠS y
ĠP res
st and
ĠR uss
Ġpoin t
Ġ [
Ġinv ol
ĠCol lege
Ġcol lect
Ġserv ice
! âĢĿ
ond on
or ies
ir c
ud d
Ġother s
Ġeff ect
ĠS ec
as es
Ġret urned
ĠA ng
Ġ201 7
Ġbl ack
our s
Ġe ver
Ġth ings
e v
Ġg round
Ġf ield
il ar
Ġwork ed
l ine
Ġ19 0
Ġw ind
Ġst at
Ġorigin al
ric k
Ġinter est
Ġg irl
ĠB o
Ġ3 0
us ed
Ġm ight
ĠT e
um ent
Ġl ove
ĠJ apan
Ġbro ther
f ord
Ġr a
l ished
Ġl ost
Ġhist ory
is ing
Ġse en
1 0
ĠR iver
pl oy
Ġpro cess
Ġpre vious
Ġr ad
Ġtr ack
av y
Ġt ri
ĠL ondon
ĠC or
Ġe as
ĠAf ric
ĠDist rict
Ġa uthor
Ġin form
Ġpro p
Ġme an
s w
Ġf ac
um mer
Ġs at
Ġm aking
ĠM e
y le
Ġt echn
ay s
Ġl ess
Ġwant ed
rib ut
in o
Ġm illion
Ġgr ad
am ent
ĠThe se
one y
ad em
l er
Ġal ways
Ġre ally
Ġen ough
Ġs il
ĠCom p
Ġ201 8
Ġhum an
re g
Ġcomm on
Ġm ind
Ġro ad
Ġl o
ot s
il ed
Ġus ing
Ġst ory
Ġr ound
he l
un ic
Ġspec ial
Ġcharac ter
Ġcontro l
Ġg row
" )
ct ion
Ġf ar
ist r
g es
Ġg ames
Ġro le
am b
ot e
Ġcl aim
Ġhow ever
in al
ĠM ed
re st
Ġtit le
Ġact iv
Ġs n
ĠA cc
Ġimport ant
e f
Ġt em
Ġvar ious
ok e
hy s
Ġpos ition
iv id
ĠS o
Ġestab lished
c ent
ĠH ouse
augh ter
Ġf em
ep end
og n
Ġqu est
con om
Ġhand s
Ġmar ried
W hat
i ber
Ġp o
Ġcre ated
ĠM ich
ĠS oc
ĠE m
Ġdist rict
ap s
Ġin it
Ġab le
ro te
Ġs qu
b s
Ġg en
us h
ĠG l
Ġ2 4
Ġ18 9
Ġl iving
ĠPh il
Ġpr act
Ġt re
Ġre se
Ġl angu
Ġf ire
a ut
Ġbet ter
Ġc ult
Ġd est
lev ision
Ġp ast
Ġjoin ed
le x
ĠCh ampionship
Ġwom an
Ġstud ents
Ġf all
Ġtot al
Ġannounc ed
Ġv iew
re ady
ĠI r
Ġl im
Ġcommun ity
ener al
ĠA ir
Ġin fl
Ġl ive
I t
id ing
Ġal most
al t
Ġst ep
Ġa ward
b ed
Ġatt empt
ĠS an
at ter
ress ed
ro wn
Ġqu ick
l in
Ġar ch
ĠFr om
ab or
ĠT w
Ġappe ared
Ġwork ing
ec ut
Ġh ap
and er
Ġg ive
Ġch urch
Ġapp oin
ĠS up
ĠT o
ri pt
Ġgener al
Ġl ow
Ġh ig
ĠR es
u el
Ġf ree
Ġcl ose
ĠS er
Ġat tend
Ġv oice
in ation
ĠEng land
Ġwrit ten
oci ation
Ġw ife
ĠC up
ĠP er
Ġc ase
ĠP e
Ġs ure
m a
Ġle ast
ĠL a
Ġf urther
Ġ ,
Ġal ready
ir on
en ed
Ġp ri
Ġdef e
ĠD iv
s el
ap er
Ġc aus
Ġwas n
Ġprod uced
c ast
Ġpl an
Ġdevelop ment
Ġt aken
Ġcon n
Ġpro per
Ġhap pen
Ġplay er
Ġ2 1
h a
ĠD ep
ĠE ast
Ġw rote
Ġoff ice
Ġd ark
Ġman ag
Ġpro ble
f or
Ġhist or
op s
amp le
ĠIn ternational
p ing
Ġstr ong
Ġro ck
Ġc ou
g o
Ġcl os
Ġsim ilar
ĠJ ames
ĠCh urch
h old
Ġfollow ed
Ġdescrib ed
ac y
ut es
Ġpr im
he ad
Ġso on
o ff
ar ing
Ġh ost
se qu
Ġb as
ĠInd ian
av es
ĠN e
ĠS ome
is c
Ġinv est
Ġb ig
Ġw all
iv il
Ã ³
ort s
Ġf ell
Ġind ivid
Ġt en
ĠCh ar
Ġ 0
ĠS m
Ġr ail
ĠA g
Ġt est
Ġin f
Ġex ist
oy al
i us
d om
idd le
Ġpop ular
Ġf ight
Ġm ot
Ġ200 5
Ġconsid ered
Ġdeb ut
in t
Ġm er
s hip
Ġwh ite
Ġ201 9
Ġpolit ical
Ġan t
Ġwork s
u ce
if f
Ġhe art
Ġpartic ular
Ġ18 8
Ġ ident
land s
id ence
ĠA c
ĠR ec
Ġb ar
Ġpart y
Ġtr av
Ġs ug
ic a
ort hern
ree k
Ġup on
5 0
Ġcom b
Ġmat ch
om b
ĠPres ident
ill s
Ġpr iv
Ġh on
it or
ĠE n
Ġre ached
Ġint rod
im ent
Ġf ail
min istr
Ġany thing
Ġb oy
a el
air s
Ġa ver
b or
ec k
Ġmil itary
ke y
ĠAcc ording
ĠP aul
ĠM r
out hern
ol ution
Ġv ol
Ġ2 2
1 7
Ġth ing
Ġs ite
ĠTh om
rough t
h ic
Ġor d
Ġle arn
Ġ20 00
Ġc ross
Ġd one
ĠC ouncil
ĠWh at
Ġe le
ĠD es
1 2
l ic
Ġde v
an ch
Ġcour se
Ġeng ine
ĠAr t
Ġelect ion
Ġ1 00
Ġe ither
Ġto wards
o x
ĠWh ile
Ġv ide
ĠA ct
s k
ĠInd ia
ĠR oman
Ġrec ogn
ĠGeor ge
Ġprod uction
Ġsoc ial
Ġbro ad
Ġoffic ial
Ġvers ion
ou l
Ġst ay
Ġm id
ĠR ober
er a
Ġwh y
ĠQ u
Ġb ed
ĠSt reet
Ġf oc
Ġpartic ip
l o
Ġent ire
ĠS ch
Ġrel ations
i ec
r ing
T h
uct ed
ĠJ ack
if orn
Ġte levision
Ġep is
ĠAustral ia
ĠS am
et work
i ol
Ġmom ent
Ġ2 3
ank s
ĠAr my
ĠDav id
Ġc oll
Ġh it
Ġnot hing
Ġs uff
ĠM or
m ing
ad es
Ġ200 4
ĠEurope an
Ġ18 6
oc r
Ġreg ion
Ġm ult
ĠD an
it ive
id s
u le
Ġde ep
Ġind ust
n ey
Ġinfl u
re y
il i
end ed
Ġk ind
ough t
Ġins ide
ĠV al
Ġar m
et t
iforn ia
Ġd ou
Ġf ig
ĠG eneral
Ġrese arch
Ġst e
ĠM on
Ġm iss
stit ute
Ġc e
Ġv ict
Ġex ample
Ġch ange
ĠAmeric a
Ġmonth s
ach ing
ĠR ich
nd er
Ġd am
Ġout side
Ġlook ing
w h
c le
ĠRep ublic
Ġfin ished
1 6
ĠFr ance
p ite
Ġab ove
ĠJ os
h ib
ic o
olog ical
Ġc ast
ĠQ ue
Ġe conom
Ġp ur
a id
ĠCal ifornia
S t
Ġv e
Ġal though
ain t
Ġdec ided
unic ip
Ġplay ing
f ield
ĠN ot
re ad
ĠC r
ĠH ol
Ġag re
re m
e um
Ġb rought
ĠThe n
Ġin ternational
Ġword s
Ġav ail
ĠB el
Ġse lect
Ġform ed
Ġm em
ĠC our
o ver
ud e
Ġa p
y ear
b and
ĠB er
Ġstr uct
Ġl ik
ord s
Ã Ń
Ġhe ard
ĠPart y
Ã ¼
Ġd aughter
p ly
W e
Ġt ou
as hing
Ġc irc
1 5
Ġa ut
Ġf und
ib r
Ġe ight
Ġh ous
Ġe ast
Ġfound ed
2 00
Ġm ater
n ow
Ġem ploy
ot ed
v ille
t t
Ġrecord ed
Ġen c
un k
Ġinform ation
ur b
Ġprofess ional
Ġt aking
it ch
d e
augh t
ĠL ou
Ġ18 7
ful ly
Ġare as
Ġ <
ish ing
Ġtrad ition
med i
im ately
Ġty p
Ġh y
Ġdis co
Ġunder stand
ĠP ort
ĠM ary
fer ence
ce ed
Ġbec om
ĠM al
ĠA nt
Ġp hys
Ġt our
Ġm oney
Ġle ave
it te
Ġse par
i ers
ro y
Ġgrad u
Ġw est
Ġ2 6
Ġsug gest
ar i
Ġpro b
Ġdevelop ed
Ġcle ar
Ġsign ed
ir t
ĠDiv ision
ĠP at
Ġre n
Ġan sw
Ġj ourn
ĠD on
Ġde g
Ġ2 8
Ġprod uct
Ġp arent
Ġrele ase
Ġac cept
ress ion
ov ed
ĠP al
ell ing
p ect
Ġev ents
Ġpres ident
Ġst re
g in
Ġc ost
w are
ĠCanad a
c er
Ġaver age
Ġn ov
Ġbre ak
Ġ2 7
Ġc ertain
Ġp ul
a ign
Ġr out
Ġmov e
if t
ĠA lex
Ġc ut
Ġy et
Ġrem ained
Ġappoin ted
Ġm ount
Ġp ay
Ġan im
Ġr ather
ĠJ ust
Ġsit u
Ġreport ed
y s
Ġcomm and
Ġt ried
Ġcould n
Ġelect ed
Ġp ark
Ġpoin ts
Ġre v
ens ive
Ġ z
em ents
Ġcont ract
v an
Ġc ell
ĠJ e
ly mp
at ural
Ġc reat
ist ed
Ġr ul
Ġf ood
ĠH en
Ġre view
od d
op h
Ġlangu age
Ġavail able
Ġsign ific
Ġposs ible
Ġkill ed
Ġr ace
Ġh or
Ġb ase
Ġr an
Ġadd ed
Ġin str
Ġp le
Ġsome one
ist ic
B C
ip s
at ors
Ġs le
Ġtr ying
Ġbl ood
Ġp ress
u z
u f
ĠR ed
Ġform ula
er ous
Ġmod ern
Ġg un
ĠD o
Ġst ood
Ġsl ow
Ġear l
_ _
sel ves
i j
ĠM il
Ġp ick
ĠO lymp
ol ic
i que
Ġteam s
N o
is es
Ġdo ing
ra z
Ġrel ig
ĠAss ociation
ent ial
ĠH all
anc ed
her s
orn ing
Ġvide o
1 3
Ġ200 3
un t
a ur
ens us
Ġfl oor
Ġde al
osp ital
ag o
h an
Ġs our
ĠD em
Ġb ur
Ġ199 0
f ic
ĠUn ion
ight s
ac ing
ĠR oyal
ers hip
pl ay
ĠT om
um p
1 4
Ġquick ly
Ġprod uc
Ġw ait
he m
w ood
Ġla un
ĠM o
Ġt able
m en
Ġserv ices
Ġf av
r up
Ġfe et
ch ie
Ġd ro
Ġsur v
Ġmater ial
Ġind epend
Ġcl osed
ĠN or
Ġw ood
ĠM ag
ĠAl though
ĠM art
Ġde ad
k s
Ġmin utes
ber t
ĠS en
ĠC ap
n ot
as ing
al ed
ific ation
enc ed
ip p
ign ed
Ġeduc ation
Ġsay s
n y
Ġes c
s y
Ġpl aced
ĠSt e
ĠGerman y
v al
ut ure
Ġdirect or
Ġneed ed
Ġ Ð
Ġse ven
ĠRo ad
Ã ¶
Ġex c
Ġmark et
Ġinst ead
ou d
il ities
Ġcom ing
Ġreg ular
Ġresp ons
Ġph ot
ri an
Ġpol ice
Ġj ob
. âĢĻ
Ġinvol ved
Ġimp ro
Ġl ot
Ġseem ed
. ,
ĠFr anc
Ġthrough out
st on
Ġst ri
ir it
Ġ200 2
Ġsp ace
itte e
Ġevent ually
Ġ ill
ict ion
t ion
ĠF irst
ell ed
it ect
3 0
om en
Ġb it
Ġide a
Ġsa f
t ime
ĠAustral ian
Ġre ason
Ġwho le
ĠM ark
ĠO ff
ĠS ince
Ġl ab
Ġc op
est ival
ĠThom as
Ġst yle
ĠA ward
Ġad ministr
Ġbelie ve
' m
Ġstud y
p ec
ĠS im
ur t
g ing
Ġus ually
Ġh air
Ġ198 0
ĠBl ack
Ġfin ally
Ġp ot
Ġsub ject
ĠRober t
Ġ200 1
Ġlead ing
Ġb ad
ab ility
il ies
Ġc al
Ġse x
Ġtr aining
Ġ2 9
ig r
ĠChrist ian
ak er
h od
ĠCour t
Ġac qu
Ġquest ion
arl iam
y a
ro om
Ġto day
Ġfeat ures
Ġac cess
Ġcamp aign
Ġs elf
Ġperform ed
Ġhe alth
ĠH ist
ĠMich ael
Ġresp ect
Ġd oc
Ġme ans
ĠS l
ĠAng el
Ġw id
Ġdesign ed
Ġbr ing
ĠComp any
b ack
ar ter
ear s
Ġrun ning
r ay
c y
av en
Ġfor ce
Ġt reat
ĠJ ew
arliam ent
Ġchang ed
Ġh ot
ĠM ad
Ġcomple ted
Ġcurrent ly
ĠP ri
e al
Ġits elf
ĠM ex
ĠCh ina
Ġ ver
i qu
Ġevery thing
Ġob s
eng th
as ons
ĠJ es
ĠL ord
Ġso ft
y r
Ġsong s
ĠM ount
Ġconc ern
v iron
Ġass oci
ur ity
Ġar g
Ġg old
n ed
Ġbook s
ate g
ashing ton
1 1
Ġfriend s
Ġpriv ate
h ood
ĠM iss
Ġw at
ĠIs land
Ġh ours
Ġhouse hold
Ġacc om
Ġgr and
it ing
Ġst age
w est
Ġsignific ant
Ġlong er
Ġt er
ĠL aw
is l
eder al
Ġw atch
Ġk ey
Ġre ve
Ġm ass
ines e
Ġd raw
ĠCent ral
Ġconstr uction
Ġar ms
Ġfor ces
C A
ct or
Ġle ague
Ġj ud
Ġh app
Ġf if
Ġrad io
Ġgroup s
Ġcour t
Ġrelations hip
ir m
Ġcap t
Ġpass ed
en a
ĠE ar
st ant
pec ially
ĠSt ud
ĠO ther
Ġv iol
at ory
f ace
v ing
Ġ5 0
Ġlar gest
Ġrem ember
Ġlit er
Ġqu al
ill ed
le g
it z
f ort
ap t
ecut ive
ĠChar les
Ġinclud es
Ġd i
Ġwalk ed
Ġin j
um e
adem y
Ġa ud
Ġplay ers
Ġpl ant
Ġgo al
Ġc and
ec ess
Ġs us
ĠB ay
Ġass ist
ĠT own
Ġp iec
inc ip
az ine
Ġob ject
Ġsp ent
Ġm orning
ent y
oun ter
Ġm unicip
ĠIt s
Ġh om
i res
and s
r is
Ġl ay
Ġcent er
Ġst ated
ol f
Ġ197 0
Ġse at
stit ut
ourn ament
ĠDep artment
Ġprob ably
Ġdec l
ĠCh ap
ar ies
Ġprov ided
Ġorigin ally
k y
Ġim medi
Ġb all
ĠW ashington
ĠCl ub
= "
b urg
Ġco ach
Ġocc ur
os ition
ore s
ĠCent er
Ġget ting
ĠFr ank
Ġex cept
ber g
ĠGr and
Ġdirect ed
ĠR ail
ar ily
pp ed
l ike
ĠT V
Ġel se
t r
ĠC ath
Ġan g
ic y
g ress
er gy
erv e
Ġk ing
m b
ir th
Ġsay ing
Ġw ond
Ġf uture
Ġa chie
il es
al ian
Ġbo ard
Ġschool s
ĠS al
an ish
inn er
ĠU K
he t
ut er
Ġher self
Ġallow ed
- -
Ġch air
Ġr ank
Ġs ize
Ġp ers
id a
Ġcol lege
Ġn etwork
Ġex tend
ĠG roup
Ġl oss
Ġcount ries
k m
Ġc ivil
Ġtrav el
Ġfor ward
Ġcon v
Ġfeat ured
Ġr iver
Ġ( )
Ġpl ann
Ġm ur
Ġparent s
Ġbeg inning
im ate
at ives
Ġsh ot
Ġrepl aced
or ing
ĠâĢ Ķ
ĠV ir
c raft
ĠG reat
Ġes pecially
Ġb ene
an i
ĠF in
ĠT ur
C h
Ġthem selves
ar ian
ĠP eter
Ġacc ount
Ġab s
ug g
ĠCh inese
Ġr ange
ĠC ong
os ing
ag on
m m
Ġperform ance
Ġto ward
ĠM ont
re l
Ġst ates
ĠV ict
Ġne g
Ġf a
Ġ199 9
ĠN ow
Ġ Ã
and ed
Ġbl ock
Ġ *
al a
ic ated
Ġwh ose
ĠW estern
ĠTw o
ĠIn stitute
Ġne igh
Ġmod el
Ġspec ific
Ġdif fic
Ġk ept
ĠLou is
Ġre b
Ġepis ode
Ġdiffic ult
mer c
ĠPro v
he st
ĠM ost
Ġfem ale
Ġpul led
Ġbel ow
m ar
Ġm ix
Ġh us
ĠSc ott
Ġf arm
viron ment
Ġsur round
Ġc y
o id
Ġal one
Ġprov ide
ĠC am
Ġw r
Ġty pe
Ġtrans fer
Ġsub sequ
Ġo pt
Ġreg ard
ra el
Ð °
Ġshow s
ĠP et
ep h
end ing
ĠM ac
Ġb i
Ġaward ed
Ġdet erm
Ġcomp an
Ġperson al
Ġact ion
ĠT ex
' re
Ġle aving
Ġme as
ĠWh ite
Ġent ered
Ġhe ar
Ġs em
Ġim m
Ġdeg ree
ĠB en
Ġl ived
od es
ĠHen ry
Ġw ide
ĠM er
Ġra ised
ĠSoc iety
Ġcent ral
vern or
ĠM at
as c
us hed
ĠW il
Ġmat ter
Ġdisco ver
Ġpart s
Ġnov el
Ġm outh
Ġdest roy
f ect
Ġb attle
Ġh op
Ġact ually
Ġend ed
pl es
Ġp urch
r om
' d
i ation
ĠS erv
Ġfour th
Ġp red
Ġwrit ing
ĠS ing
Ġst ar
Ġsomet imes
Ġan c
am s
us e
k a
g round
ĠRuss ian
ow ers
Ġc orn
und red
Ġfam ilies
Ġcompet ition
ĠMus ic
ĠAfric an
Ġcap ital
Ġarch itect
ĠJapan ese
us ion
ro ll
Ġd er
as tern
ĠM et
Ġearl ier
ĠL at
Ġ199 8
Ġhus band
act ion
Ġart ic
ĠCanad ian
Ġon to
Ġappro x
Ġ196 0
ĠMin ister
Ġtr y
Ġc at
Ġfoc us
Ġl ower
Ġtr ue
bo ard
ri ef
ip ped
Ġn atural
Ġm ess
u ke
Ġright s
Ġt ax
Ġsuccess ful
u x
ĠAc ademy
H e
ĠRich ard
ad d
Ġs en
ĠM el
ĠG reen
Ġmet hod
Ġintrod uced
Ġocc up
ain e
Ġ4 0
ib ility
Ġn orm
h i
Ġnew s
Ġwh om
ic ian
Ġb ank
ann el
ĠC ons
f it
Ġsec ret
Ġatt ention
g en
udd en
ĠR ad
Ġmov ement
ĠIt alian
an o
Ġset t
Ġ18 5
Ġl if
ĠL ake
r d
Ġpur p
Ġstop ped
Ġbo x
ĠH am
ist ry
Ġf ing
ĠDem ocr
ad ed
Ġpr ison
Ġspe ak
m on
ĠC ont
oin t
Ġhappen ed
Ġth reat
at re
ĠIs rael
l im
Ġm akes
ĠG old
r ight
Ġ18 4
Ġold er
u ge
ĠF oot
Ġte ac
ly ing
ord er
all ed
Ġs ister
Ġmain tain
Ġs ummer
ĠVict or
Ġm iddle
ish op
ic ed
Ġ199 6
Ġd ata
k n
un ity
Ġbuild ings
ro l
Ġ3 1
Ġcrit ic
ĠP enn
Ġl ength
ĠAfric a
Ġen ergy
ĠSp anish
ell ow
Ġinvest ig
ĠT or
it es
id ae
Ġd en
ut y
Ġs ection
Ġsup p
Ġey e
Ġsup er
merc ial
Ġfre qu
Ġdisc uss
w ell
av al
T hat
Ġbe aut
ri a
Ġbre ath
Ġattend ed
ĠFranc is
ens ion
Ġis land
ĠA pp
Ġe mer
if y
il ing
Ġcont ribut
ĠVir gin
o o
Ġair craft
in ct
Ġ199 7
Ġm ention
Ġhig her
Ġmeet ing
Ġweek s
u als
on a
19 9
ri age
Ġl ack
e g
ous ly
Ġf le
Ġ #
ol k
ĠD ay
Ġexper ience
ab it
Ġar my
2 5
Ġsur pr
ĠSm ith
iz ing
Ġval ue
Ġl ives
ibr ary
ĠC he
Ġacc ording
est s
Y es
Ġcand id
e es
en ing
Ġopen ing
Ġex am
ask et
ograp hy
op er
ro ad
Ġsc ored
Ġproble m
ĠR ob
as ion
Ġfor ced
Ġcou ple
Ġse a
N A
Ġh all
sy ch
ĠM any
Ġlead er
Ġc red
Ġrequ ired
ed y
Ġindivid ual
sh ire
ad a
ect or
Ġdis p
j oy
ĠKing dom
Ġpre m
stit ution
Ġv ia
Ġcomple te
Ġg one
Ġmed ia
Ġ :
led ge
Ġsle ep
i os
Ġtou ch
Ġpr incip
Ġact ive
Ġbroad cast
id ents
ĠS ir
erv ed
b l
Ġcomple x
le br
ail s
ĠH ill
re land
Ġ Â
ĠF ollow
ur a
on str
ĠCar ol
Ġrun s
ov iet
Ġmy self
un n
ĠPar is
ĠC amp
Ġqu ite
ĠThe ir
in i
Ġnear ly
Ġn orthern
Ġstud io
Ġt akes
Ġarr ived
ust om
I n
Ġconsid er
Ġprevious ly
Ġco ast
k i
ĠO l
Ġfilm s
Ġs ch
ist an
Ġlist ed
Ġ er
Ġs ense
Ġs outhern
Ġs ens
ĠD irect
ĠCath olic
Ġp ath
Ġfore st
p an
Ġestab lish
Ġd ate
ĠS ar
Ġhel ped
Ġst aff
Ä ģ
Ġt ro
Ġpract ice
Ġtrans l
ĠSec ond
Ġ199 5
Ġh undred
Ġvis it
Ġw inning
i ences
uf act
Ġcaus ed
ĠTex as
Ġsm iled
k en
Ġsystem s
Ġdec ision
it a
e en
Ġhe avy
! "
Ġorgan ization
Ġn omin
ĠS ant
ĠF ilm
Ġin tern
Ġsm ile
Ġl ink
Ġstruct ure
il s
Ġ199 2
I I
l am
Ġex hib
Ġbl ue
' ll
ĠK h
Ġapprox imately
Ġ199 4
Ġdefe ated
ĠC arl
Ġun its
Ġmov ing
Ġoff ered
h aps
te en
A nd
emb ly
Ġm ission
Ġc ensus
ĠIn ter
Ġproper ty
c her
Ġro ll
ĠAr ch
y m
Ġv ot
Ġindust ry
Ġcar ry
Ġsc ient
Ġs un
Ġdiv ision
ant ic
Ġt ar
Ġown ed
Ġth us
Ġdoc ument
it ation
ĠG reek
" ),
ĠFollow ing
Ġpl at
ĠD el
Ġbecom ing
ĠJes us
Ġin n
ent al
ight ly
Ġstud ied
Ġb irth
ĠMus eum
a ud
Ġtr ain
um n
ĠE v
Ġd ig
os es
Ġch art
Ġe t
is k
Ġst ra
ĠK ore
ri al
ĠF ore
if ul
ot ion
ĠComm ission
Ġcom es
S A
kn own
mit ted
ĠR ock
Ġdoes n
Ġan aly
ĠSt r
in ary
Ġany one
Ġcover ed
Ġnot ed
Ġrepresent ed
Ġfin anc
Ġimmedi ately
Ġp aper
er ry
ĠFoot ball
p ro
i ant
ĠJ im
Ġch ampionship
ĠTr ans
ĠO h
Ġam ount
ak ed
Ġp en
z a
on se
por ary
b ers
Ġen joy
Ġjourn al
Ġf ul
Ġstud ent
Ġprim ary
o e
Ġevery one
Ġplay s
Ġcar ried
Ġve hic
ĠB ur
Ġb rief
ot a
ĠS oviet
Ġrail way
m ore
Ġsc reen
Ġt ournament
Ġmult ip
Ġgener ally
Ġrem ain
all en
id er
Ġcre ate
b ased
Ġev idence
Ġp oor
av ed
ĠGo vernment
Ġbelie ved
Ġart ist
Ġman aged
Ġf ast
ĠE r
ĠRe v
Ġhig hest
ĠB est
Ġtradition al
Ġn odd
ĠCh ic
Ġset tle
ĠAn n
Ġwhe ther
ĠI m
it ar
Ġspe ed
ap ed
Ġwe ap
Ġst reet
Ġappear ance
Ġins p
Ġrout e
ab b
Ġgl ass
Ġiss ues
Ġcom mercial
a res
Ġloc ation
Ġm ach
Ġw ear
ul ated
ĠFl or
Ġn ecess
ĠC ast
Ġg as
Ġterm s
Ġdou b
Ġme ant
Ġto w
Ġstand ard
Ġpri or
it iz
Ġbel ong
ĠL os
Ġth r
ĠL it
Ġtrans port
Ġfeel ing
ĠG re
Ġce lebr
k ay
Ġsus p
ad o
in ing
ĠB et
Ġg reen
Ġmost ly
Ġ199 3
om m
l it
ĠB u
ĠSw ed
Ġche ck
Ġwr ong
Ġcan not
and a
Ġper cent
Ġen vironment
Ġs we
Ġsp irit
Ġ199 1
ut ch
Ġnew sp
Ġad op
Ġstud ies
Ġcollect ion
Ġg iving
Ġrel ated
Ġre ady
om a
or ial
ĠComm ittee
Ġg e
Ġen s
Ġte xt
4 0
Ġcomple t
Ġindepend ent
i en
ĠAt l
ĠZ eal
Ġatt ract
Ġnum erous
Ġs udden
l ight
he ast
Ġs um
ĠO ld
ĠI reland
Ġdr ink
se e
ell a
ĠM a
ol a
Ġoffic er
or al
Âł km
Ġwould n
Ġmag azine
Ġsur face
Ġcon cept
Ġph one
Ġstra ight
ve y
et her
Ġl ines
um ents
Ġc ause
Ġh ospital
ĠK n
Ġprot ect
ĠSup er
Ġman ufact
Ġdirect ion
6 0
ap ped
Ġincre ased
Ġp ict
em s
Ġn ature
l a
or por
Ã ¤
Ġn ames
Ġb ound
Ġf ear
re me
ĠZeal and
Ġoper ations
Ġapp lic
Ġser ious
ĠL uc
Ð µ
ĠBro wn
h ouse
ĠS aint
ĠCong ress
ĠB ill
Ġstart ing
Ġp ack
Ġind ic
Ġcompan ies
in et
d en
O h
ech an
Ġ195 0
ĠJos eph
Ġstand ing
o ch
Ġh ope
ĠF ort
Ġmean ing
m ark
Ġchang es
Ġproble ms
ad ium
l or
Ġter rit
Ġear th
ĠU nder
ĠJ ul
Ġresp onse
er o
ĠEar th
ĠChap ter
Ġrem ains
Ġ" "
c hen
Ġsc ience
Ġsim ply
Ġinc ome
Ġcomplet ely
Ġag o
ver t
Ġcount y
ir ing
it ude
ĠRec ords
Ġ =
ven ue
Ġfail ed
ĠF estival
Ġlaun ched
Ġt rib
Ġnodd ed
Ġrelig ious
Ġfor t
ĠP ac
Ġinter view
un ch
Ġpre vent
Ġsp read
Ġcont ains
Ġm ale
s is
ig an
ĠL ater
ĠW omen
Ġiss ue
Ġparticular ly
Ġvict ory
Ġgr ant
Ġl og
asket ball
ĠFor ce
ĠGeor g
s s
Ġlik ely
yl van
Ġsh all
ĠPl ay
' ve
u a
Ð ¾
im in
Ġcontin ue
ec ause
Ġob tain
ĠAr ab
ĠO f
is ions
Ġmajor ity
Ġlar ger
Ġsh oot
ĠEd uc
ĠAngel es
Ġsh are
Ġmin or
er em
Ġo p
Ġsen ior
D on
ĠĠĠĠ ĠĠĠĠ
ĠE ven
ograp h
t a
Ġch o
ĠN avy
Ġtr ade
ap h
Ġcomm ission
Ġcharac ters
ĠSc ot
ĠChic ago
W ell
ĠS un
Ġre ach
Ġmed ical
Ġfig ure
Ġsh own
ĠBo ard
Ġaddition al
Ġassoci ated
g a
ĠMex ico
Ġleg al
ĠA re
ĠM ill
Ġg rew
Ġpe ace
8 0
b an
Ġdirect ly
ĠM ore
ac hes
Ġim ag
Ġv oc
Ġactiv ities
E R
ĠS at
c ious
Ġresult s
ĠS ur
Ġlim ited
ĠF ound
ri end
ad ing
Ġcent re
Ġt err
ĠHist or
Ġs al
Ġc old
Ġtar get
Ġem b
Ġs om
Ġmanag er
Ġw estern
Ġcons ist
Ġn ine
Ġcre w
Ġwind ow
u ing
rib ution
Ġ198 9
um ed
ĠS ummer
ĠE mp
Ġf irm
i ents
ust r
et ic
Ġsc ore
et te
and on
Ġgo als
ĠU p
Ġselect ed
ĠAr ts
Ġsch ol
Ġw a
ĠVirgin ia
Ġstre ng
ol s
ĠS qu
ch ange
Ġst one
ĠIt aly
Ġdist ance
Ġd ream
Ġthink ing
Ġsoc iety
Ġc ustom
i Ä
d own
Ġa w
Ġfam ous
Ġcont act
Ġsp ot
Ġse nd
Ġun it
T V
Ġr ap
Ġad j
Ġex act
2 1
ylvan ia
Ġwrit er
Ġ i
est ed
c ript
ab y
Ġt rou
Ġg re
" ).
Ġtw enty
Ġtr ust
ĠF red
in y
ĠB oth
ang er
ĠP arliament
Ġhold ing
Ġd om
Ġslow ly
2 3
st e
c a
ab les
ĠOlymp ics
Ġc ry
ĠS k
v a
Ġeconom ic
al ing
Ġ198 8
Ġc aught
ĠM ass
Ġconn ect
o es
ron ic
Ġdes pite
Ġtr uth
ĠO ver
Ġth ous
Ġqu arter
ĠM ic
ĠS il
Ġref lect
b ur
ard en
w rit
ĠM ur
Ġp an
Ġch ap
ce nd
Ġrem aining
Ġun ivers
Ġsp oke
Ġch ief
j a
ĠC le
ĠAn other
Ġagre ed
Ġret ired
Ġen em
ĠE very
Ġmus ical
at ively
ian ce
Ġmat ches
Ġsqu ad
Ġf it
ĠDes pite
Ġfeat ure
Ġclaim ed
Ġmov ie
Ġopp ort
2 4
Ġprogram s
Ġann ual
Ġp al
Ġcult ure
ĠW ood
Ġc ases
Ġpl ans
ĠMart in
Ġb ow
Ġse arch
im b
Ġar rest
Ġnear by
Ġt ree
ĠR os
Ġpre p
Ġr ate
Ġre pe
ent h
an ed
Ġincre ase
ĠB ob
Ġpl aces
Ġthe ory
re ct
Ġform s
ar row
Ġd ed
ing u
or ry
Ġp ull
Ġmar riage
ĠC at
Ġsitu ation
Ġc ounter
ple ment
Ġrepl ied
ib ly
Ġart ists
ĠH el
ĠO ut
ĠH um
Ġsour ce
Ġsing er
Ġfore ign
ĠJ ud
ĠL iber
ĠChampionship s
Ġserv ing
in ter
ĠD en
Ġfun ction
ail y
Ġn ation
Ġcom ment
Ġdr ug
g l
Ġph il
Ġsupport ed
Ġdiscover ed
S o
Ġm aster
ric ult
ĠP re
ĠCh arl
Ġbr idge
Ġtem per
Ġknow ledge
Ġstr ugg
Ġ18 3
Ġf ine
Ġcon vers
ri e
ĠPe ople
ĠB ook
az z
H ow
ĠRuss ia
Ġinit ially
Ġpresent ed
Ġoff er
ĠFlor ida
F L
Ġsepar ate
ĠVal ley
Ġal tern
ar ters
ĠPenn s
Ġdro pped
Ġsec urity
ĠPro fess
erv ation
ĠCh ief
Ġd og
un ior
Ġcomp uter
ar c
Ġqu iet
à ¤
Ġcorn er
Ġk iss
ĠSec ret
Ġstat us
ear ch
Ġsold iers
row d
Ġst ories
2 2
ĠN orthern
i y
ound s
ĠQue en
Ġmanag ement
ĠIr an
ess ion
Ġfav or
h o
ĠIr ish
Ġhous es
Ġcont r
Ġexp ected
Ġ198 7
Ġrefer red
Ġun iversity
Ġrequ ire
ĠPenns ylvania
ĠH ot
Ġindivid uals
ĠLe g
Ġw arm
* *
Ġfinanc ial
ĠB raz
m ission
Ġoper ated
ĠB attle
ir ty
Ġdep art
ill a
Ġp sych
Ġshow ed
Ġant i
Ġsc ene
Ġwat ched
e ah
ĠSt ep
Ġserv e
Ġch ance
ro at
Ġappear s
b on
Ġgen us
ed s
Ġbe at
A meric
Ġarr ang
Ġp il
ĠW ales
Ġpol icy
Ġrec ent
Ġear ned
oc key
Ġgirl s
k ing
Ġdis s
ĠJ ac
ĠO per
Ġsqu are
Ġphys ical
Ġcompet ed
port s
Ġcoll abor
Ġh ol
Ġcommun ic
Ġus es
Ġplat form
r id
ĠBe fore
Ġ198 6
ur ies
Ġmet al
Ġcol or
r am
Ġb ird
Ġansw er
ĠY ear
ast ic
Ġtalk ing
Ġc itiz
Ġse qu
Ġcomm it
ĠF re
Ġprom in
ĠB ig
ĠG ames
Ġsh r
ĠH aw
Ġord ered
Ġst ore
ic an
Ġtechn ology
ig er
Ġlet ter
ĠT im
Ġ ess
Ġmunicip ality
Ġrespons ible
ĠC D
Ġdis play
m ond
Ġvar iety
Ġsp orts
Ġ198 4
it t
ĠT echn
amp ion
Ġnum bers
Ġ ir
ob al
ĠR y
i as
Ġtro ops
res h
Ġinflu ence
Ġpres ence
a ult
Ġship s
ĠProv ince
or a
Ġanc ient
is ation
Ġresp ond
ĠB oy
Ġed ition
Ġgu itar
ĠS ub
c el
Ġ ut
ĠB re
Ġtre es
ĠE ll
Ġdou ble
Ġf air
b re
Ġcol on
B ut
2 7
Ġa im
im um
ag ing
Ġm is
ian a
ĠA p
Ġcon fl
ĠS outhern
A l
Ġsuc ceed
uc le
ing ton
ter ed
Ġh our
Ġrem oved
ĠEduc ation
Ġcomp osed
et y
Ġc ouncil
A r
Ġsubsequ ently
Ġl ic
F A
Ġf ederal
Ġed itor
Ġbe y
ĠW ork
Ġper fect
ĠBraz il
Ġw ild
Ġ198 5
ell ig
Ġgu ard
ĠM ax
Ġsh ut
ĠCol umb
Ġam b
b ook
on om
anc y
Ġwait ing
Ġm echan
Ġst ars
ĠP ublic
ĠJew ish
Ġgr ab
or row
a o
Ġprov ides
Ġpo et
ĠB us
ĠB ank
Ġbey ond
S h
Ġm ut
il ly
Ġab ility
ĠS ol
on n
ĠK e
ĠD ou
ĠEd ward
s et
ĠMc C
oth ing
Ġint e
ĠS pr
u an
ĠCl ass
B A
Ġover all
Ġtrack s
ĠT er
Ġun s
r or
end er
Ġmil es
Ġl ies
ĠE lect
Ġl atter
Ġs uit
Ġeas tern
Ġapp l
ĠP an
Ġp urs
ĠPac ific
Ġbeaut iful
Ġincre asing
ce an
Ġn eck
it an
ĠL and
ĠServ ice
Ġdep artment
Ġlab el
c ol
en ant
Ġent r
Ġsh op
Th is
Ġcond itions
ar io
Ġo il
Ġgo es
7 0
? âĢĻ
ĠDan iel
t ies
Ġneigh bor
Ġmain ly
Ġ ign
Ġextend ed
2 6
Ġc rowd
Ġcomp os
Ġhon or
ar p
Ġin h
Ġpurp ose
Ġmultip le
Ġc ard
Ġs oul
ĠIs lam
Ġsk in
p ut
cl es
ĠSc ience
Ġse asons
ip l
Ġoper ation
Ġcons ists
ĠLe e
Ġsc hed
Ġf ix
Ġpart n
al i
ĠD is
Âł m
ent r
Ġb es
Ġhad n
ĠE ach
Ġd ra
ĠS und
ĠSp ain
Ġb ott
Ð ½
Ġst ations
Ġsom ew
urb an
Ġdis e
Ġacqu ired
Ġreve aled
ĠM od
Ġd omin
Ġmed al
w ide
Ġ6 0
b ury
Ġneed s
Ġ ult
Ġlevel s
vent ion
ĠI ll
Ġrecord ing
Ġest im
R A
Ġwe bs
ab eth
Ð ¸
Ġleg isl
h ol
Ġpos itive
ĠM ah
Ġprop osed
Ġ198 3
e z
ĠW al
Ġsh ook
if ying
Ã ¨
2 9
Ġent er
Ġdr ive
at i
Ġreg ional
Ġpiec e
Ġc ities
Ġbeh av
Ġle aves
ĠT imes
. )
ens ity
Ġk it
Ġe th
ag er
ir a
ĠL ist
ock ed
od ies
Ġyou th
Ġv ote
Ġn ative
Ġsim ple
Ġ198 2
ĠEmp ire
n o
Ġwh is
ic ient
Ġsmall er
Ġplann ed
Ġc am
2 8
Ġexp ect
ĠL y
ĠA wards
Ġ ice
Ġb al
Ġmount ain
ĠAl so
Ġa head
ĠAss embly
Ġsit ting
v ement
Ġgradu ated
Ġpr ay
Ġrecord s
ĠP ak
Ġche st
Ġmur der
gy pt
ap ers
Ġshould er
Ġsl ightly
ĠBrit ain
ĠM os
Ã³ n
Ġ6 5
ed om
ĠM en
Ġte nd
ĠDirect or
ĠIn c
g ar
Ġdis app
Ġdef in
Ġp ra
Ġp aid
ot hes
Ġseem s
Ġr ain
is ters
Ġr are
ex t
Ġchar ge
Ġdem onstr
Ġbro ke
Ġon es
Ġd ance
Ġhapp y
Ġc ateg
Ġp un
ig g
ĠCon n
Ġr ule
Ġc ab
Ġh ur
Ġ193 0
ĠL et
19 8
Ġ194 0
ĠSp ec
ĠM u
Ġinte gr
Ġac adem
Ġhigh ly
ail ed
Ġcont em
ĠEl iz
ĠC ur
g u
Ġgrow ing
Ġed ge
ĠG al
Ġ197 2
ĠDe v
Ġ197 9
ound ed
ĠDe f
Ġd ie
ri p
ĠPr ince
e lect
I S
Ġpot ential
a wn
Ġf illed
Ġnorm al
ĠV ol
Ġcap ac
Ġint ended
I s
ĠR am
Ġaut om
ĠS and
Ġele ments
Ġorgan iz
Ġhistor ical
< /
A T
Ġb ul
ĠL ong
i ated
Ġoffic ers
Ġs and
A S
ate ver
res p
z y
Ġeff ort
ĠPol and
w ar
iÄ ĩ
i h
Ġlook s
Ġproduct s
Ġt all
Ġhor se
Ġappro ach
Ġwe ight
Ġway s
per or
Ġwall s
Ã ¢
Ġaccept ed
Ġche m
en es
ĠGo vernor
Ġlaw s
ag n
ĠOn ce
Ġ194 5
ĠA v
Ġb order
e ed
Ġp it
Ġsil ver
Ġd u
Ġfif th
Ġprom oted
cl aim
l i
ĠRes earch
m as
ĠMus lim
ĠT y
ĠRail way
Ġmention ed
Ġdo ctor
Ġprod uce
Ġp air
ers ey
Ġconstr ucted
ĠE gypt
ĠB ecause
ad or
g ent
Ġfa ith
Ġdestroy ed
ul ations
Ġbeg in
ĠCarol ina
ĠT our
ant ly
Ġnewsp aper
Ġenc our
Ġ197 6
Ġcap tain
ĠR ay
Ġhe av
Ġthere fore
on ic
w an
Ġtr aff
ĠDemocr atic
ĠD utch
ĠM iddle
ĠW ell
ĠSt an
h r
Ġe lev
Ġk ick
uck y
Å į
Ġful ly
ĠH y
il a
Ġrec ently
os op
Ġn arrow
ĠB ow
Ġm ine
ĠB as
Ġinit ial
ĠE astern
ĠL ike
Ġc oin
igh ter
ĠYou ng
Ġ197 4
Ġprofess or
Ġt aught
ĠJ ones
ant ry
m ir
Ġcle an
Ġcomp l
Ġ198 1
ĠL ove
k in
Ġiss ued
Ġ196 8
n am
Ġv an
Ġt ask
Ġb ag
c ome
Ġfell ow
M y
az e
Ġad ult
ĠCap tain
ost on
Ġcult ural
ĠG ood
ĠCon ference
ĠW hy
i ate
ĠRad io
Ġpr in
ĠD i
y ard
Ġun c
Ġbas is
os en
ĠC reek
ĠM ike
Ġtell s
Ġconc entr
k r
ĠSoc ial
ie ut
Ġcon ver
Ġfl ow
Ġw it
Ġw arn
ĠÂ £
Ġgrow th
ĠJ on
Ġ197 8
Ġgu ess
br idge
Ġfem ales
ĠLat in
Ġup per
ĠM ajor
Ġs u
Ġequ ip
Ġim age
ĠSt ar
Ġpolit ician
Ġtransfer red
A C
Ġg ives
A R
Ġm ist
Ġp et
Ġimp act
Ġs ort
Ġinc orpor
Ġ197 5
Ġfollow s
ir med
Ġsy mb
Ġfight ing
Ġquest ions
Ġmem ory
Ġ19 20
ĠF our
Ġelect ions
w in
Ġ4 5
ĠD ar
ac hel
E S
Ġproduc er
Ġeff orts
Ġres idents
Ġ3 5
Ġpre t
Ġfl ight
Ġcar s
ic ted
Ġab andon
ĠL ine
) ;
Ġactiv ity
Ġprim arily
is her
ed d
Ġclos er
ĠTh ree
Ġsuggest ed
por ation
our ces
g ian
Ġpress ure
ĠO pen
ans ion
Ġnecess ary
Ġe at
Ġfin ish
ĠAs h
ist ics
Ġb asketball
ang ing
Ġrecogn ized
ent ed
Ġcond ition
Americ an
ill ing
um ber
Ġpower ful
b our
cl us
ĠII I
d d
as hed
Ġeffect s
Ġr ing
ĠK r
ob ile
Ġ18 0
ĠSt ation
Ġcond uct
Ġmay be
re c
Ġbro wn
Ġleg s
Ġelect ric
ĠM em
ĠB ul
Ġl augh
Ġmus eum
ub e
iz es
ĠU r
y e
Ġm ic
ĠV an
ug by
ĠAnd rew
Ġrul es
am ily
ĠT re
Ġread ing
Ġb att
Ġappear ances
Ġ197 3
i est
ĠT em
er c
Ġch oice
ĠFrancis co
k ed
ans as
Ġsudden ly
Ġalong side
" >
ĠWilliam s
__ __
Ġhousehold s
Ġ197 7
Ġsp lit
ĠScot land
D o
Ġtreat ment
Ġstreng th
ĠAd d
Ġgre ater
Ġr isk
Ġpick ed
3 5
ri er
ian o
ĠK ent
Ġtw ice
L e
el a
st one
Ġh un
at o
is hes
Ġsett led
Ġdefe at
Ġproject s
Ġwor th
Ġwith d
ĠJohn son
i ot
u is
Ġqu ality
ĠH on
ĠC ivil
ĠA z
idd en
Ñ Ĥ
aw a
c an
Ġdiv ided
Ġb omb
Ġsaf e
Ġoffic ially
Ġfun ct
ĠV er
Ġmin ute
Ġwork ers
9 0
Ġadd ress
un ction
Ġ197 1
Ġpre c
Ġtyp es
ul f
Ġch annel
ag ement
Ġa ware
Ġbecom es
C C
ĠFound ation
Ġoccur red
Ġteac her
Ġr aces
Ġst ream
ĠL ab
ĠEliz abeth
Ġ196 9
ĠCo ast
ĠB oston
ĠOr der
I f
Ġequip ment
7 5
Ã §
anc ing
ĠSe a
ĠH u
o z
4 5
Ġagre ement
ĠJo e
Ġfor g
ieut enant
ĠT am
ĠJe ff
Ġlead ers
ĠPort ug
ĠG all
Ġs ides
if orm
Ġrece ive
cl ass
ĠW ind
Ġparticip ated
ack s
ĠSer ies
ĠAs ian
Ġsupp osed
Ġpro gress
i ro
Ġcontro ll
am ber
Ġhead ed
S he
Ġhead qu
ĠK enn
om s
ĠJack son
Ġact or
Ġl ips
, âĢĻ
en ger
st ra
ĠThe atre
ĠC ross
m iss
Ġext ra
Ġ /
Ġpurch ased
Ġcont ent
Ġartic le
y er
Ġat h
Ġeas y
s en
Ġh arm
Ġl osing
g n
Ġmed ian
ak a
Ġdam age
Ġprov ince
Ġbr anch
hen s
bur gh
or ough
Ġm ill
w here
Ġpromin ent
Ġper haps
ad el
Ġbro ken
k er
Ġcamp us
Ġcandid ate
ĠBro ad
Ġ196 7
m ad
ribut ed
ĠNew s
Ġd ress
p art
Ġesc ape
Ġdecl ared
velop ment
ĠD am
Ġpat tern
Ġcapac ity
Ġis n
Ġinter p
ĠCent re
W hy
ĠL ife
Ġf ish
Ġw ing
ĠTe am
Ġwebs ite
stit u
Ġeas ily
ĠB ern
. '
Ġth row
ug hed
Ġst orm
Ġnot able
Ġyoung er
ĠB C
al le
Ġbr ain
Ġpar ish
Ġr at
Ġeven ing
ĠS ever
Ġc atch
Ġapp arent
Ġf resh
b ody
g g
ge nd
Ġte le
Å Ĥ
ĠPhil ipp
Ġwalk ing
it led
ĠMich igan
Ġpret ty
Ġstep ped
Ġass igned
ĠR og
Ġla ughed
Ġ Å
Ġadministr ative
ĠSecret ary
Ġsuff ered
Ġem pt
Ġcontin ues
ĠY our
el ess
Ġse vent
Ġth ick
Ġper man
Ġcond ucted
Ġbur ied
Ġfe ed
ĠAs ia
Ġgu y
Ġg ained
Ġown er
Ġg od
Ġhe ll
Ġact ing
B S
Ġcomp ared
ĠOh io
Ġexp ression
ay a
Ġcapt ured
g reg
Ġh ar
r ich
Ñ Ģ
Ġsurround ing
ĠG ar
ĠR ome
or ter
Ġim plement
Ġdist inct
is f
u ous
Ġr ac
Ġon line
enc ies
Ġsee ing
Ġded icated
A n
ĠH arr
ĠAlex ander
Ġb ought
he red
ister ed
oc ated
ĠSy d
ol ved
Ġres ist
ĠC y
Ġpro te
Ġsup pl
ou red
Ġwrit e
Ġv ac
Ġn ucle
Ġt im
op tion
al og
w ise
u ation
Ġ196 4
ĠT op
Ġwatch ing
s es
Ġoff ers
he ster
Ġanim als
Ġboy s
ĠHe alth
Ġcitiz ens
ĠAl bert
ĠK en
ĠP ost
ĠW all
Ġro b
w ith
ro g
Ġsp ring
Ġc erem
enn is
im a
Ġest ate
Ġ |
Ġren amed
Ġsecond s
Ġre form
Ġmag n
Ġch allen
Ġcre ation
ord in
ann a
ĠA venue
Ġkit chen
3 3
Ġexact ly
ĠP rem
ĠSy stem
g ely
ĠM id
ĠO x
ĠB al
Ġs ave
ste in
Ġs ight
ĠOff ice
Ġpain t
or ation
Ġun able
ĠPro t
Ġwond er
Ġcon clud
Ġy ellow
Ġy ards
Ġassist ant
k o
Ġin stitut
ĠSen ate
Ġadop ted
Ġfing ers
ĠRepublic an
in ity
iv ity
ĠLit tle
th ur
Ġr ural
ĠHe ad
ĠProfess or
Ġmix ed
m od
b ec
Ġcommon ly
ĠGeorg ia
Ġenem y
Ġfl at
Ġbrother s
ĠB BC
Ġj um
ath an
ĠK ar
Ġwhis per
Ġref used
Ġacc ident
Ġre ject
od ay
id ay
ĠT ay
am m
in em
Ġc up
p et
Ġav oid
ĠA th
Ġk id
Ġwid ely
ĠEng ine
ĠF ar
Ġorgan ized
ĠE st
Ġch osen
ĠW ater
I N
ĠIn f
av a
Ġsex ual
Ġhistor ic
Ġpl ants
Ġhous ing
ĠCor ps
Ġrec omm
Ġnot iced
Ġco ff
Ġl abor
Ġm ir
Ġfac ilities
Ġsol o
us hing
Ġn ob
Ġentr ance
z en
Ġsettle ment
am ing
o h
as y
Ġp ushed
Ġc ool
ect s
Ġreal ized
p ass
Ġ196 5
b it
Ġs orry
st ead
ic ine
w w
Ġrap id
ĠBl ue
Ġget s
Ġb are
k ins
ĠR out
ĠScott ish
Ġadministr ation
ĠSyd ney
a is
ĠB orn
Ġf ought
ĠM as
ash ion
ĠJe an
Ġthough ts
Ġro w
d ro
Ġro of
Ġ8 0
Ġ196 6
Ġvict im
ĠColumb ia
Ġ194 4
resp ond
Ġd yn
ĠL i
ĠH a
ĠH ung
Ġact ions
Ġcell s
Ġcom fort
Ġnot e
Ġm ax
ĠM ir
Ġconn ected
Ġlar gely
Ġla id
are t
Ġpoin ted
Ġh uge
ĠD et
Ġcomb ined
ĠCh ris
on ia
Ġag ricult
ĠV iet
Ġoper ating
Ġs ales
Ġexist ence
f riend
Ġterrit ory
Ġte aching
Ġbeg ins
it age
Ġh urt
ĠPol ish
ĠM aster
Ġtraff ic
r ical
ĠVictor ia
Ġmot or
eder ation
Ġreal ity
Ġmach ine
I A
Ġw inner
ĠA ri
Ġyour self
rick et
ĠSh ow
Ġserv es
Ġl ibrary
Ġcon stant
Ġd ry
Ġtri al
Ġcor rect
cept ion
ĠMar c
rup t
ĠOn ly
ĠH ospital
un te
Ġocc asion
es ter
Ġob vious
Ġv ess
on ents
ĠBro ok
ĠUn ivers
Ġvar i
Ġsaf ety
ild ing
Ġb odies
ĠO s
in als
Ġmot ion
Ġex ecutive
Ġwant s
Ġsk y
y al
The re
A F
Ġnew ly
Ġl iber
ug ged
Ġcon ference
Ġpro ceed
ig a
Ġun ique
Ġb aby
Ġbott om
n ce
Ġr ub
Ġro les
ĠG h
Ġacadem ic
Ġsh ared
Ġpiec es
b u
Ġrest aur
Ġsem i
Ñ ģ
Ġsour ces
el ly
Ġtyp ically
g al
ul pt
Ġlangu ages
ĠC orn
Ġpart ies
ĠW ay
el ve
ĠS ong
ĠH un
ĠR el
Ġs ac
Ġform at
ĠMr s
Ġlearn ed
v is
Ġd rop
ad u
arr ing
Ġestim ated
Ġfeat uring
Ġst ret
ĠC ard
Ġdr ama
Ġweap ons
Ä ±
Ġrespect ively
Ġallow ing
Ġb le
Ġtrans form
ĠB h
Ġschol ars
Ġcont ain
Ġdes cend
Ã ±
ĠCh ild
Ġconf irmed
em eter
ĠS her
Ġpro f
Ġcommun ities
Ġexp ress
wh ich
Ġreturn ing
C O
os ite
Ġhum ans
Ġhot el
Ġscient ific
ĠB ell
u ly
Ġfoc used
Ġexpl ained
Ġro se
Å ¡
Ġfl ag
Ġst ared
Ġlead ership
Ġap art
Ġclub s
ĠF ield
ĠL ady
Ġcrit ical
Ġ era
Ġh abit
ul ate
ric s
Ġr ough
ĠGu ard
Ġret ire
Ġresult ed
ĠJ ersey
ĠHistor ic
Ġun ion
ĠS us
ĠC op
ĠHol y
ĠH or
ellig ence
d r
Ġred uced
ino is
Ġgrant ed
v in
Ġturn ing
b ut
Ġopport unity
Ġident ified
ĠF ederal
ion e
ĠP en
ĠTh rough
Ġbo at
Ġauthor ity
Y eah
ĠU kr
am in
on ent
ĠB ang
Ġst ock
ĠM ot
Ġ7 0
per ial
ourn e
Ġl ake
Ġ iron
ĠO tt
Ġb urn
19 7
ĠR aj
et ts
Ġn or
Ġjoin t
Ġpos itions
Ġprov iding
n es
el d
tern al
A ll
Ġprem i
Ġreview s
N ew
ĠU l
ĠK ong
ing ly
ĠM inn
Ġtit led
ast y
Ġse ats
ĠTh ough
rop ical
Ġdise ase
ont o
Ġdel iver
Ġd aily
Ġsup ply
Ġpart ner
Ġhe at
Ġindust rial
Ġs ell
n ic
Ġl y
Ġt al
Ġc ode
Ġpain ting
ĠW ild
Ġmark ed
Ġre act
ĠPro d
est ic
Ġm ales
ĠN ick
Ġwin ter
Ġsp ort
in clud
Ġd ial
Ġepis odes
Ġas pect
ach us
Ġ ...
Ġcall ing
ĠA k
ĠJ r
Ġmeas ure
b a
A P
stand ing
ĠV ill
Ġet c
Ġtr ail
Ġtr uck
Ġfl ood
Ġset ting
Ġexper iment
Ġre asons
ĠPr ime
ĠJust ice
ow ed
Ġnot es
Ġhold s
ĠOff ic
Ġexp anded
Ġclass es
Ġro t
Ġdr iver
and ing
Ġres ident
Ġcor respond
ĠBer lin
Ġpict ure
Ġtri p
Ġcontro vers
Ġem ot
ĠN ic
Ġv en
Ġtell ing
Ġaud ience
Ġ196 2
ĠIll inois
Ġa wards
und er
ĠL ew
Ġtem ple
Ġ196 3
ĠRout e
Ġcons um
Ġl oud
rop ol
ul es
Ġdeterm ined
ĠI ra
Ġlearn ing
ak s
Ġclaim s
Ġknow s
ĠH ong
ĠCor poration
Ġ194 2
Ġstep s
Ġd ang
ook ing
l ers
Ġsh out
ĠN orm
ĠAr gent
Ġwe ak
ĠB ishop
Ġmess age
Ġwit ness
ĠAm ong
ĠT ri
Ġ17 9
Ġalbum s
ip e
Ġdig ital
Ġpass ing
Ġadv ant
Ġ194 8
i at
as ure
Ġs ect
Ġcol umn
ĠDe velopment
Ġt or
Ġsing les
ĠP op
Ġ( ,
Ġappl ied
ourn al
Ġfig ures
ĠF C
all s
ric ts
Ġmin ister
Ġattack s
Ġc art
Ġfootball er
Ġmod els
Ġco al
Ġphil osop
Ġcreat ing
5 00
re al
Ġch ampion
Ġallow s
ch ing
l ar
un a
Ġ9 0
Ġb ot
o ir
ĠS pe
Ġattack ed
Ġs ons
Ġcon stitu
ĠH ind
Ġadv anced
ĠD uke
Ġcall s
ĠBr ad
Ġanaly sis
Ġtow er
ĠA h
on na
Ġreport s
Ġsc r
Ġwe alth
3 6
Ġhost ed
Ġresult ing
Ġinstr ument
ĠW at
Ġopp osite
hem at
olog ist
Ġprot ection
m et
Ġimm igr
ĠL ar
ĠWh o
3 8
Ġsc ript
ĠQue ens
ĠAd am
Ġd oll
Ġdep end
Ġd ensity
Ġun known
Ġsp ons
ĠComm on
ĠT ime
Ġhe ro
Ġpre fer
Ġposs ess
Ġorganiz ations
ĠR od
19 6
Ġanim al
ĠK at
Ġpre par
Ġp oll
ad s
Ġres c
M S
Ġexper i
Ġr ise
ĠSever al
emeter y
ĠD un
Ġaff ili
Ġsitu ated
âĢ¦ âĢĿ
ĠC E
Ġtit les
ĠS a
Ġb ill
Ġre ar
an th
uct ions
ĠP ress
Ġcr ime
ing er
Ġgrab bed
Ġsh ape
av el
Ġcont est
ĠIs lands
Ġ194 1
ĠG i
Ġgo vern
ĠEx p
Ġwh atever
Ġl ov
ĠV en
Ġfac ility
v est
ĠSte ve
Ġstay ed
Ġ urban
rop ri
Ġal ive
ra ham
ĠG reg
f r
achus etts
ĠMay be
ĠOlymp ic
ĠB ase
ĠMin istry
u h
Ġansw ered
Ã¡ n
ĠBr idge
Ġbr ight
ĠE le
ĠAr m
ĠB udd
4 7
im inal
Ġvehic le
ok en
Ġl oved
Ġ !
Ġmunicip al
Ġprom ot
ĠR om
ĠO b
Ġide as
ĠC z
Ġturn s
Ġ194 6
Ġf aced
Ġform ation
wh ile
Ġext rem
ĠSup reme
Ġr id
Ġachie ved
Ġinj ury
Ġhe ight
w ater
Ġobtain ed
Ġliter ature
Ġ3 6
erv ative
Ġunderstand ing
Ġp age
ĠPol ice
ĠAir port
Ð »
Ġvot es
Ġ3 2
Ġempt y
ak h
ĠL ight
Ġsucceed ed
Ġim pl
The y
ĠE p
ur ance
Ġ196 1
Ġcl othes
ig ade
r ad
ĠK im
Ġal t
ĠEn ter
ĠMass achusetts
el le
ĠHigh way
Ġg ro
Ġnomin ated
Ġrepe ated
Ġattempt ed
Ġfl o
ak ers
Ġrel atively
Ġw ish
Ġ194 3
Ġsoft ware
Ġsc ulpt
ult y
h ow
ĠJ er
b ourne
Ġvis ited
ĠSant a
im al
A N
Ġsw im
ĠF er
Ġ195 6
3 7
Ġbelie f
Ġb at
Ġsit es
adel ph
u er
Ġcontem porary
Ġele ment
ind er
Ġv irt
ĠSpec ial
3 9
j i
Ġrec over
Ġport ion
ĠF air
Ġofficial s
man n
Ġauthor ities
ĠHum an
Ġrelig ion
Ġdo ors
Ġf at
ĠWil son
Ġp arliament
ĠB a
in er
Ġrank ed
it ors
Ġspe ech
ĠTur k
ĠH ay
Ġlet ters
ĠKore a
enn y
ĠIra q
Ġc as
Ġgr ass
Ġplan et
Ġpro s
Ġfield s
ĠPak istan
r an
if ted
E C
al ion
Ġcaus ing
Ġst uff
Ġdist ribution
ĠAnt on
ĠChrist mas
re p
ĠC oll
Ġex change
orn ey
Ġplann ing
ur er
Ġjourn ey
ĠU s
Ġre aching
Ġp owers
Ġro yal
Ġsecond ary
Ġgu est
4 8
ĠAr thur
ĠFore st
Ġ193 9
Ġbu y
Ġn one
Ġsub s
ili ar
Ġord ers
Ġdef ined
l aw
Ġentire ly
Ġsc oring
Ġcast le
Ġag ent
Ġb ath
ĠT oday
Ġwear ing
ĠTay lor
ĠAt t
a ug
le ase
ĠB ol
Ġ5 00
Ġprep ared
Ġposs ibly
Ġsc ale
on ze
Ġsp ect
ĠRev olution
Ġexist ing
adelph ia
in th
g ment
ĠJac ob
igh th
Ġcoff ee
Ġass ociation
ĠL ibrary
Ġback ground
Ġ194 7
ul ed
Ġf uck
Ġprov inc
n el
ĠF le
ĠE nd
ĠN az
ĠSt adium
Ġop in
Ġcomm ittee
Ġperform ances
ĠMar ia
ov a
es h
O R
se x
Ġconc ert
Ġmaterial s
er al
Ġa f
Ġcan cer
ĠL oc
ĠF orm
ĠM att
Ã ¸
Ġgun s
se y
ĠCol on
ĠMar sh
ick s
ra id
Ġco vers
Ġbas ic
ot y
ĠHist ory
Ġarrest ed
Ġneighbor hood
ĠO k
ac ement
ĠL im
Ġcomm ander
ly n
Ġf estival
ĠW alk
b ro
Ġ4 4
ĠTor onto
Ġinsp ired
ren ce
Ġres ources
Ġset s
Ġheav ily
Ġkill ing
e ke
Ġb ud
B l
ĠL ind
ust ed
ĠC a
Ġ195 8
ĠO nt
I T
Ġfrequ ently
Ġn ort
Ġend s
pt on
ph as
Ġheadqu arters
ĠS om
w ing
Ġeffect ive
ĠH ere
b ell
Ġm el
3 4
Ġn ice
ĠN ight
out heast
Ġconn ection
Ġval ley
ĠG ame
ad ow
Ġf ans
Ġmiss ing
ĠH al
Ġm ile
Ġ195 9
ul s
ĠF ox
Ġb illion
Ġnot ice
r u
Ġthem e
Ġpr ice
Ġinv ited
ain ts
ĠPro gram
Ġold est
Ġstart s
r ig
d a
ann y
Ġad vert
c ont
ir k
ĠCast le
Ġopp osition
Ġcomb at
em an
ious ly
Ġcom edy
Ġbr and
Ġt ight
ĠSund ay
Ġattempt s
ĠSwed ish
ĠEm peror
ĠN ations
O N
ĠH ome
ĠStep hen
ĠM ain
Ġdesign ated
ĠN etwork
l an
Ġpolit ics
Ġr ich
Ġath let
Ġal le
ĠUS A
ĠN ether
ĠU N
Ġinterest ed
Ġvers ions
b el
Ġv ent
ĠF ather
o is
Ġp up
Ġbes ide
Ġshort ly
Ġjud ge
os h
Ġev il
Ġconfl ict
w a
we ight
Ġcal c
Ġsn ow
Ġe c
i enn
ĠT al
Ġtown s
ĠG ab
ĠSim on
ĠE s
Ġsy n
ĠO ur
Ġbase ball
ĠOx ford
Ġreg ions
Ġvill ages
o oth
re te
w estern
Ġf lying
Ġste el
Ġtr ains
iqu es
ĠPhil adelphia
Ġoccup ied
Ġh ung
Ġd im
i i
ĠT ra
Ġwind ows
Ġ195 7
ĠB and
ĠR on
ĠS omet
Ġact ress
Ġabandon ed
Ġwor ry
Ġent ertain
Ġgl obal
Ġrefer ence
ĠOnt ario
Ġrece iving
Ġt on
V D
ĠT est
om ot
Ġair port
ant a
ĠP ers
Ġshe l
ik i
ĠAtl antic
il ton
Ġent ry
ĠD or
Ġclear ly
Ġto m
Ġsix th
Ġch ose
U n
ad er
Ġhigh way
Ġ Î
ĠA ff
ĠT ony
Ġdet ails
ĠF I
app ing
ĠInd epend
Ġtw elve
ĠIn t
Ġshow ing
Ġend ing
ig hed
Ġdoub t
Ġdr iving
che stra
Ġfind ing
Ġf ly
4 9
ann ing
ĠG er
Ġple ase
Ġill ustr
Ġstr ange
Ġgo vernor
3 1
Ġdes k
ĠS ab
Ġcol le
Ġfav our
M A
Ġent itled
Ġtrou ble
Ġcirc um
ĠAth let
ĠCon f
Ġcomp r
ĠA ut
Ġhead s
Ġprincip al
ĠTown ship
' .
Ġconvers ation
w orth
ĠCh air
id i
Ġs ought
he im
ĠComm un
ut s
Ġsp end
ell o
Ġw rap
ĠM ov
Ġh ill
Ġfre edom
d iv
Ġdef end
Ġc ert
ĠAl f
ag an
ĠJew s
I C
ĠRep resent
Ġo kay
Ġsil ence
Ġm o
Ġp ool
Ġdef ense
Ġ195 2
itz er
ĠP ower
Ġm or
ĠBet ween
Ġmethod s
Ġk ids
ast e
Ġland s
ĠHar ry
Ġneg ot
Ġeconom y
ĠD ie
Ġv on
ĠMar g
ĠR em
Ġsound s
N ot
os a
4 6
ect ive
ig en
Ġel imin
f ather
Ġstre ets
Ġneg ative
ap es
ĠG irl
ĠT a
an z
Ġdiffer ence
Ġclos ely
à ¦
Ġfind s
ĠSar ah
us es
Ġcent uries
urn ame
Ġm ent
ĠHol ly
Ġfound er
ĠS ports
r as
Ġcont ained
Ġcl oud
um s
" ;
Ġh ors
ĠC ub
Ġ195 5
le ts
Ġf ashion
ra h
ĠR ose
Ġk il
ic i
ĠAb out
z z
ĠE arl
ĠReg ister
Ġcrit ics
Ġcop ies
Ġrequ est
Ġwe ather
5 5
Ġvehic les
cent ury
Ġdist ingu
Ġcontr ast
b ar
Ġsat isf
ĠRob in
ĠJan e
Ġ194 9
ĠBro ther
ock s
Ġs ick
Ġstat ement
om er
1 00
re es
ĠB ad
l ong
Ġun cle
Ġswe et
Ġar ts
Ġsp r
ĠBe ach
ĠLe on
Ġterm in
Ġt ick
Ġwood en
ch ar
ĠDav is
Ġknow ing
cl usion
Ġd rew
Ġspe aking
Ġdr ag
U S
Ġdist ricts
Ġn erv
Ġf uel
iv ered
Ġsol id
Ġbehav ior
Ġprov ed
Ã© e
Ġrem ark
Ġopp osed
Ġcons isted
Ġchair man
Ġkeep ing
Ġappro ved
ell er
3 2
og ue
Ġstand s
ut ies
Ġperform ing
Ġle ct
Ġequ al
Ġact s
Ġident ity
Ġ â
ograp hic
n ight
Ġo x
Ġthe atre
out s
Ġ195 4
Ġemploy ed
ĠS av
Ġa ired
Ġv ision
ĠAmeric ans
F C
ur day
ĠG en
is a
Ġinc ident
O S
ĠAb b
Ġexpl ain
ĠNether lands
ĠD ue
Ġsubsequ ent
Ġre action
ew ay
ĠSer b
Ġ err
um es
ĠInd ust
ĠE ric
Ġhy p
ann ed
Ġt one
ĠK al
Ġche ek
Ġl ose
ĠR h
Ġem phas
row s
Ġpublic ation
ow nt
Ġun f
ĠMount ain
Ġso le
uz z
Ġperman ent
Ġgener ation
' ,
os is
ĠKore an
Ġex ecut
Ġcarry ing
Ġterr or
Ġex erc
L A
Ġthous and
Ġdra wn
Ġcons ult
Ġport ray
ĠP o
ĠF ire
ur d
Ġocc as
l ife
Ġw ave
Ġ20 20
n s
Ġg ain
Ġst om
ĠReg iment
Ġregard ing
Ġsk ills
Ġ195 3
os l
Ġr acing
enn es
Ġpil ot
ĠE conom
pt ion
Ġprom otion
ver se
ĠP ass
ĠPrem ier
Ġadvant age
al so
ĠS on
Ġw ings
Ġpol ic
Ġbird s
ĠAn th
ĠSwed en
Ġs ust
ĠE th
u v
ar ia
Ġd uty
Ġap artment
ag a
ĠF urther
9 9
Ġext ensive
ĠM un
ĠBus iness
l s
Ġem p
Ġviol ence
Ġb ass
Ġp ock
ĠB or
ĠTh us
Ġobs erved
Ġfund ing
Ġ6 4
pl ace
Ġgr ade
ur ches
Ġartic les
Ġw rest
Ġdes ire
ol n
ony m
hed ral
Ġdec or
Ġsurpr ise
ĠJ ay
Ġ3 8
Ġth irty
Ġim pr
Ġspirit ual
Ġbrief ly
M ay
L et
Ġinh abit
the w
ĠTechn ology
Ġcl im
ĠIn stead
Ġult imately
Ġcon sequ
ĠSh ort
and y
inn ers
Ġg all
ac he
Ġt ears
Ġrel ief
ĠH an
Ġapplic ation
ĠCol or
um in
Ġremember ed
ĠC irc
Ġv o
Ġsurpr ised
Ġfle et
ĠC ult
Ġfing er
Ġd ipl
ĠCz ech
Ġfail ure
H L
Ġpl ot
Ġtr ained
Ġl at
Ġ ]
Ġstri ke
ĠOr gan
ĠPhil ip
Ġact ual
Ġgreat est
% )
Ġst arring
ĠMex ican
ĠB arn
n oon
ĠFred er
a fter
g ers
st ream
ot ic
Ġdevelop ing
Ġaltern ative
ĠComm unity
Ġmet res
ĠT urn
ĠB rian
Ġth rew
eng ers
Ġvoc al
Ġs an
Ġcomp ar
R e
Ġdec ades
ĠB ir
ĠS ix
Ġoffic es
Ġbe ar
Ġmag ic
ĠJ am
ill ery
ĠMed ia
Ġimport ance
ag h
ĠR oss
Ġtemper ature
ik a
Ġroom s
ĠAll ah
are n
ĠF ord
Ġ195 1
om ing
ou ri
A re
ĠAn y
eke nd
Ġa uth
ĠL o
Ġsil ent
Ġr om
Ġcont aining
Ġinstitut ions
Ġf old
Ġf ur
ĠP ier
Ġm ort
ropol itan
Ġhom es
A s
Ġg ar
Ġcl imate
Ġm igr
m outh
Ġother wise
Ġengine ering
ĠUp on
Ġsw ord
ra f
Ġprop os
Ġn arr
ĠLew is
Ġd iam
Ġmax imum
ec e
ĠAre a
ack ed
ang ed
a un
Ġte eth
Ġt unn
ĠW el
Ġ3 4
Â °
Ġconver ted
ke ep
Ġvol ume
Ġob l
Ġexp ansion
f all
u i
Ġ19 18
ĠM P
ure au
Ġw el
ades h
ĠAdd ition
D S
k now
Ġth roat
Ġv ir
Ġappoin t
an es
Ġfin ishing
Ġretire ment
Ġman ner
Ġg ather
Ġstruct ures
b oy
Ġsuccess fully
Ġa id
ĠE P
Ġw ine
Ġformer ly
Ġexp ressed
Ġwa ited
Ġre in
ĠB at
c ar
ick ed
Ġg arden
Ġit ems
Ġgu ys
re ll
ell s
Ġb rick
Ġd inner
Ġconcern ed
Ġarchitect ure
Ġm ap
ĠU t
rown ed
Ġask ing
ĠPro ject
Ġlaun ch
ast s
Ġwhe el
Ġinvestig ation
ap pe
Ġvol unte
Ġexperi enced
Ġcommission ed
Ġlim it
ow ing
ĠD er
Ġmiss ed
Ġ3 3
Ġth ank
ĠAd ministr
Ġ193 6
Ġpat ients
c ow
Ġt ail
Ġform al
Ġocc urs
Ġs urname
Ġintern al
Ġw er
ĠH art
ole c
claim ed
sk y
Ġeng aged
ĠReg ion
ak i
Ġpl ate
ed ing
ĠJ unior
m es
Ġask s
Ġun iform
Ġref ers
Ġqu ant
Ġb ond
Ġaccom pan
iv als
Ġaf raid
ost er
im ents
Ġn ose
Ġad vent
t hen
Ġ193 8
ĠSpr ing
ol ly
ĠN at
ĠB ible
Ġfam iliar
Ġpass enger
Ġ3 7
Ġhe aring
ĠIn tern
Ġh ired
Ġcontribut ed
s m
Ġproper ties
ĠG il
Ġfound ing
Ġass umed
ĠI S
Ã £
Ġte en
ĠSt one
ĠZ h
t ical
ĠOr igin
p son
E N
Â ²
Ġfund s
Ġfunct ions
Ġlead s
4 4
Ġsign al
Ġnucle ar
ro b
st ood
ot ten
Ġdom estic
ab ad
Ġstr uck
al o
Ġw et
ĠJ ournal
or gan
Ġad mitted
uc cess
Ġhelp ing
Ġworld wide
ĠT en
ĠW here
r uct
ĠT ar
S p
Ġwhisper ed
Ġsupport ing
/ /
Ø §
ĠM anc
Ġsing ing
Ġe gg
ĠRy an
ĠV o
Ġloc ations
Ġad apt
CA A
Ġmult i
oss ible
Ġfall ing
Ġdis miss
Ġdocument ary
het ic
g ency
ian g
pp ing
B ill
am i
Ġshe ll
Ġthous ands
Ġweap on
Ġcerem ony
ĠSe e
Ġmy ster
Ġex clus
Âł mm
ĠP it
Ġte ach
Ġch ain
ĠTr ust
Ġextrem ely
ĠComm and
w ich
Ġwat ers
ĠInd ones
Ġcollect ed
Ġle aned
ĠMed ical
Ġ ur
Ġmaintain ed
Ġar med
C an
F or
ĠBar b
ĠH o
ĠB att
Ġc ore
atter ed
ĠAn na
Ġqual ified
inn ed
Ġfl u
Ġle gend
ia h
Ġus ual
ĠL t
ped ition
ĠF ederation
ĠB alt
ĠG ro
Ġdang erous
ar on
8 5
ĠGold en
es c
ĠK han
ĠMat thew
p ool
ĠB ry
form ation
Ġo dd
Ġconv inc
G ood
Ġim ages
e qu
ĠH im
Ġun us
Ġpurch ase
Ġpass es
ĠSp irit
Ġmer ch
Ġatt ached
en z
Ġwond ered
writ er
Ġder ived
Ġtechn ical
ĠN ik
ask a
h ire
Ġdev ice
inc oln
Ġbud get
Ġarg ued
el ine
Ġrepresent ing
Ġr ide
Ġappro ached
: //
ĠLeg isl
ĠâĢ ¦
ut ation
Ġmay or
Ġcaus es
Ġg rown
ĠS em
Ġste am
ac ter
ow a
Ġspecific ally
Ġsurv ived
ĠC as
ĠPri or
Ġhand ed
ĠPri ze
st ances
Ġfound ation
Ġ ille
Ġre ign
Ġ( ;
Ġimpro ve
es ota
our ce
Ġt ur
k es
ĠB ab
Ġph ase
Ġcy cle
Ġsc ream
sp ec
Ġafter noon
A M
Ġtouch down
Ġcross ed
Ġcy cl
6 5
P S
Ġag ed
Ġshould ers
Ġr ival
Ġf ired
ĠB all
h ost
Ġinflu enced
ĠSqu ad
Ġconclud ed
Ġland sc
achel or
ind ing
ĠM om
Ġrecogn ition
Ġsymb ol
ent le
ownt own
Ã º
Ġde ploy
ec ution
Ġdr am
ĠMel bourne
Ġbr onze
Ġcl in
ĠD ave
Ġ193 7
Ġf olk
Ġne ither
Ġbring ing
Ġsurround ed
ĠG ord
Ġlist en
Ġfor th
Ġly rics
ĠN ap
or i
Ġstand ards
Ġjoin ing
Ġchem ical
Ġs ad
st ate
ĠWh it
Ġcertain ly
Ġs ector
Ġband s
Ġinter act
Ġf al
ap ore
ol ished
ĠO cean
Ġemploy ees
Ġdec re
Ġcontroll ed
Ġh at
Ġst adium
Ġlight s
Ġag ree
Ġadv ance
Ġview s
Ġsched uled
Ġa x
appe ared
Ġ19 19
ĠSl ov
ord ers
Ġf iction
ĠMos cow
bo x
Ġcho ose
w ick
ĠViet nam
Ġ id
ab il
j an
ĠCh annel
i able
it ter
Ġestablish ment
we gian
ĠW ars
ent ially
ĠR ick
el er
ĠSat urday
ac ent
Ġany way
Ġg at
ok ed
Ġeduc ated
Ġinter s
ism s
Ġregard ed
ĠH ard
ĠBar on
Ġsur vey
ĠMinn esota
ol t
ac le
ur ation
Ġinj ured
7 8
ĠB ah
9 5
uc ing
B e
ĠMill er
Ġalle ged
ĠCount ry
u its
ĠWe ek
anc hes
6 6
T A
Ġpri est
at ically
ic ide
Ġdro ve
Ġcor por
ĠJ ason
Ġval ues
ĠL incoln
Ġm ental
is is
Ġgl anced
ĠD VD
y o
Ġobject s
Ġl iqu
ĠI d
Ġlif ted
for c
ars h
Ġb an
ĠMil itary
ons in
ĠTem ple
p ur
ĠL es
ĠF ree
ro ke
Ġdo ct
Ġdesc ript
Ġth in
Ġ )
ĠCl ark
Ġpartn ership
Ġhors es
ĠK ansas
Ġcr iminal
Ġ191 7
ro t
ĠR oy
Ġhop ed
Ġt ied
Ġco oper
ĠP ope
Ġaccom pl
Ġl ie
ĠAl i
an ing
isc onsin
Ġcal m
ĠC ape
Ġeduc ational
Ġh aven
Ġbe ach
Ġproduc ing
ĠW inter
Ġaff ected
Ġst ick
Ġking dom
Ġfr ame
ĠWal ter
Ġchallen ge
Ġrespons ibility
ĠT ok
Ġcateg ory
Ġinst all
Ġenvironment al
ĠPat rick
w o
ol i
ham mad
% .
oc ese
ĠMem orial
ord an
Ġass ess
Ġpoet ry
ĠCam bridge
Ġsc enes
Ġprofess ion
Ġr u
ĠT H
Ġwe ekend
ag ues
Ġcommit ted
Ġtr a
Ġres igned
Ġpain ted
p a
Ġp ure
8 8
Ġincorpor ated
Ġdep th
Ġwor se
Ġenc ounter
Ġinterest s
Ġpol y
ĠK ev
ĠFin ally
Ġres emb
ĠMiss ouri
Ġst ating
ennes see
Ġpl ane
le ep
ĠAb d
ĠN ative
Ġlo an
Ġcost s
ĠAn ne
ĠSt at
Ġfr uit
or age
Ġsomew hat
Ġinhabit ants
ĠQueens land
Ġrespond ed
ĠJo h
Ġbene ath
ĠH ou
h us
er ts
Ġl ying
Ġbene f
Ġroad s
Ġreg istered
Ġfix ed
Ġdark ness
ĠF a
Ġcap able
Ġ3 00
ol as
en ch
ĠSt ock
Ġfl owers
ic it
Ġs ale
Ġprom ote
Ġstr ateg
ĠL abor
Ġapp ropri
ĠC ab
Ġmount ains
Ġchar ged
Ġd ates
Ġwor ship
Ġ191 4
Ġliter ary
reg on
Ġinter ior
19 5
ĠW rit
Ġindepend ence
mir al
ĠN ich
er ies
ĠT ai
ĠP oint
Ġbare ly
Ġj unior
Ġmass ive
j e
rop hy
Ġsee k
Ġbig gest
ĠW isconsin
as er
og ether
Ġrepresent ative
Ġ193 5
Ġh ockey
Ġv ice
tr ack
ĠDo ctor
ĠSec urity
ist ol
Ġabs ol
il st
ĠNor wegian
ĠNor way
Ġh am
Ġv oted
Ġdel ivered
Ġprogram me
= =
Ġra ise
Ġinst alled
ues e
Ġrestaur ant
Ġev olution
ile y
ĠJos h
Ġint elligence
for mer
Ġass ault
Ġhy dro
olog ies
Ġsc re
ĠB ack
Ġwe b
E D
S c
Ġcomb ination
ĠSing apore
Ġvis ual
Ġstom ach
Ġexpl os
ĠF inn
d on
Ġprote in
Ġd raft
Ġanc est
ĠA le
Ġang ry
Ġh ide
Ġcons cious
Ġhand le
Ġcandid ates
Ġteac hers
z ona
Ġrem ov
4 2
Ġmer ged
ĠB os
Ġkn ock
h ar
Ġsub stant
Ġacc ur
Ġresist ance
ĠB on
Ġselect ion
ĠManc hester
ĠO t
ĠS um
ĠColor ado
Ġsh irt
Ġfeel ings
Ġs ighed
Ġimpro ved
ĠD omin
Ġtown ship
go ing
ĠD own
Ġground s
ĠTh ose
ic ation
Ġarr ival
S P
Ġeng ines
Ġtyp ical
edd ing
7 6
ĠA uthor
Ġdescrib es
ph one
iv a
ĠPhilipp ines
il ation
ĠC ass
ĠTur key
Ġm oth
ĠM unicip
ĠT ennessee
Ġdem and
Ġis ol
us al
umb led
Ġ4 9
Ġh idden
Ġenjoy ed
co ver
Ġt ries
ig ation
Ġcons ecutive
T r
ĠH ans
Ġc ous
ĠMal ays
ow ered
Ġprogram ming
ĠB es
Ġshoot ing
Ġopin ion
ĠSc iences
ens es
Ġ19 00
Ġs elling
ĠStud ies
Ġ193 3
Ġpar alle
Ġcompos er
ag u
4 1
ĠN CAA
ĠL ieutenant
Ġeth nic
Ġin aug
ĠIndian a
ĠB ureau
- +
if er
Ġsh ock
Ġpaint ings
Ġmat hemat
tain ment
g or
f ast
Ġcomp ut
ic ians
ut her
E T
Ġg ang
ivers ary
roll ed
Ġred uce
Ġroll ed
ĠF inal
Ġinit i
Ġcover ing
Ġcompet e
âĢĿ .
Ġp apers
Ġan ger
Ġrul ed
Ġoper ate
ĠS ri
ĠHow ard
er b
ate ur
Ġjournal ist
ĠW olf
Ġ192 9
Ġwill ing
Ġcam era
Ġgood s
Ġpe ak
8 6
Ã£ o
ĠRe al
p oint
ĠSam uel
at ures
rib le
Ġd ivers
Ġpro ced
Ġdeterm ine
Ġ7 5
Ġs ed
it o
Ġrev olution
ĠD id
Ġgradu ate
Ġobs erv
W ho
v ant
on ly
ĠN ever
ĠO regon
Ġregular ly
Ġfact ory
Ġadv is
Ġlik ed
d ie
w en
ĠR a
Ġsp oken
Ġclass ical
Ġpat ient
Ġsepar ated
f e
Bill board
Ġland ing
b ing
c ons
ĠR en
Ġc a
ĠMc G
Ġsup erv
Ġimp ossible
Ġunder stood
ic ts
a ire
Ġag ency
ob e
ĠH ur
om p
Ġp ed
Ġacc used
ĠPl an
augh ters
ĠT s
Ġsup por
Ġdipl om
Ġ15 0
ĠA M
Ġput ting
ograp her
Ġkil omet
l ah
ĠLab our
Ġoff ering
A A
ĠH ell
Ġ192 8
Ġad ap
Ġexhib ition
r im
az ing
Ġcol our
ch o
7 7
Ġphilosop hy
Ġcred it
ĠL u
ac her
Ġ193 4
it ely
ger y
Ġtr uly
Ġj ur
Å «
Ġ4 00
ot o
Ġm and
ĠIslam ic
t i
Ġreb u
r un
Ġst ores
Ġres erv
Ġcommunic ation
Ġch urches
Ġw ounded
ish ment
Ġbed room
Ġconsist ing
ĠAust ria
Ġac id
ĠW as
Ġprom ise
Ġsomew here
s pe
Ġtechn iques
ĠC ensus
gh an
8 9
Ġover l
d o
Ġsequ ence
ĠTurk ish
rou d
ĠI V
Ġfor get
Ġlaw yer
ĠCharl ie
Ġparticip ate
Ġapparent ly
stitut ional
ok es
ĠC H
Ġapp rec
ĠHe art
Ġopt ion
ĠN iger
ĠB urn
ust er
Ð¾ Ð
ubl in
ĠV ice
Ġperson nel
ĠAri zona
Ġton ight
Ġfr ag
Ġchar ges
Ġz one
ĠAr k
Ġn ick
ĠD ad
Ġmar ry
ĠPortug uese
h ist
us ing
S R
Ġc ricket
ĠMary land
itzer land
Ġw ins
Ġst aring
ol is
ĠAg ain
Ġ +
p rod
Ġs in
Ġb atter
Ġco ordin
raz y
m osp
L a
ĠS el
Ġcour ses
ors hip
Ġres erve
ens ed
ĠAff airs
ĠL uke
Ġres idence
Ġmed ium
Ġconstitu ency
Ġdel ay
com ing
Ġre nt
Ġ3 9
Ġinv asion
Ġrepl ace
ĠR et
Ġd ressed
Ġcapt ure
Ġs aved
Ġmom ents
ort ed
Ġens ure
Ġy es
Ġaccompan ied
ĠKev in
ĠPl aces
ex p
Ġchang ing
az a
Ġs ession
Ġcon qu
angu age
he me
ĠSt and
ĠP ot
ĠAl an
Ġin ner
ĠMe an
Ġpra ised
Ġve get
Ġf aces
Ġarrang ed
Ġexam ples
Ġsecret ary
Ġg aze
ĠN FL
Ġf an
ĠWe b
I V
Ġplay off
ce ived
ĠIn it
Ġsy nt
Ġ191 0
Ġwrit ers
Ġunder t
ate gy
ĠMar ine
Ġref uge
ang es
Ġ Ä
J ust
ĠBu ilding
Ġdam aged
og an
el lect
Ġw ore
Ġdeg rees
Ġrem ind
Ġreject ed
Ġt ank
Ġl ady
ĠInf antry
ĠD al
Ġinterp ret
Ġac know
Ġin her
ĠM it
Ġdis appeared
ĠHam ilton
Ġpurp oses
Ġus ers
ĠDou gl
ens ions
W here
Ġaccom mod
Ġt ong
ival ent
ĠW y
t ure
ĠD ick
ĠA ud
Ġapplic ations
f oot
Ġbusiness es
j o
ĠA D
Ġbene fit
Ġsect ions
Ġconf used
own ed
Ġ192 4
Ġintrod uction
ro c
Ġdist ributed
ĠL ow
pect ive
ic ip
all eng
Ġal co
ab led
Ġl ad
Ġse es
Ġdec ade
as ant
Ġsec ure
Ġfac ing
ra it
Ġ193 2
ĠK ey
Ñ ĥ
Ġcon vent
ĠAnd erson
ĠSw itzerland
Ġg ene
et ime
Ġ4 8
Ġpers ons
Ġg rey
ĠMan agement
Ġpass engers
ĠSqu are
ĠMor gan
Ġdiv or
Ġt iny
a ired
ĠG ib
Ġearl iest
Ġadj acent
B I
Ġr ugby
Ġcl imb
wh o
ĠH ad
ĠSt aff
Ġm ad
Ġsol ution
od ge
Ġsuff ering
Ġchap ter
v ard
Ġjust ice
Ġd uties
em ic
Ġis lands
Ġown ers
Ġbr anches
ik h
sk i
Ġsur re
lo ad
Ġdec ide
Ġp ale
ĠT el
we alth
ĠLiber al
Ġdoc uments
ĠPr im
Ġfr anch
ĠAll en
Ġpresident ial
Ġup d
ĠIntern et
ĠGr ant
Ġsevent h
d am
ĠFore ign
Ġm olec
adu ate
ĠAl b
ĠF amily
Ġd ad
Ä į
ĠFr ont
in ch
Ġengine er
Ġl ap
Ġ192 2
od ox
Ġg ate
are st
Ġelect ronic
E x
Ġp aus
ĠDie go
ĠR ural
Ġbl ank
Ġind eed
Ġst y
ar o
ĠK arl
ang el
Ġmur d
ol y
ĠEx ecutive
ĠGord on
ĠN ob
res ents
Ġext ension
ug s
as m
b urn
p es
W h
Ġpock et
T C
Ġexper iences
Ġnort heast
m ont
ĠB eng
Ġprot ected
er k
ĠR un
Ġf il
Ġadv oc
Ġgr aph
Ġr if
ĠRe view
Ġpri ze
Ġfle w
ĠPro p
R E
c ing
ĠAnth ony
ĠEar ly
qu es
Ġsign s
Ġoper a
ĠHolly wood
hy th
Ġ192 7
enc ing
Ġbl ind
iz z
Ġhundred s
Ġno ise
Ġagricult ural
ol es
ĠB illy
Ġexist ed
Ġaspect s
ĠN a
Ġc od
as p
Ġdisc ip
4 3
ĠServ ices
Ä «
ĠBr igade
Ġsubject s
ig e
Ġt ropical
os ure
Ġland ed
ĠSw iss
ĠKent ucky
Ġ193 1
ard ens
ĠMed al
Ġloc omot
ĠJ ordan
Ġsh arp
ĠB i
id ers
fort un
ver ty
Ġreturn s
d is
Ġdraw ing
Ġs que
Ġf ro
Ġ192 1
Ġun less
Ġvis ible
se ason
Ã¼ r
Ġ191 2
Ġdesign s
ĠL yn
ounc ed
ĠD ur
ather ine
Ġaff ect
rup ted
Ġprot est
ang ers
C l
ĠS oon
Ġachie ve
ĠHot el
Ġchild hood
ok ing
Ġh ole
ĠB art
he astern
Ġdis pl
up id
Ġmusic ians
Ġp hen
Ġf urn
Ġinterest ing
ĠGre ece
includ ing
Ġany more
Ġst airs
ic ial
ĠMag azine
Ġpre gn
ĠO ak
Ġc ook
Ġhistor ian
7 9
ÃŃ a
ĠD ark
ant e
Ġtrans ition
Ġm obile
Ġbus y
Ġp iano
ĠEngine ering
Ġt ired
Ġfall s
ĠSt ill
Ġrep resents
ag en
ĠC all
ĠPal est
Ġassist ance
ant on
Ġren ew
Ġfact ors
Ġent ering
Ġpo verty
ro it
Ġexper t
ĠW in
Ġstud ying
au x
Ġh its
ĠD u
Ġf ant
ĠB uck
ĠF arm
ĠF M
ĠS ky
ĠF ive
oc ol
ĠM ember
ĠAr men
Ġmed icine
r um
Ġear n
Ġmy th
Ñ ĭ
Ġrec ip
Ġthreat ened
id el
Ġwer en
Ġjum ped
ĠJu an
l ad
Ġp ione
p ir
Ġtom orrow
Ġcont ext
Ġb oot
Ġde leg
Ġinst ance
Ġconc rete
Ġcom ic
Ġsever e
Ġcross ing
Ġsm ooth
Ġcare fully
ĠTe levision
ag g
re hens
ĠFor ces
ĠC roat
um a
Ġc ards
Ġint ent
ĠBow l
ĠK elly
Ġinvest ment
Ġgat hered
Ġw edding
iec e
ĠK am
it ated
ĠH ug
Ġrel ax
d ale
Ġ192 5
Ġd ating
O kay
Ġwor ried
ĠTrans port
Ġthe at
un ct
and om
Ġbre aking
Ġcour ts
Ġt ie
ab ama
ren e
Ġ x
iet ies
p o
Ġpremi ered
Ġse ed
Ġut il
ĠW he
Ġst ages
ĠComm ander
al ia
iam i
Ġhop ing
D P
Ġso il
re f
Ġsurv ive
M an
on c
Ġj azz
Ġsh ore
Ġprom pt
Ġth anks
ĠSil ver
Ġ191 5
ĠMarg aret
Ġgl ad
ie val
ĠAust in
ĠHou ston
Ġbeg un
O n
er ted
ĠP ap
Ġs am
Ġreg iment
Ġbl ess
Ġrail road
Ġtre ated
Ġch alleng
Ġ192 3
Ġexcept ion
N ow
ĠEr n
ink ing
av ia
Ġ191 6
a ver
Ġr ising
Ġconcern s
Ġp or
ĠJim my
e ast
ath y
Ġoper ates
st al
Ġmat ters
ĠSen ior
Ã³ w
Ġr ating
o om
ĠJ ake
ot te
Ġat mosp
b al
ac on
Ġrel ative
u y
Ġg ift
Ġuse ful
Ġnorth west
l ay
le vel
Ġdem ocr
ĠPr in
ĠMay or
ĠS in
ĠV is
ĠPh ill
Ġun p
Ġ192 6
ĠTh ird
Ġrequ ires
Ġabs or
og en
Ġf ill
c ase
Ġbeaut y
ĠMean while
um an
ĠDougl as
Ġsp ir
Ġcomp osition
ĠN aval
ĠFreder ick
hip s
ut t
Ġdiffer ences
r ast
Ġcirc le
Ġv eter
les h
Ġphot ograph
Ġ4 2
ĠMiss iss
s he
Ġunivers e
ĠSquad ron
Ġreal ize
ĠCommon wealth
ew ork
Ġrapid ly
ĠP a
r uction
Ġcop y
ĠIsrael i
i ac
Ġdebut ed
n ers
Ġg iant
ĠOffic er
ĠIm perial
P A
ĠChild ren
en h
ĠDe an
Ġfact or
ipp i
ĠF ame
ĠRog er
Ġd aughters
ĠR oc
ĠJ enn
Ġel der
Ġres ign
Ġst ress
pp er
Ġunus ual
Ġm oon
Ġfall en
ĠH ockey
Ġsuggest s
ĠIn n
Ġgu ards
m ph
it ched
Ġmar ine
amp s
Ġbal ance
ĠD NA
ib l
Ġrest ored
ĠV ar
Ġadd ing
Ġamong st
m ate
ĠT rib
Ġpre ced
st an
W hen
Ġpl us
Ġc inem
ĠColon el
ĠS ound
Ġdev ices
ĠP ear
Ġemer ged
ĠA y
Ġd ies
ĠAnd re
Ġpict ures
ĠEnter tainment
r ome
ĠSp ace
Ġint ention
ĠJohn ny
b ra
ĠM other
Ġvictim s
ĠAl abama
Ġrough ly
Ġdes per
ĠConn ect
ific ations
Ġthe rap
Ġn ations
ist a
ĠV inc
ac c
ic ious
ĠM ond
Ġo cean
ĠLa ure
Ġv ary
c ell
Ġsignificant ly
S C
ĠH ills
Ġmov ements
Ġmeas ures
st ar
H ey
O M
Ġp ressed
Ġen h
Ġsac r
Ġun l
ĠHarr is
Ġj ump
Ġret ained
Ġg entle
Ġexc ell
or ia
ĠGr am
Ġt ack
Ġr um
ĠM ess
ĠJ ess
Ġappear ing
Ġresident ial
Ġv ast
ĠL ive
g un
Ġsold ier
il ty
ear ing
Ġtransl ated
Ġtunn el
ĠL anc
k h
Ġmet ers
Ġf ile
ĠB eck
ĠVill age
ĠF und
Ġus er
ĠReg ional
Ġfal se
Ġfl ower
Ġdef ensive
Ġp ill
6 7
el and
ur i
ĠMo ore
Ġwor st
Ġnot ably
it er
r in
ĠBr un
ĠH oll
ĠB ou
Ġcircum stances
Ġb anks
Ġind icated
ter y
Ġinvol ving
ĠR ub
Ġin stitution
ĠE ver
St ar
rel ated
Ġst orage
ĠS u
ĠCo le
lah oma
Ġform ing
Ġrep utation
ĠN ev
os m
Ġlink ed
Ġp itch
th at
ĠWith in
Ġass ign
Ġprison ers
iven ess
Ġrac ial
ĠCl in
D A
ip ping
ĠA C
Ġfriend ly
Ġ5 5
ph a
ĠBel g
Ġf ishing
r ons
v y
ĠR ey
ard o
Ġch amber
Ġneigh bour
) :
m ers
Ġren ov
Ġcr isis
ĠC are
6 8
Ä ĥ
ret t
ĠCo oper
Ġinn ov
ter m
ĠTe le
ri x
Ġsp ending
th odox
v ements
Ġcollabor ation
ĠE ag
Ġsat ell
ĠY outh
ĠC ost
o a
O r
ĠAddition ally
Ġare n
ĠL in
ann e
Ġret ail
Ġtalk ed
ĠSt ew
ĠI owa
ur ally
o en
Ġb ishop
Ġco at
á »
ĠG et
Ġpolic ies
ĠM and
ul ating
ĠMc K
ĠQue bec
el son
Ġt ill
Ð° Ð
Ġfif teen
Ġa er
Ġemer gency
f ound
Ġdescrib e
hes s
Ġdep os
Ġint ellect
ĠL am
ad i
Ġstar red
Ġcontin uing
ins ula
19 0
6 9
Ġposs ibility
d i
Ġnorm ally
ĠPri x
Ġrout es
6 4
Ġd owntown
d es
Ġtem porary
Ġear s
aw are
ĠT ournament
ĠDes ign
Ġpract ices
Ġquiet ly
Ġtest ing
Ġp ush
Ġdet ail
Ġstrugg le
Ġf ool
ĠĠ Ġ
igen ous
Ġb urned
ĠE vent
ĠAnton io
Ġto ols
ĠM iami
ĠHaw ai
ri k
Ġclass ic
Ġass ass
Ġpro ve
Ġjob s
Ġmic ro
Ġuns uccess
er g
h and
oy d
Ġl unch
ĠAf ghan
Ġsuppl ies
Ġsuff icient
ĠG erm
rent ly
Ġdrug s
Ġd ust
ĠCommun ist
he w
Ġprom ised
uer to
Ġas ide
Ġhon est
Ġre nd
Ġimpr ison
ĠRober ts
Ġsw itch
Ġele ven
Ġsm oke
ĠCE O
Ġvisit ors
Ġact ed
ĠMod ern
Ġauth ors
Ġadv ice
ĠSh ah
Ġsh it
Ġstrong ly
ĠAdministr ation
as ters
b ass
Ġcred ited
8 7
Ġr ates
ĠC re
ĠDan ish
iv ated
Ġt ort
Ġcontribut ions
aval ry
Ġstr ategy
Ġappoint ment
Ġsa il
Ġsound ed
elect ion
Ġh tt
ĠD ublin
Ġd anger
Ġvoc als
Ġthe ater
cript ion
t op
Ġte a
ĠK y
anc er
Ġpen al
Ġh ang
Ġincreasing ly
ĠLt d
u j
ĠChair man
Ġoccasion ally
ĠU nt
ĠCh ile
Ġcous in
Ġtravel ed
ic ut
ĠOk lahoma
ut ions
Ġfavor ite
ĠMount ains
is p
ack et
ill er
ar ant
ĠA ge
Ġpubl ishing
Ġcritic ized
Ġwas te
Ġ191 3
ip ed
ĠComm unic
Ġparalle l
ĠPol it
Ġtong ue
Ġ191 1
M ar
Ġc ash
iss ance
Ġl ob
Ġsur f
Ġmusic ian
ĠDet roit
ĠPal ace
Ġcl othing
Ġdefe ating
Ġpopular ity
Ġclos ing
Ġloc ked
at us
t an
ĠCon c
ĠK l
Ġfl ows
Ġappro val
h u
ĠHar vard
ĠArgent ina
Ġman age
Ġnick n
ĠC emetery
Ġpass age
ĠT reat
Ġshout ed
Ġs outheast
Ġschol ar
le te
ĠRepresent atives
ĠD ig
r ac
Ġhe s
ut ed
ĠS uch
un es
Ġsc heme
Ġsm ell
ĠAlex and
ĠF el
ew here
us cript
Ã© s
ĠT ro
ĠCon stitution
Ġg ently
Ġpark ing
ĠB an
Ġaccount s
ĠD all
b ow
Ġfranch ise
rib ute
Ġmov es
d oor
ĠP ict
ĠGall ery
Ġw ake
Ġn et
Ġwh ilst
Ġtechn ique
Ġequ ivalent
ĠR oll
Ġann iversary
Ġ Ø
Ġhead ing
Ġimmedi ate
bor ough
Ġcomp lic
ĠB ud
Ġcreat ure
ĠKenn edy
Ġarch ae
ĠMississ ippi
Ġe ating
Ġfore ver
Ġnov els
ĠN A
ĠF al
ĠP uerto
Ġfl ash
Ġst upid
Ġmembers hip
Ġdeb ate
ĠWalk er
Ġw inners
Ġch ampions
R C
ĠM oon
Ġ189 0
est yle
Ġf aster
Ġorgan isation
ĠI an
Ġresc ue
im ens
ĠM aur
f rom
Ġsouth west
Ġpull ing
ament al
Ġdi agn
Ġsp ell
Ġmin ing
e ff
n old
ĠN ag
Ġn aval
ĠC ow
ol ph
rou s
rup tion
Ġfac ulty
ĠS n
Ġh ate
em en
Ġrock s
ĠC ro
Ġdest ruction
ĠAd v
Ġp ric
Ġconsider able
L L
ĠGr ace
Ġexp osed
ĠMar ie
Ġl oyal
ĠG ulf
ig ious
c alled
Ġg ender
Ġj oy
Ġc ave
Ġfl ed
ĠAl bum
Ġvess el
ic on
Ġcar bon
in tend
Ġimp ress
ĠE c
ĠD C
Ġblock s
ĠLaw rence
Ġweek ly
com m
Ġpain ter
Ġt act
N e
Ġrequire ments
ene z
ĠH and
ĠLouis iana
ĠI l
or g
ĠGab ri
ĠDep uty
Ġille gal
the less
ĠN Y
ch a
Ġhapp ens
ĠK ings
Ġadap ted
ĠRail road
Ġrele g
if ts
b les
m other
ĠP ed
ĠV ienn
I P
Ġgu ilty
ĠThere fore
ĠDen mark
ĠBr uce
Ġ190 8
ĠD ream
Ġfe els
gr ade
Ġlegisl ation
che ll
ten ance
T S
Ġliqu id
ĠEd in
Ġown ership
ĠRes erve
ĠU C
op her
ic ing
ul ous
Ġlast ed
Ġrem ove
ĠF ern
y ou
Ġm ob
ic ate
ĠMic hel
Ġunder ground
ĠBase ball
Ġprocess es
Ġex ha
Ġan th
Ġtransl ation
Ġsee king
Ġden ied
ĠIs a
ĠTai wan
Ġmil it
az ed
ĠFr iday
Ġdr iven
Ġact ors
Ġtou ched
arn er
Ġclass ified
ĠExp ress
Ġex ists
Ġpan el
Ġwithd raw
Ġsome how
Ġunivers ities
Ġinn oc
ĠP hys
and o
ĠUn like
Ġgrand father
Ġfif ty
Ġcolon ial
or ph
Ġsh ield
ĠBatt alion
Ġopport un
ĠDon ald
Ġme at
6 2
Ġvis iting
Ġpaus ed
Ġpr ime
im ore
ĠL ank
Ġev al
ĠCh art
th a
Ġaff airs
ĠC ook
ĠAl ban
ĠBe at
Ġsent ence
Ġprovinc ial
ĠT ob
am ic
Ġappe al
e enth
Ġfa ult
igh ters
Ġdoll ars
Ġinstr uments
ĠH aving
E l
Ġrepl acement
ĠBelg ium
Ġ- -
ĠI ron
Ġb oss
im p
Ġattract ed
or ge
5 9
ĠD a
Ġcou ples
ĠH amp
Ġcl ock
et r
Ġgreat ly
Ġthr one
Ġf iled
Ġrecomm end
Ġun com
ĠH op
usal em
8 3
Ġrelationship s
ĠR ights
rast ruct
Ġsh ift
Ġpropos al
am an
Ġmeet ings
ĠF il
m n
ĠP ur
ĠY es
Ġph r
Ġeas ier
ĠOtt oman
Ġg est
m ates
I nd
Ġcustom ers
Ġdrink ing
ĠAtl anta
Ġref ere
ĠR ugby
hyth m
Ġsu icide
h ard
ĠK az
ĠL iver
Ġne ut
Ġform ally
Ġst uck
Ġwrap ped
Ġs ir
ĠDis ney
Ã ¥
Ġav o
ĠMont real
Ġdecl ined
Ġover se
Ġpr int
C ome
Ġv amp
Ġc rop
7 2
rib ed
Ġsuccess or
ĠEdin burgh
ĠS et
Ġround s
r m
ĠC arn
Ġpo em
y an
Ġbur st
c i
ic op
it als
Ġpr on
v i
on ed
Ġdec k
Ġpl ain
Ġ* **
Ġf ab
Ġmov ies
Ġ( ),
uck ed
Ġjur is
, '
Ġcomp onents
ĠE ner
ĠO d
st ers
ĠIndepend ent
Ġcommand ed
Ġcomm une
Ġpass ion
Ġd ated
ĠCar ter
Ġcritic ism
in ian
Ġa str
Ġ4 1
Ġdiv isions
ĠTer rit
Ġgrad ually
Ġme ets
Ġlic ense
f ire
ĠBrazil ian
Ġsp ark
ĠC rown
ĠUkr aine
ĠP C
Ġthe ore
à ¸
Ġhappen ing
Ġcelebr ated
o ard
Ġt ennis
Ġpublic ations
Ġcas ual
Ġwarn ing
ĠAss oci
Ġconstr uct
Ġful f
) "
Ġl in
Ġshr ugged
Ġburn ing
ick ing
Å Ł
om y
ĠCol lect
Ġdep uty
ĠK er
] ]
Ġvess els
ĠL l
el ing
Ġass emb
Ġm ask
Ġr ib
Ġmake up
Ġbirth day
ĠG arden
ĠAl ice
ĠPe ace
Ġbehav i
Ġexpl an
Ġtest s
t ic
s ch
ĠWith out
Ġoff ensive
ĠL ang
ĠY et
P h
Ġalco hol
ĠSing h
Ġsl ight
l ow
ah n
ĠF rey
Ġman uscript
Ġappropri ate
ĠConnect icut
pro fit
Ġhost s
Ġfr ustr
ĠCam er
Ġabs ence
Ġbe er
Ġforest s
ĠTam il
ĠB ush
Ġre cept
Ġag ents
ĠSe attle
M P
Ġass embly
Ġup set
it able
Ġgold en
Ġlandsc ape
ĠR ap
Ġf ict
ĠRuss ell
ĠChrist ians
ĠPit ts
ĠAlf red
Ġel d
Ġt orn
Ġf lesh
ĠG ene
ĠWel sh
Ġkn ife
p ers
Ġgu ide
Ġpro hib
ĠS i
Ġp ages
Ġmon itor
Ġatt orney
Ġwar ri
Ġhor ror
Ġver se
Ġn inet
D e
Ġlist ening
Ġher itage
Ġoccup ation
Ġmark ets
ĠK it
Ġpe aked
6 3
6 1
Ġeffect ively
Ġpray er
ot ton
se a
u gh
an ia
Ġkn ees
ĠOper ation
8 4
Ġbe ating
Ġext ent
Ġsy nd
D id
Ġh ip
Ġex pedition
Ġdiscuss ion
v o
Ġcoast al
Ġdream s
ĠS R
ĠL ane
t own
Ġhon our
Ġn od
ant ed
re ck
ym n
ĠR ow
st ory
O ne
in ations
Ġw aves
Ġb ay
aster y
Ġrel ie
ĠH old
âĢĿ ,
Ġdeep ly
ĠT it
ĠO p
oun sel
Ġcover age
Ġdefin ition
ĠB ull
ĠL as
Ġhor iz
Ġsend ing
II I
ĠN on
Ġsquad ron
ĠG ary
Ġpal ace
Ġaim ed
ĠOr chestra
ĠJer usalem
or f
ĠPet ers
r ine
ĠAust rian
Ġr ivers
ult ane
ĠAg ency
bre ak
Ġgr ave
ann er
Ġn urs
0 9
Ġinflu ential
Ġmir ror
S T
Ġh al
ĠW ard
ĠM ach
ĠCamp bell
Ġhe aven
Ġbatt les
ĠPrin cess
Ġsurv iving
Ġfor ty
ol id
ĠJud ge
ĠUnt il
gress ive
it ure
Ġapp ly
Ġn av
Ġ4 7
ess ions
ĠS port
vel and
ĠI b
Ġs isters
Ġstr ing
Ġinj uries
ĠA st
ĠV ik
on i
Ġple asure
Ġloss es
Ġencour aged
og y
Ġbot tle
S e
Ġan x
Ġ188 0
ver e
Ġre un
Ġsub mar
in ction
Ġc razy
ĠS ud
b rew
ĠF ac
ĠR ud
G o
le ton
Ġ190 5
Ġbenef its
Ġdep ending
ĠM eth
Ġper mission
Ġbelong ed
Ġ< /
Ġl ip
ĠTok yo
Ġsign ing
ĠA BC
Ġmed ieval
hy l
Ġch uck
Ġentertain ment
ĠM ission
Ġcompet itions
Ġafter wards
ol ves
ĠFrank lin
5 2
Ġmem ories
ĠB eth
sh aped
Ġoccas ions
Ġemot ional
Ġmod e
Ġdyn asty
Ġh anging
Ġdec isions
m ina
pr ise
Ġsched ule
ĠMor ris
Ġrepl acing
ĠS af
c ut
Ġcon fess
Ġsh ifted
Ġmer ely
em or
ĠAl ong
ĠPer haps
Ġpl astic
rastruct ure
Ġperson ality
od ed
ĠC hen
5 7
op ed
Ġnerv ous
Ġbath room
Ġad mit
ab ilities
or us
8 1
Ã© t
Ġchart s
ĠDe ath
Ġcomment ed
Ġ190 6
Ġconvinc ed
Ġg host
ell i
" :
ov iÄĩ
ĠHon or
ĠAll iance
Ġval id
Ġr iding
ĠMu hammad
Ġdiscuss ed
ĠM ack
ĠLoc al
ĠY an
Ġtrib e
ĠCle veland
ĠH it
str uction
ĠLiver pool
Ġc rown
Ġrest rict
for ce
ĠUkr ain
Ġwhere as
Ġr andom
Ġd a
ĠHis pan
ĠAd miral
ĠL ast
ĠPortug al
Ġident ify
Ġf est
Ġout er
u able
Ġinvol vement
ĠCol omb
Ã «
ĠJoh ann
ĠM ort
G eneral
ud es
ĠC her
Ġmin imum
ĠVienn a
Ġem br
l on
Y our
ĠN av
Ġimag ine
Ġdescript ion
Ġinform ed
Ġloc k
ĠThom pson
Ġdisco very
ĠF riend
ĠStew art
Ġexp ensive
Ġc ited
Ġkiss ed
ĠF A
ult an
it ate
ig s
ri ent
ĠBes ides
ĠHer itage
m us
mer ce
Ġgr av
ĠSen ator
Ġbo ats
ater n
ĠAnd y
Ġcr ash
ab s
Ġdem anded
arm a
ĠStud ios
Ġcomple tion
Ġscient ists
Ġman if
i ya
ed ed
Ġar c
Ġsy mp
Ġre ven
ag ger
Ġcr ack
Ġdr unk
Ġs av
ĠMet ropolitan
ĠChrist opher
ĠAd ams
E n
8 2
ĠLegisl ative
Ġal leg
Ġ190 7
Ġopportun ities
Ġw ound
se ud
ĠA T
Ġmem orial
L C
Ġext reme
re ts
ĠDef ense
ĠN elson
Ġcol ors
ĠJ ose
ĠMalays ia
ct ic
Ġout put
Ġacknow led
Ġcreat ive
O C
ĠY ug
ad ows
Ġill ness
Ġadult s
at in
Ġfrequ ency
Ġexecut ed
ĠVo iv
ĠK ir
ĠMarsh all
Ġle ather
Ġst rict
ĠR ight
Ġgradu ating
Ġp ink
ĠP as
Ġc ir
Ġart istic
Ġy ard
ĠIndones ia
Ġ4 3
Ġw ars
ĠK u
Ġdepart ure
Ġsur gery
Ġarg ument
m aster
Ġequ ipped
Ġs id
Ġsleep ing
ĠU pper
ĠL ower
Ġy ield
Ġany where
Ġnegot i
app y
Ġdec line
ie ge
Ġ[ [
Ġcirc uit
Ġ190 9
Ġins urance
ro v
Ġst able
Ġbound ary
d y
Ġm al
Ġsm art
A t
Ġdeb t
Ġsim pl
ĠP ubl
ĠB uff
ĠGl obal
av an
Ġqual ifying
Ġann ually
ial s
ch i
Ġro ots
Ġelimin ated
Ġm art
Ġmod ified
Ġfilm ed
Ġc ow
in ted
b ishop
ĠâĢ ¢
ep s
c op
ĠSh an
Ġnewsp apers
Ġem otion
Ġ5 2
Ġcompet ing
Ġswim ming
ĠR io
P C
u ated
Ġan ch
h ou
ĠJos Ã©
Ġl ists
ograph ical
ol o
ang le
Ġguitar ist
Ġesc aped
ĠBar ry
ĠS ac
Ġt aste
Ġsuper ior
Th ank
Ġw ire
Ġmanufact uring
ming ham
Ġt ip
Ġpro port
aw s
p at
ĠBang l
st ance
b ach
iss a
Ġphen omen
Ġserious ly
Ġcle ared
I D
l ines
ĠDall as
odes hip
Ġp roud
ĠMark et
ĠCon vention
Ġrecomm ended
ĠM aj
Ġpost ed
Ġin qu
g ro
ĠV e
Ġremain der
P r
Ġmain tenance
Ġd ying
7 4
Ġent hus
Ġsh ares
ĠL ib
pl ed
Ġrecover ed
Ġemot ions
Ġc ul
ĠB ed
Ġcab inet
ĠBalt imore
ĠMuslim s
Ġmon ument
ĠKn ight
Ġb on
Ġrecord ings
5 3
Ġb om
ap ing
Ġw ides
ond er
ĠBrother s
Ġstat ue
Ġbl ow
ide o
Ġsus pect
Ġmount ed
Ġce iling
ĠC ra
Ġart illery
7 1
Ġgu ests
Ġsc rap
5 1
Ġex ternal
ĠHe nd
-+ -+
Ġb ull
Ġtal ent
Ġhun ting
og s
A m
Ġdesign er
Ġcoll aps
Ġab use
5 4
ĠB apt
ĠC er
Ġprin ted
ap olis
E A
ĠVoiv odeship
J o
Ġmod er
ug u
if ting
ĠCat hedral
Ġw ished
Ġcomfort able
ĠMic ro
ay an
The n
w all
ane an
Ġrec o
gr aduate
Ġv ic
g ow
ĠN ash
ĠH orn
est one
p ent
ge on
m o
fortun ately
Ġjuris d
ann els
Ġinv ent
ĠNaz i
S S
ig ible
og a
.. ."
Ġmiss ions
ĠCons ervative
ĠR ain
Ġviol ent
Ġto ss
Ġyoung est
p erson
Ġshop ping
Ġdistingu ished
ĠN ort
Ġpenal ty
ĠOr thodox
l ie
Ġbeh alf
Ġrep rod
Ġde ar
Ġbel t
Ã ´
Ġ190 4
s ed
st ic
ut ely
ÃŃ n
F M
% ,
ĠHun ter
Ġex cess
ĠEvent ually
n i
ol en
Ġprincip les
Ġpat rol
le ased
ĠHung arian
ĠN ep
ĠJon athan
Ġex ceed
p read
ĠR ound
ash a
Ġfem in
ĠCh and
ĠC rit
Ġrec re
as a
keep er
or er
Ġexerc ise
Ġdeath s
f a
Ġwrit es
ĠW right
Ġcon clusion
ĠBen j
ĠI mp
Ġenem ies
Ġte x
ĠEner gy
Ġb reat
ov o
ĠSchool s
ĠG raham
Ġindic ate
ĠA ld
ĠOrigin ally
-- --
ĠFle et
5 6
forc ement
as hes
ĠC ry
ib ilities
ĠHung ary
ĠConf eder
ĠK now
ĠD h
ĠT ower
iel der
Ġ5 1
ĠOper a
Ġr it
Ġe ighth
Ġb ench
te enth
Ġobvious ly
Ġview ed
Ġdisplay ed
ĠIn vest
Ġrare ly
Ġam ateur
ĠCh amber
Ġbreak fast
ĠNorm an
Ġlat est
Ġmed als
iv ation
Ġ4 6
Ġpers u
id ges
ĠÃ ī
Ġess ential
O U
G B
ĠH ope
Ġtrad ing
ĠA round
ĠEn vironment
Ġhabit at
is ition
Ġgr ay
or ous
e h
Ġemploy ment
ĠStan ley
ĠD yn
ĠF ried
ĠK o
Ġp od
Ġposs ession
Ġinstr uct
Ġfin als
Ġt ent
Ġdet ailed
em ed
ĠSe b
ĠR and
ĠL ith
ĠShort ly
Ġcontrovers ial
Ġsp aces
Ġg reet
Âłm illion
ir ation
ĠAuthor ity
osp el
art ed
s ec
Ġwor n
Ġed ited
ach t
Ġb ell
I M
um ped
olog ists
Ġaff ord
ĠH om
am ents
on z
c ient
ĠHind u
Ġsound track
ĠD ak
Ġcollect ions
ĠP un
t ra
Ġcon greg
iv ate
E L
ĠBir mingham
ur se
Ġret reat
Ġsusp ended
r at
Ġr ig
ĠLit er
ĠG ill
ĠAss ist
Ġdra f
Ġmarket ing
Ġ187 0
Ġj u
Ġperiod s
ĠRobin son
Ġc ock
Ġm oral
ĠGr ay
Ġcab in
Ġarr ive
ren a
Ġpro fit
m i
Ġsim ultane
Ġdom ain
b ound
Ġbe et
m at
Ġvers us
Ġover w
Ġal ien
Ġb one
Ġv ul
f inals
Ġkn ocked
Ġsh adow
act s
Ġgovernment s
r ont
Ġ190 1
ĠInd ians
Ġs ne
Ġrecogn ize
ici ency
ĠMur ray
g ie
Ġdog s
ĠCh ampions
ĠPl ace
Ġc able
ab el
Ġh iding
oin ted
Ġ190 2
Ġsw all
ĠCh allen
od a
i ar
Ġcorpor ate
Ġtem por
Ġegg s
Ġcharacter istics
" "
l en
Ġclaim ing
ĠSt ev
Ġparticip ation
Å Ħ
ĠC hel
ĠGl as
Ġt iss
Ġad min
Ð ´
Ġatmosp here
add y
ĠYug osl
Ġinters ection
Ġsm iling
ĠV eg
us c
ĠMar s
Ġas h
ĠIn formation
Ġre aches
ĠFin land
7 3
ĠH as
ĠGu y
Ġattend ing
oty pe
ĠA N
ĠBroad way
Ġr anks
ĠK a
Ð º
Ġlong est
ĠVinc ent
ĠAthlet ic
Ġpro of
ĠB enn
ĠF all
Ġnomin ation
ĠMet ro
Ġint ense
r uit
Ġad m
ĠUkrain ian
ĠPat ri
Ġconcentr ation
t es
ir ts
d in
arch y
os ph
ĠBe g
Ġsatell ite
op les
5 8
ro se
ĠSt u
ĠS oph
Ġsl ipped
Ġcol ony
Ġtot ally
Ġtrib es
ĠSer ge
Ġcount ies
ĠPitts burgh
Ġcontrovers y
Ġle af
st airs
ĠLe ban
Ġse gment
on ian
Ġor ange
à ¥
Ġag greg
Ġsec ured
Ġce ased
Ġdefin itely
l isted
Ġsubs idi
Ġres olution
Ġwides pread
Ġvide os
Ġl ift
ĠV ic
Ġ190 3
Ġlim its
Ġf oss
ĠC arm
Ġg ay
Ġinf antry
Ġsoc cer
Ġportray ed
ĠVictor ian
ĠD om
ĠBoy s
Ġext ract
Ġfrequ ent
Ġd ub
Ġcon j
Ġas leep
ĠOr le
ĠGerm ans
arr ass
Ġrul ing
f are
it err
ĠEgypt ian
Ġb id
ĠCarl os
Ġd at
ĠCh ampion
m pt
Ġdirect ors
Ġpart ially
ĠBern ard
Ġdef ending
ĠA P
ĠCl ar
oth y
Ġrom antic
p hy
ww w
ĠQ ur
ĠEm ma
Ġelev ation
ĠG un
Ġgen re
ous es
G r
Ġant icip
Ġr is
Ġg al
Ġcan c
Ġc ried
Ġcar go
Ġun n
ĠK ate
Ġchap el
Ġdon ated
Ġs alt
ĠE mer
Ġrep air
Ġdist ract
z er
Q u
Ñ ĸ
Ġpop ulations
Ġbreath ing
Ġreg ime
Ġcare ful
Ġtransport ation
ĠBrook lyn
Ġstrugg led
Ġf asc
ann ah
ot es
us k
ag ers
Ġsp in
ĠE qu
Ġhelp s
ter ior
Ġre ward
ont in
Ġto ol
9 8
Ġpartn ers
Ġ1 20
ric ted
Ġun like
Ġhel icop
ang a
if ies
ĠV enez
Ġnetwork s
Ġbelie ves
ĠG rey
Ġmark s
Ã ł
Ġra ising
it arian
Ġt ub
Ġcent ers
ĠShe l
ĠP sych
Ġsh aking
Ġres id
b led
Ġelect oral
Ġag encies
ĠM ason
ĠN othing
Ġsubstant ial
H S
ĠBenj amin
Ġbut ter
Ġunder w
Ġlo ose
ac les
ric ane
Ġsupport s
Ġstrong er
Ġpers pective
A d
ail and
Ġsl ave
O f
Ġc ig
act ive
Ġphot o
ĠCon stant
ĠF ace
m und
Ġprincip le
Ġpattern s
Ġcreat ures
.. ..
ing ing
Ġlaugh ing
Ġassoci ate
ĠI van
ĠNot able
er ia
ĠPark er
Ġd ancing
ĠArk ansas
Ġpart ly
ĠN athan
Ġpres erved
Ġsl id
ĠSe ven
ĠZ e
Ġcomm emor
ĠProt est
Ġpre tend
Ġadvert ising
9 7
ap se
ĠA qu
ĠM ind
Ġpl acing
our se
Ġy elled
or ious
Ġf ate
ro ck
0 8
ĠOrle ans
Ġfe e
Ġaud io
Ġatt ributed
l ock
ĠAg ricult
M us
Ġdes ert
Ġgu arant
Ġprefer red
Ġpercent age
ar th
ation ally
port ed
Ġsh oes
Ġkn ee
Ġs ang
ĠGr iff
Ġth ir
Ġg ear
9 6
Ġcor rid
Ġthem es
Ġtw in
ens is
Ġsuppor ters
ĠN am
Ġign ored
Ġcan n
s a
T o
Ġg ri
ĠTH E
so ft
ens ively
Ġwork sh
and al
Ġdr agon
Ġcontin u
Ġide al
i op
Ġex it
Ġpurs ue
Ġdismiss ed
oc c
Ġwant ing
Ġexc ited
9 2
Ġexcell ent
Ġsol ar
Ġl ieutenant
Ġrepresent ation
ĠWind ows
Ġexpl o
ĠCont in
Ġgot ten
Ġmil k
Ġch annels
elt a
s uch
ĠE nt
ĠM uch
ĠMeth od
Ġsl aves
Ġcomp ilation
Ġpract ical
ĠA R
Ġchampionship s
ĠN ar
et a
ĠSus an
ĠWar ren
Ġdomin ated
Ġpro sp
ĠCharl otte
Ġr ushed
Ġab road
Ġdesc ent
ĠP A
Ġcoin c
be an
Ġcompet itive
Ġhigh light
Ġdiam eter
" -
Ġm ood
ol ve
Ġinf rastructure
ip per
Ġconf usion
ĠMit chell
! âĢĻ
Ġass um
art ing
str uct
ine a
ĠL ud
Ġprocess ing
ict ions
ird s
Ġrepresent atives
st yle
Ġfun eral
Ġstop s
G A
ĠP ad
ĠTr aining
ond s
iterr anean
Ġprep are
ĠMed icine
cast ing
Ġh ills
Ġcon vention
ĠUt ah
as i
ou ver
Ġagricult ure
Ġmach ines
Ġsl am
ĠCar ib
Âł k
Ġclim bed
anc ell
or igin
Ġer ected
Ġour selves
ĠG a
Ġrequ ested
ĠHe brew
ĠI N
ĠM i
Ġoverw hel
h our
ul um
Ġdo zen
ĠR ico
Ġven ue
c m
ĠNich olas
Î ±
Ġchar ity
O T
âĢ ľ
cl osed
Ġparticip ants
Ġunc ertain
Ġdec ides
Ġsur ve
Ġb orders
Ġd irt
oc a
ĠBl ood
ĠM ong
Ġdef ence
ĠN ext
âĢĻ .
Ġcateg ories
Ġap olog
Ġpred omin
ĠE xt
Ġopt ions
ĠArch itect
ĠBob by
Ġfict ional
ace ae
Ġarchitect ural
Ġrec ru
Ġpo ison
le e
Ġconc erts
ter ing
Ġcont ribution
ĠT an
ĠTh ailand
I L
Ġproduc ers
Ġelectric ity
Ġcond em
ĠJ erem
Ġtre nd
ĠD anny
Ġopp onent
Ġinstrument al
Ġst im
Ġansw ers
it ting
Ġnob le
Ġadapt ation
Ġsuit able
ĠRich mond
Ġun w
ĠG ener
ĠF ood
ud a
ĠDe ad
ĠD ub
ĠN BC
Ġwonder ful
ĠD ance
Ġinter rupted
ip h
ul u
onom y
i Ã³n
ĠA my
ĠW rest
Ġw is
Ġemb arrass
Ġrec onstr
ĠWay ne
B r
Ġconcern ing
Ġfriend ship
ĠEv ans
Ġwealth y
less ly
Ġth rown
ĠSt ory
iv ia
ĠW W
ic le
ĠTr ade
ĠSim ilar
Ġvot ing
ĠN i
ir ates
ĠCap ital
Ġpo ems
ĠP y
ĠS id
Ġattempt ing
Ġparliament ary
Ġproduc es
Ġreve als
Ġlet ting
Ġbre ad
Ġmerch ant
y gen
Ġvo ices
Ġconf idence
Ġwood s
Ġdist ant
ĠGabri el
ĠC BS
ash i
yl er
C on
n et
Ġcont ested
ĠRoman ia
Ġrec alled
ĠPh oen
Ġw ard
Ġelect rical
Ġcon fer
Ġsc ared
ĠHispan ic
ĠDer by
n ia
ĠL ore
ĠCan al
ĠGirl s
ark s
Ġp ace
op es
Ġass ets
9 4
w ords
orpor ated
Ġrank ing
Ġkid n
ĠT ig
Ġpublic ly
ĠAfghan istan
ĠB ra
ĠB asketball
Ġcons ervative
Ġrat io
Ġsust ain
Ġcut ting
0 5
ĠMov ement
Ġelect ron
Ġ urg
iv an
Ġbr ings
Ġisol ated
Ġcr uc
ĠOl iver
ment ary
ĠPort land
ĠS S
f ish
Ġt um
Ġfac il
Ġmathemat ics
id al
ill o
Ġliber al
Ġ els
Ġplatform s
0 7
Ġthink s
Ġterm inal
mph ony
Ġkick ed
ĠTh or
Ġf ighter
ag re
anc ouver
9 3
Ġpred ecess
Ġaware ness
Ġl uck
Ġh orn
ĠA I
arc hers
ĠFrey ja
ĠL uther
ist ical
Ġj e
Ġh ook
est y
ĠF itz
à ®
ĠVenez uel
d ist
ĠMed iterranean
Ġclass ification
nd a
Ġtou red
Ġn aked
Ġbre ast
Ġpar am
Ġtrans mission
ĠIn s
Ġfarm ers
Ġb acter
ĠM ak
ĠJ erry
p m
ir i
Ġ189 8
ĠBangl adesh
un c
Ġ Ù
ĠU E
ĠAb raham
h igh
Ġconsid ering
f am
ĠK on
Ġsh aring
Ġels ewhere
Ġcommunic ations
ov en
ĠT err
Ġtr ick
Ġcomp onent
Ġdem olished
Ġrele ases
ĠFl ore
h ill
Ġne arest
ĠN ord
? '
Ġre ception
ĠThe ater
Ġhard ly
ĠD J
ĠGlas gow
Ġcon ven
Ġre ass
Ġsty les
ĠMarc us
ĠN BA
Ġst eep
Ġgod s
ul us
Ġcomp ens
Ġsearch ing
am o
ĠM all
Ġc attle
Ġl ung
Ġoper ational
ific ial
Ġdeal ing
f ive
ip er
ĠW ing
Ġd ual
t ar
ĠMond ay
Ġn ut
ĠS ay
Ġintegr ated
f ly
ĠSc ient
Ġcred its
O D
Ġpay ing
onym ous
Ġend emic
ĠR ic
b ul
Ġterrit ories
Ġcharacter ized
Ġwithd rew
ĠCl ay
ov es
ĠTreat y
ĠR est
Ġreve al
Ġintern et
ĠHarr ison
Ġrel ation
Ġord inary
Ġqu een
Ġrese archers
Ġind ex
ast ed
ens on
Ġmechan ism
E M
Ġfunct ional
az ines
r ated
ĠHamp shire
ĠEm ily
ri ers
p any
exp ected
Ġconstant ly
ĠWork s
L ook
ĠT ogether
ĠP lease
ĠW es
Ġdu o
Ġ186 0
Ġinn ings
T ER
E P
____ ____
ĠEvery one
Ġcr imes
ĠBel gian
Ġdeliver y
Ġlo ad
Ġrem ote
hat tan
ĠS ax
Ġme al
Ġsug ar
ĠSomet imes
ab et
ĠLith uan
Ġg olf
Ġin put
ĠT rophy
ĠFr ances
Ġten ure
op p
Ġsupp ose
Ġtex ts
Ġcon stitution
Ġover s
rehens ive
ĠH ud
Ġg onna
born e
Ġcivil ian
z o
ic ting
Ġstay ing
Ġgen etic
D r
Ġpubl isher
we et
ĠS hip
Ġsent enced
ĠR achel
Ġinvol ves
ĠYork shire
ĠC ase
Ġinc red
g ate
Ġj ail
ĠPer form
ĠM ans
M e
Ġcheck ed
is b
Ġf rowned
Ġlink s
Ġfab ric
ĠV ancouver
Ġconscious ness
0 1
ĠM es
ĠSal v
Ġview ers
ĠHel en
Ġmurd ered
Ġc emetery
ĠSing les
Ġre ct
Ġrif le
ĠN atural
ĠMil an
Ã¶ r
end ar
ĠB aker
Ġforg otten
Ġman ip
Ġsa iled
ot al
ĠDel hi
ij ing
ĠFurther more
Ġ5 4
Ġsw itched
ĠF alls
Ġal arm
Ġt ribut
ĠThrough out
Ġw ick
Ġsurv iv
Ġfore head
Ġear ning
Ġag es
Ġgener ated
ink ed
Ġvol umes
ĠFI FA
f olk
ĠC hem
ĠLa ura
Ġs essions
Ġspons ored
Ġrebu ilt
el ia
ĠS ign
sequ ently
Ġprov ision
ĠTr ump
ĠBook s
Ġdemonstr ated
Ġst ones
ĠMer c
Ġstri p
uc es
ĠS ad
Ġmist ake
Ġsy mpt
Ġgr in
Ġarrang ement
Ġexpl ains
ĠC atherine
ĠN ear
iz ard
op al
Ġstreng then
Ġpat ron
Ġorgan ised
Ġreported ly
ĠA S
am ework
ĠCra ig
ĠR ena
ĠBo x
F r
ur u
Ġbad ly
ĠBapt ist
Ġlay er
Ġpoin ting
Ġrec ruit
p ower
ab i
oc ation
Ġab ilities
ĠTr inity
ĠK il
Ġacc ord
Ġind igenous
ĠE ug
Ġsan ct
Ġt ag
om on
et ers
f our
Ġfund ed
Ġexperiment al
Ġjud ges
f inal
Ġback ed
Ġtick et
l ater
rep rene
Ġopp onents
at on
min ute
Ġincre ases
Ã© n
Ġbroadcast ing
ĠSomet hing
Ġrel uct
ab e
Ġfun ny
ac re
Ġab oard
Ġlic ensed
Ġst em
on ies
ob a
Ġacc eler
Ġbig ger
ĠBr istol
Ġ189 9
Ġanim ated
Ġrel ocated
t wo
ĠFinn ish
Ġwind s
Ġconnect ing
Ġsc ar
if ice
Ġrun ner
ĠB achelor
Âł âĢĵ
9 1
ĠMot or
ĠZ one
Ġfair ly
Ġtrav elled
Ġmechan ical
Ġb ones
ĠBarb ara
Ġins isted
Ġimmigr ants
Ġm ail
ann on
Ġro ot
ĠW arner
ĠA aron
sp an
le m
Ġdr um
f ers
Ġatt itude
Ġreb ell
w as
Ġcamp s
uck s
Ġmar gin
Ġtrad itions
Ġ1 000
Ġgrow s
Ġdifficult y
ĠS C
Ġm ines
Ġfollow ers
Ġrecogn ised
Ġgirl friend
Ġv s
il er
ĠV el
ĠPr incip
Ġg ross
Ġdev oted
ke e
ĠP il
Ġhe ir
Ġdet ect
ĠC arr
ĠSe an
r idge
mm et
Ġann oy
Ġter rible
Ġdepart ed
ĠR abb
Ġm ac
Ġn at
Ġ5 3
Ġsynt hes
ig ins
Ġdem ands
ĠLim ited
ond e
Ġident ical
Ġexplan ation
Ġconnect ions
Ġlow est
Ġj ew
ĠB ot
ra wn
Ġbelong s
ĠF ellow
Ġfit ted
Ġover t
r ation
C ol
end ment
Ġscre amed
ĠSe ason
Ġearth qu
Ġbut ton
ĠR al
ĠOr ange
ob i
ĠW ord
ist ing
ĠC ad
ĠC ricket
Ġbl ade
Ġd iver
ett a
Ġdeploy ed
Ġdel iber
2 000
Ġst un
Ġtravel ing
ĠEd die
Ġbelong ing
ĠG mina
ĠK an
Ġadj ust
Ġarr iving
ĠK ay
Ġf iles
Ġrad ical
Ġj unction
Ġp uzz
uk i
ĠR av
Ġdivers e
ach ment
ĠS aud
Ġimplement ed
ro id
ay er
Ġfuck ing
ĠPet e
ur ers
ĠE U
ĠLar ry
Ġeff icient
Ġdep ression
Ġtim ber
ĠMad rid
v ia
ĠPlay er
up er
ĠN ation
Ġsusp ected
en ess
ah a
Ġcontin uous
Ġcl ar
Ġmag azines
ĠD raft
ĠF ine
ĠMan hattan
ĠUE FA
Ġsett lers
ĠKe ith
ĠArab ic
u ber
ĠV lad
Ġreflect ed
Ġsub t
ĠB ey
Ġdis m
ĠPier re
sc ale
Ġinterpret ation
Ġ ~
Ġbusiness man
Ġathlet es
Ġrest oration
ĠCl are
Ġindic ates
ĠT erry
z i
ĠSte ven
Ġaff air
Ġev ac
ag ar
Ġang le
Ġwid er
erb ai
Ġorgan is
ĠTom my
Ġsignific ance
sc ar
ĠClin ton
ĠF err
Ġd iet
Ġinterp re
Ġ25 0
Ġexp and
ĠK el
Ġbound aries
Ġon going
c ribed
Ġsh ops
Ġdis band
Ġ189 6
Ġhous ed
Ġc raft
ĠDef ence
Ġgr inned
Ġan alog
ĠM aine
ĠRoman ian
Ġestablish ing
Ġpric es
O L
Ġsn apped
ĠC ome
Ġcomple ting
ĠB omb
Ġch ronic
Ġvent ure
Ġlab our
0 6
ĠInit ially
Ġre venue
Ġbe ings
x ual
Ġphot os
Ġsub urb
act or
Ġdec e
Ġpre st
ĠLank a
Ġswe at
ol ar
Ġsoft ly
ĠV as
Ġexclus ively
Ġfor cing
ie v
fr ont
B M
m aking
ĠApp le
Ġperfect ly
Ġvot ers
Ġ5 6
ix ed
Ġphys ics
ĠK um
ĠStud ents
Ġst air
iet h
Ġ189 5
Ġeld est
Ġwond ering
Ġaffili ated
Ġdam n
st ad
Ġn inth
at ched
Ġcon ce
Ġr ated
a way
Ġl ots
ang ular
ĠC art
Ġbi ological
ĠH ig
Ġr hythm
Ġclass room
Ġinit iated
ep hew
im s
c are
e an
Ġphr ase
ick en
ĠO bs
ĠChristian ity
ou ch
n an
ĠB ert
ĠI ce
Ġval uable
Ġgr ace
ĠT ol
May be
Ġsc en
Ġshe ep
ĠCarib bean
Ġall iance
Ġinst ant
ĠAd ela
Ġpremi ere
Ġher s
Ġiniti ative
er as
Ġsh ower
Ġdraf ted
P R
ĠA rena
ort ion
Ġwel come
Ġtrad ed
n ik
Ġh o
ĠT ak
Ġfig ured
z es
in os
ig o
Ġshould n
Ġdr ivers
Ġf ier
Ġ189 7
Ġb ars
cast le
Ġperson ally
ĠK rist
s al
ĠV erm
ber ry
ar an
Ġexc av
Ġt anks
Ġsub stitute
Ġloc ally
Ġmin istry
Ġv ibr
Ġphotograph s
ĠEconom ic
ĠS ection
Ġun e
Ġass isted
Ġj ury
ĠBe ijing
ĠCom ple
Ġdomin ant
Ġobl ig
Ġev olved
f ree
ĠCom b
gor ith
Ġprepar ation
Ġn est
Ġfund amental
Ġinaug ural
ĠSy ria
ĠOrgan ization
ĠJ un
Ġpregn ant
M r
Ġfocus es
ĠJ oy
Ġex ch
ĠSte el
ĠJ ama
ĠĠĠĠ Ġ
elect ed
ĠL en
ĠFre edom
ier ra
Ġpun ishment
ĠT ib
ĠC ob
ĠCommunic ations
Ġscholars hip
Ġg rip
3 00
Ġqual ify
b ie
Ġmin i
ĠGr an
ad ers
Ġroll ing
Ġrespect ive
Ġconf ront
ing ham
ĠAtt orney
Ġre ver
Ġoper ator
Ġtri als
ĠJ en
Âł cm
A h
Ġconf ident
Ġo l
ĠH em
Ġdisp ute
z ant
Ġtalk s
Ġreg ulations
ĠW ang
Ġstrateg ic
A b
Ġprop ag
Ġerr or
Ġt ies
ĠAd vent
Ġy e
ĠHawai i
ĠAz erbai
Ġtreat y
Ġhall way
elf are
Ġsk ill
le b
ar ry
ĠSerb ian
Ġwa ist
Ġpr ince
ĠF if
Ġrep ly
ĠPers ian
ĠGre ater
Ġp ushing
Ġres umed
Ġcomp ound
Ġrep orter
Ġthere after
h um
ĠI C
Ġtour ing
ĠTurn er
Ġtax es
Ġim perial
ar us
ĠPr uss
W est
af e
Ġunsuccess ful
Ġh oney
Ġlocal ity
Ġfr ight
ĠW ed
Ġlow ered
Ġsub mitted
Ġsubsidi ary
ĠSerb ia
ĠC reat
ĠL ad
f ielder
ĠW or
ĠLuc as
Ġcom ments
ĠL isa
ĠK irk
Ġple ased
Ġaccom pany
Ġcons ervation
ĠCon struction
ĠC e
E E
an im
Ġprovinc es
om ic
ĠM embers
Ġsk ull
ĠAthlet ics
ix on
Ġem peror
ĠRec ord
Ġtemper atures
ĠCult ure
Ġg ap
Ġn om
Ġchalleng es
Ġproper ly
Ġlif etime
Ġh ug
ĠNiger ia
Ġvul ner
Ġb orough
ĠLe o
Ġminor ity
I R
Ġn am
Ġcre am
Ġbut t
ĠY ears
Ġser ial
ĠGr ade
Ġv el
ĠGl en
P ro
et ch
yr ight
ĠBr anch
ĠPhoen ix
0 4
ĠSeb ast
Ġt ape
anc he
Ġsuff er
ic ity
Ġs igh
i ors
ĠLat ino
ĠN HL
Ġnight s
ĠSm all
p re
Ġdisapp ear
Ġneut ral
ĠS ultan
Ġ189 3
Ġinsp iration
Ġm os
ĠĠĠĠĠĠĠĠ ĠĠĠĠĠĠĠĠ
ep ing
ĠCent ury
el i
ĠG oth
Ã ®
vious ly
Ġt urb
ĠRe form
ĠCommission er
Ġwalk s
Ġdecor ated
Ġcontrol s
ĠF ab
Ġimp ressed
Ġtele phone
d ef
Ġdeep er
Ġun expected
Ġb ent
Ġsimultane ously
ĠL uis
ĠBe ing
p res
Ġt ables
g am
Ġp ip
om ed
ĠK os
Ġbatter y
Ġorigin ated
Ġw aved
ĠS now
Ġmon astery
stit utes
M C
ĠIran ian
Ġint r
h or
Ġdis char
Ġconvent ional
Ġvis its
ĠS T
Ġto ler
Ġrele vant
ĠC ode
Ġdr ummer
Ġ188 9
ĠMon te
ĠHu gh
Ġconf ig
ĠR angers
Ġcap s
Ġtrans mit
Ġmanag ing
ank ed
ĠT un
ĠL iving
ĠAbb ey
Ġsitu ations
Ġer up
ĠCons erv
Ġup gr
Ġl es
all ing
str ong
ancell or
includ e
umb ent
ĠUnivers al
ĠS uz
e ing
Ġdest ination
Ġt ons
ĠA er
ĠOb ama
ĠJ azz
inc orporated
ĠColl ins
et on
ĠStand ard
Ġz ero
Ġsp ots
Ġsculpt ure
Ġhuman ity
Ġc ounsel
Ġwrest ling
ab a
Ġsurv ival
Ġshe et
az on
Ġtermin us
Å ¾
w ed
s ong
ol ia
Ġbelief s
Ġclos est
r Ã©
Ġthrow ing
Ġkind s
at ar
Ġ189 2
bo at
Ġhol iday
Ġsh ots
ĠPar ish
Ġcoal ition
Ġhy per
ty pe
Ġshe d
Ġbar rel
ĠSt orm
Ġal ter
ĠRe f
Ġel abor
Ġ9 5
Jo hn
Ġcoin s
ĠEvery thing
Ġmeas ured
Ġtest ed
ĠPol y
Ġcl an
Ġ ;
ĠBr and
he nt
Ġdis aster
Ġspot ted
ĠW ol
amb ig
br id
Ġem igr
ch ild
v ision
Ġlist ened
Ġcry ing
Ġw and
Ġco aching
Ġin hib
og le
ĠE ld
Ġhousehold er
Ġs ung
ows ki
Ġbow l
Ġthe rm
ĠD oc
ĠK ath
Ġinc hes
Ġn urse
Ġred uction
Ġrefer ring
Ġspe aker
work s
ĠAdela ide
Ġclin ical
Ġcollect ive
Ġhit ting
emb le
ess a
ink s
b i
Ġjurisd iction
Ġd ict
Ġadvent ure
let t
Ġ189 4
ĠCub a
Ġl ibr
ĠIsa ac
ĠM aced
im mer
Ġcoll apse
ĠJul ia
au ge
Ġmess ages
ĠCont rol
ar at
ĠM A
Ġdescrib ing
Ġtarget s
Ġexp osure
od ore
Ġe cho
Ġf lex
D C
tr ans
Ġex ecution
ĠElect ric
l u
Ġ18 50
Ġhtt p
Ġ188 5
uk a
Ġk m
ĠR uth
Ġor igins
Ġpal m
Ġal gorith
Ġpe oples
e o
0 3
S W
ĠT ang
Ġse ar
Ġprot ests
Ġs its
Ġhe nce
Ġpre v
Ġb orrow
m aker
Ġobject ive
0 2
Ġhard er
ĠP ay
Ġdifficult ies
aj a
d ed
Ġbatt alion
medi ate
ĠTra il
ĠL ook
Ġbeat en
ĠBeng al
in son
ĠN et
only include
av or
Ġsp l
ir y
Ġb anned
Ġtop ics
Ġ5 7
v ol
Ġfl ights
ĠAssist ant
ĠMas ters
ĠH ave
Ġb in
ĠS oul
ĠR acing
Ġattack ing
Ġcompar ison
ames e
Ġhonor ary
Ġoverse as
Ġrest ricted
Ġper mitted
Ġc raw
Ġ" ",
ĠYou T
Ġcon gress
á º
Ġcop per
Ġindic ating
ĠS r
ĠAll ied
ĠGu inea
Ġdef ended
Ġn ephew
ĠSpr ings
ĠG ard
Ġadd ressed
c hers
Ġnegoti ations
ĠC urt
Ġinstr uctions
il ia
Ġcom ed
Ġinher ited
ĠR ot
ĠUn it
Ġex clud
Ġmanufact ured
Ġinterview s
g ame
ĠTw enty
Ġp ier
ac o
Ġ6 6
Ġf iring
Ġmer ger
b us
Ġcl ient
l ights
Ġcanc elled
Ġinflu ences
Ġfold ed
Ġdram atic
ĠF ull
ak ia
leg iate
Ġox ygen
ĠLl oyd
h in
Ġent ers
ĠD og
Ġstret ched
ĠChallen ge
Ġcar ries
Ġfant asy
Ġfor b
Ġste ady
Ġchar ter
Ġor chestra
Ġf ert
Ġliter ally
Ġj acket
os oph
is hers
Ġr ush
Ġeye b
et he
Ġs ample
Ġqu e
ĠBe h
Ġ189 1
p arent
S m
Ġsc attered
Ġwarn ed
Don ald
Ġcollaps ed
ĠBy zant
Ġth orough
ĠHud son
Ġcomput ers
Ã¨ re
ĠPen insula
Ġb ases
Ġactiv ist
Ġreco very
v or
Ġserv ant
Ġf ighters
ĠI T
ĠG ot
ĠB arr
g on
ach i
er ior
v et
Ġdisc ontin
Ġpup ils
ĠFr an
ĠP ant
Ġgener ations
Ġa qu
R S
Ġdirect ions
in ts
Ġindust ries
Ġre pr
ik o
Ġevery where
Ġintern ationally
Ġs oph
ley ball
ĠV ers
Ġconvers ion
ĠF isher
Ġel igible
Ġgrand mother
ark ed
l ist
ĠTh ank
Ġmunicipal ities
Ġsettle ments
ĠNov a
Ġpromot ing
Ġdoub les
Ġ à¤
C om
im ir
Ġ186 5
Ġprison er
ĠT on
Ġremind ed
ĠAl aska
Ġbehavi our
Ġgather ing
Ã Ł
Ġ188 8
Ġhop es
Ġreport ing
ĠDr agon
Ġch in
Ġsc ores
Ġtradition ally
Ġ5 8
Ġst olen
ig ger
ĠP ont
ĠBr ight
Ġmer c
ĠSh ar
O W
Ġd rip
Ġcitiz en
ĠAlbert a
ĠS P
Ġout standing
ĠD aily
Ġcooper ation
Ã ª
id ance
L S
Ġass ume
ĠRoman ized
ub s
ĠP ow
in ite
ĠP ut
ist ent
Ġphot ography
Ġt ube
Ġdat ab
Ġsh ocked
ĠAl t
ĠAd vis
Ġt a
vent h
ĠS ig
G et
iff s
g ments
ĠMunicip ality
Ġl on
Ġc yl
Ġc ro
Ġpet ition
f eld
Ġver tical
w inning
ue z
Ġport rait
Ġhealth y
Ġr abb
Ġunt o
Ġac res
Ġcan al
Ġre vers
Ġprote ins
h is
arr ison
ĠS ah
Ġmus cle
ĠU g
i ens
ĠAn cient
ĠAb u
am er
Ġintellect ual
o ons
Ġquestion ed
Ġ6 00
ol it
c r
ĠT ed
Ġbul let
Ġexhib ited
Ġ186 4
ĠVeg as
Ġscient ist
ĠYouT ube
ĠMicro soft
Ġaccess ible
Ġbe am
est on
ĠS A
Ġe ase
Ġcat alog
Ġread ers
ab out
Ġtr unk
ĠBroad casting
Ġlegisl ative
ail ing
ĠL or
Ġen orm
P lease
Ġstret ch
Ġext ensively
Ġcon stitutional
Ġl ucky
Ġamount s
if fer
Ġ186 1
Ġimplement ation
ĠCur rently
Ġproduct ions
ĠT odd
ĠR ac
ill iant
uck er
Ġrefer ences
ĠSpe ed
Ġtherap y
ĠC old
enn ial
Ġt ear
Ġr anging
ĠM ult
ĠBr isb
ĠB ak
Ġyour s
ĠIn sp
Ġcolumn s
Ġshel ter
Ġgl ance
Ġmanufact urer
it i
ĠRep ort
Ġgradu ation
Ġam azing
Ġm ate
ĠDak ota
Ġfest ivals
ĠP ast
ĠHar old
ĠL ate
now iki
en berg
Ġob sc
ur st
Ġ5 9
Ġthr ust
ĠBrisb ane
Ġfarm ing
ĠMag n
ĠNever theless
mon th
O P
Ġcinem a
Ġsympt oms
Ġout break
Ġev ident
Ġemphas is
ĠR idge
ir ms
ĠWrest ling
P er
Ġarg ue
W ill
Ġgall ery
ond a
or p
ind a
or ic
ĠK yle
Ġlocomot ives
ĠSc ar
.. .âĢĿ
iss ions
Ġg ardens
Ġfl our
Ġexclus ive
Ġor n
act ory
Ġ7 2
ĠE ve
ĠL is
Ġinter cept
Ġab und
ĠPr adesh
Ġcloud s
Ġm aps
el ed
ester day
ĠSt re
ĠArch bishop
f amily
Ġamb ass
Ġp owered
Ġun incorporated
ĠM end
ĠD isc
Ġdem on
Ġcon st
F F
ĠPer u
Ġh ind
ĠCo al
inc inn
ĠAt hens
Ġwrit ings
ĠCl aire
ĠC N
Ġl ord
ol ition
Ġproced ure
ĠP le
Ġunc ons
20 10
Ġaccur ate
ĠA ber
Ġparticip ating
com pass
Ġdist urb
Ġ8 5
cover ed
Ġresign ation
Ġthe ories
ern ess
g roup
Ġang el
Ġconv icted
ĠC P
Ġcorrid or
ĠSaud i
Ġpl ates
Ġst are
Ġfail ing
Ġfr amework
ĠRal ph
Ġreg ister
Ġlin ear
ĠMag ic
Ġl ux
ĠLuc y
id o
ĠF ell
Ġp airs
Ġed itions
ĠL ag
ĠProtest ant
ath on
Ġess entially
Ġcou ch
cel and
Ġp ole
ĠC amb
ĠL ear
ish a
Ġsub sc
Ġpack age
ĠY ang
am pton
ack ing
ĠG or
Ġinst antly
Ġde emed
l anguage
um ph
Ġse eds
a ft
Ġacqu isition
Ġ186 2
Ġst ake
ĠSoc cer
Ġpra ise
Ġprepar ing
ĠDemocr ats
ĠE ston
ĠStu art
ĠM alt
Ġplayoff s
ĠD iam
Ġsurre nder
Ġautom atic
Ġf er
Ġdist ribut
Ġj aw
it ime
ĠRog ers
Ġdist inction
Ġbet ray
Ġcampaign s
Ġappro aches
ĠSocial ist
Ġkeep s
Ġbreak s
ĠCh ase
Ġdoct ors
ĠSt ars
Ġ186 3
Ġjud gment
Ġb other
Ġre organ
E very
ĠM S
ĠT u
Ġkey s
Ġcl ients
ĠB ald
Ġb uck
Ġspecial ized
incinn ati
G u
Ġcolle ges
ĠAng lo
ch ief
Ġcontribut ing
ĠStud io
ĠK ap
ĠW oman
ĠM ust
ĠQ ual
Ġ188 7
Ġsk i
Ï Ħ
for ced
Ġdes p
== ==
Ġm amm
ĠS ara
Ġsh ake
Ġsix teen
Ġfurn iture
j ust
Î ½
ĠComm ons
ĠBar cel
om es
l ength
ĠD ennis
Ġcolle agues
Ġper ceived
ĠI mm
ĠV I
Ġm ud
Ġprof ile
ok er
È Ļ
ĠJ a
Ġequ ally
ĠJeff erson
um ps
ĠE ight
Ġh ated
ren cy
Ġpay ment
Ġsh orter
h aw
Ġrepeated ly
Ġcor ruption
ĠNe il
Ġto x
Ġst ored
Ġdise ases
c at
Ġcelebr ation
Ġmain stream
ĠC ov
Ġen forcement
at ers
Ġquarter back
Ġc avalry
Ġgr an
ĠC ou
Ġdivor ce
ĠA ction
oun ce
ic ia
Ġgrad es
Ġhapp iness
Ġcorrespond ing
ĠHen ri
Ġphys ician
hol m
ĠE sc
Ġtour ist
ĠR ing
ĠM oses
Ġdoor way
g i
Ġlov es
ĠDemocr at
Ġtrib ute
ĠR u
Ġop ens
ĠJust in
i ast
Ġinnoc ent
Ġappro aching
ĠSy mphony
Ġp ants
ĠT yler
Ġsc ope
Ġexplos ion
Ġrestaur ants
ĠT ech
ĠR AF
Ġen rolled
Ġacc um
ĠMun ich
ĠS aints
ĠO bl
ĠBul gar
Ġabsol ute
Ġnarr ative
ĠHe aven
Ġt ension
Ù Ħ
ĠJ ar
Ġqu arters
ĠF em
n ew
ĠR hod
Ġthir teen
ĠPer ry
Ġexper iments
Ġeng age
ĠTig ers
re z
w er
Ġtempor arily
G od
ĠT oy
Ġencour age
Ġconsequ ences
ĠY e
Ġchallen ged
Ġge omet
ĠPhilipp ine
âĢĻ ,
Ġsign als
ĠBudd hist
Ġmix ture
Ġrece ives
ĠE y
ĠM ales
al an
ĠPl ant
Ġl un
ĠJul ian
Ġcor ps
ĠN ote
Ġsum mit
ĠChe ster
ĠH ob
ĠPh D
Ġâ Ĥ
Ġcross es
Ġpro l
em ploy
ĠBuff alo
Ġne uro
Ġpro g
Ġimp ression
Ġg ast
Ġp ounds
ĠEx per
Ġpriv ile
or o
osp itals
Ġmyster y
ĠJam ie
ro ph
ĠLe eds
Ġlob by
Ġstop ping
ĠHit ler
b es
Ġless ons
ĠM s
Ġcr u
Ġrul er
Ġp seud
m ade
re ction
Ġd ining
Ġch a
Ġdep icted
ĠB og
id ency
Ġres ort
re ated
ĠCamer on
it is
Ġstat ements
te gr
ĠC A
ĠPun j
Ġcar rier
Ġpur ple
ri et
ĠBl ues
Ġcomm enced
be at
Ġsubmar ine
ourn aments
Ġinh ab
Ġfour teen
ĠB ath
Ġ8 00
amp ed
art s
ĠProv inc
ambig uation
enes is
ĠDig ital
Ġ9 9
Ġwork er
Ġuncons cious
former ly
Ġpart ial
Ġen compass
Ġabsol utely
ĠMunicip al
Ġsusp ic
ĠDi ocese
Ġfin ance
Ġro de
ĠB orough
ounc ill
ĠM az
ows hip
Ġtrav els
ĠI celand
Ġsuppl ied
ĠUr ban
Ġdistinct ive
ĠS udden
Ġa st
br aska
ĠB urg
Ġconsist ent
Ġw reck
Ġpl enty
Ġdel ight
ĠCult ural
ĠC elt
Ð ¼
ax y
Ġfocus ing
Ġinvestig ate
ĠBl ake
Ġproceed ed
Ġfilm ing
Ġpolit icians
ĠHer bert
Ġpro x
ĠNev ada
ĠGreg ory
ĠS ony
Ġorgan ic
Ġmill ions
R I
Ġcut s
Ġattend ance
Ġpit ched
ĠC incinnati
Ġgar age
Ġarr ives
i ary
ĠM ath
Ġcharacter istic
Ġb arr
Ġinter action
Ġ188 6
ĠSystem s
ĠMad ison
Ġt ough
ard ed
Ġexc it
ĠTerrit ory
Ġmon ster
dis ambiguation
g us
Ġb old
by e
Ġr ice
ann i
ĠG round
Ġimpress ive
Ġmind s
Ġt enth
Ġp in
onom ous
20 11
ĠL P
Ġsal v
ĠDe b
Ġlik es
Ġcheek s
Ġmem or
iz er
Ġphys ically
ĠHoll and
Ġrese ar
Ġnob ody
Ġw olf
g ener
os y
Ġper mit
Ġwhen ever
ĠPict ures
Ġspeak ers
ĠColomb ia
out heastern
ast ing
Ġart ificial
Ġspir its
Ġt ap
ĠL ock
y cl
Ġcl oth
Ġh arsh
Ġdepart ments
4 00
ĠMur phy
Ġgen u
Ġrecip ient
Ġoccas ional
H A
Ġconf irm
Ã ¦
an j
Ġcert ified
Ġsurpr ising
ap hic
Ġdescend ants
âĢĶ âĢĿ
Ġdiplom atic
ĠDen ver
ad ition
Ġemp ire
E ng
ĠBarcel ona
Ġrev ised
re leased
Ġexpl icit
Ġd ish
s l
Ġreven ge
Ġmus cles
ere k
ĠFor mer
Ġencounter ed
ĠNor folk
Ġred ucing
Ġrelie ved
ĠNap ole
Ġph arm
raf ts
Ġsh aped
Ġg odd
l ia
Ġ188 1
z ed
it udes
Ġvolunte ers
Ġemploy ee
Ġcou p
Ġm asc
Ġdesign ation
Ġkilomet ers
vel t
Ġh a
g om
Ñ ı
Ġdev ast
ag ged
ash words
Ġb achelor
Ġneigh b
Ġlight ing
ĠDr ive
Ġsp ac
Ġleg it
l ain
Ġgen es
Ġent reprene
ĠMin or
Ġdiss olved
Ġor bit
m un
ĠL an
vel ation
Ġspeak s
Ġgu idance
Ġdr ums
ĠA x
Ġcollabor ated
ĠS pen
ĠG onz
Ġtechn ologies
Ġconcentr ated
ĠSh aw
Ġbon us
Ġ188 4
Ġv oy
ĠH amb
Ġconv ince
ific ate
k ov
ĠClass ic
fam ilies
ĠG arc
he ld
ĠP ic
ĠN ature
ag ons
writ ten
Ġautom atically
Ġind ucted
Ġc otton
ĠTr av
Ġbeet le
ft en
m ail
Ġto mb
w ord
Ġtw isted
en os
Ġcelebr ate
Ġ( ).
iv ic
Ġpost s
Ġus age
ster dam
th rough
is er
ĠLe v
Ġwe ird
ĠH erman
ĠT ag
Ġsp un
Ġpan ic
Ġ6 2
Ġper pet
Ġtask s
en ia
ĠB rew
Ġtransform ed
gh ai
Ġt ale
Ġsh adows
ĠMan uel
Ġstri king
Ġblood y
Ġelement ary
Ġr ational
Ġhistor ians
Ġcustom er
ĠR ivers
ĠIndust rial
ĠUn fortunately
Ġhol es
pen se
Ġdelay ed
ĠS ierra
ĠR at
Ġtop ic
qu is
Ġg ates
e ous
ĠS ide
Ġall ies
Ġst ir
Ġhol y
Ġcommit ment
Ġd irty
Ġg aining
Ġtiss ue
Ġcar ved
p op
al am
Ġsol utions
Ġrel ay
Ġb arn
Ġserv ants
Ġvir us
in ated
ĠEd wards
Ġthere by
ĠS yl
Ġnat urally
ij i
Ġprevent ed
Ġconcept s
ĠPed ro
Ġf ed
ĠCo ach
Th anks
Ġpor ch
ĠMod el
Ġtor ped
w ig
ull ivan
Ġl aughter
Ġret ain
Ġcons olid
Ġkill er
Ġblock ed
Ġpre y
Ġstrugg ling
Ġf o
Ġremov al
ĠN ancy
p iece
Ġboy friend
ĠFa ith
Ġsequ el
Ġcol ored
Ġg igg
Ġreleg ated
ĠTest ament
ĠPear l
ĠL ov
Ġflo ors
Ġpr ide
Ġmonth ly
Ġcour age
Ġj et
ĠM ig
ĠArmen ian
ok a
Ġv ital
ĠO m
Ġout door
it ic
Ġlabor atory
U N
ĠP ack
as ia
ĠW ould
Ġelev ated
ĠM ann
stitut ed
ĠP rest
ĠW elling
Î ¿
Ġbe ast
ĠNep al
ĠO scar
ĠT ake
ic ular
ult s
ne ath
le nd
ĠConfeder ate
Ġflu id
ĠBl ock
Ġcre ates
e le
ad r
Ġb ore
Ġb ats
ĠM ey
Ġpri ests
ĠNe braska
Ġpros ecut
Ġ6 3
W A
ĠGuard ian
ĠS alt
s ized
Ġobs ervation
Ġesc ort
Ġt ightly
200 8
ĠFlore nce
Ġs iege
ĠC S
200 7
ĠSudden ly
Ġor b
up s
ĠP S
Ġextend ing
Ġnickn ame
ĠP el
Ġreg ret
is ons
ĠOr d
Ġtr apped
Ġdr ain
Ġc oc
Ġmaintain ing
ĠP erson
Ġregard less
Ġrec ur
ĠKen ya
ĠS z
Ġconsum ption
ĠP ra
U C
ĠP in
Ã¶ n
ĠAnt ar
ĠJes se
ĠPol icy
amp a
Ġsw ept
Ġrad ar
Ġpe er
um ble
Ġhyp othes
Ġend ors
Ġare na
Ġaltern ate
urs day
our t
Ġre verse
M L
Ġcal endar
Ù Ĩ
g arian
ĠB ased
Ġ188 2
Ġsid ew
Ø ±
Ġeconom ics
ĠM ul
ĠJ enny
Ġbl ame
Ġw oke
Ġc ott
ĠNew castle
Ġlo op
ĠCost a
ĠCirc uit
Ġl iv
ĠJo an
ĠHar bor
ac co
Ġreg ul
Ġcompan ion
ĠO pp
ĠF u
Ġbas ement
IN G
ĠDe ep
Ġbus es
B est
Ġunivers al
Ġr aw
Ġres iding
Ġso vere
Ġexpl ore
Ġab str
Ġrel atives
Ġp ond
Ġin ject
j oin
al in
Ġl ingu
ĠRo ose
on ing
Ġinstr uction
Ġvirt ual
ĠO cc
ĠMor oc
w orld
Ġsub div
wh ite
ĠB uch
ĠSt ra
Ġmotor cy
Ġunder neath
Ġext inct
H z
ĠPolit ical
Ġcap ita
Ġper f
ank ing
ĠS elf
Ġpres ents
ĠA irl
ĠG ust
Ġnam ely
Ġt ournaments
amb ers
ĠN y
Ġk ings
ĠComp et
ok o
it ro
Ġcontract s
rim ination
ĠErn est
ĠArgent ine
ling ton
ĠAzerbai jan
F e
Ġcomp rehensive
a uc
ĠY am
ip her
Ġpros per
ĠHistor ical
umb ling
ĠL ions
Ġcomp iled
ĠIndust ry
ĠVal ent
nes day
Ġfirm ly
onn ie
200 9
Ġse ized
Ġble nd
ĠGo ogle
ĠSong s
ke ley
Ġbank rupt
Ġsque ez
Ġcult ures
ĠUs ing
Ġearthqu ake
Ġro pe
Ch rist
ĠL ion
id ad
Ġfact s
Ġw are
um ping
we ek
ĠI D
em porary
Ġhon ors
ĠVen ice
er ie
ĠE sp
Ġmyster ious
k ind
ĠWar ri
Ġal ign
Ġcho ir
he nd
ĠO wen
Ġe ager
ish ops
Ġfew er
av ier
ĠG ay
ĠProp het
20 12
Ġaccompl ished
ik es
Ġwid ow
ose xual
ĠEth iop
ĠAm sterdam
Ġf ame
v ar
Ġeng agement
ĠFace book
B L
ag s
ĠW it
Ġpredecess or
ĠWall ace
pe are
Ġcont ents
ĠGi ants
Ġexpect ing
Ġp ap
ĠSt ef
Ġcrop s
ĠChap el
Ġwis dom
s ub
l ined
ĠPr inc
Ġf aint
Ġvamp ire
Ġsum m
ĠL og
k ward
ĠFac ulty
Ġhung ry
Ġbe aring
ount ain
ĠH av
Ġbo ards
Ġvari able
ĠCom ics
Ġcont ribute
Ġst iff
ĠC inem
Ġexam ination
Ġexhib it
Ġlegisl ature
Ġimprison ed
Ġbas in
ĠSo ft
ĠK aren
akes peare
Ġsam ples
Ġpark s
Ġ6 1
Ġc ogn
Ġst ere
Ġm a
reg ular
Ġveter an
p ost
lev ard
l og
ĠProfess ional
ound ing
O K
ĠR ange
Ġshall ow
Ġglass es
Ġann ex
Ġpres erve
Ġsp ite
Ġass ists
Ġinter change
st own
ĠH az
Ġaccommod ate
ing e
Ġcl ay
Ġfe ud
Ġarrang ements
Ġopt im
Ġimpro vements
Ġr ushing
th is
G erman
Ġdisband ed
Ġpen etr
is ible
r age
ĠT as
Ġwhe els
gr aph
z ing
Ġback ing
Ġconnect s
Ġmo ist
D ec
Ġcompr ises
Ġdro pping
av in
Ġbl og
Ġenorm ous
ch air
Ġbit ter
ĠC ec
Ġco ached
Ġ6 8
Ġachie vement
Ġint ellig
ĠV ideo
anc ial
ĠHor se
Ġbr igade
ild a
Ġover come
ĠGh ana
ĠT all
at oes
s or
Ġbr idges
Ġreal ised
ond uct
ĠAr nold
Ġrele asing
Ġmanif est
Ġboot s
Ġch rom
id en
zy me
Ġclos ure
Ġgrand son
Ġlog ic
Ġfoot age
S ure
Ġed ges
Ġbre eding
ab lished
Ġuncom fort
Ġact ively
Ġexcit ement
ĠWars aw
Ġlog o
Ġro d
Ġdis order
ugh t
Ä Ł
ĠEd ition
ĠB ear
ĠAl ger
Ġchem istry
ĠPeters burg
Ġs ew
ĠQu est
ar is
ĠSup port
ĠCol in
ĠHar vey
om o
ĠT ell
book s
Ġel ite
ĠRay mond
ĠRoose velt
Ġbelie ving
Ġqu it
ĠO ri
erv ing
ĠY ale
ĠL iga
S ee
ĠCroat ia
ub b
Ġarm or
200 6
ov ich
Ġfr aud
origin al
ces ter
ĠLe ader
ant i
Ġen roll
Ġsac red
Ġtw ent
ĠR ou
Ġhistor ically
Ġst ern
Ġimpro vement
Ġrecru ited
ĠNew ton
od ing
Ġwe aken
Ġsust ained
ĠT at
Ġ188 3
ĠJerem y
Ġst roke
Ġm ild
Ġchuck led
Ġ7 6
Ġannounc ement
act ed
in ery
Ġf ib
Ġab d
Ġfavour ite
Ġh az
Ġ6 7
Ġin fer
Ġhelicop ter
Ġm it
Ġathlet ic
ĠF at
Ġcongreg ation
Ġst ro
ĠGil bert
ĠS eth
ĠSh ir
ah o
h t
Ġco aches
ĠB av
Ġbe ars
ĠAm bass
ur ated
ĠWil hel
Ġbox es
is le
Ġ9 8
ess ed
ĠHug hes
ĠS or
ĠAng lic
ĠW inn
Ġw rist
Ġcasual ties
Ġat e
ĠWat son
Ġexper ts
Ġs ink
Ġ187 6
Ġm aid
p her
Ġperman ently
Ġ Ċ
ĠH unt
con n
w yn
C D
am ics
w ind
Ġcir cles
ĠK eep
Ġconsum er
s ing
ĠS ut
Ġinc umbent
Ġl akes
P l
Ġdepend ent
ĠB und
ĠGu ild
Ġtr ap
Ã© r
Ġrad iation
writ ing
ĠB ird
ĠI P
c ore
Ġsh ar
ĠSy rian
Ġeff iciency
ĠO il
Ġ" [
ĠGe off
Ġor che
Ġins pect
ĠTechn ical
ĠWell s
um er
ĠD est
Ġ187 1
it r
Ġbr illiant
Ġsens itive
ĠOtt awa
R T
ĠL ink
Ġhe m
Ġd ock
Ġaim s
im m
Ġst ead
L ove
ĠS ic
g ence
Ġs aving
Ġexam ined
Ġt ours
Ġsle pt
Ġcur ric
ĠMah ar
ĠWelling ton
Ð ²
j u
Ġsup plement
Ġdocument ed
Ġth umb
Ġput s
Ġp ian
Ġbl ur
200 5
Ġorganis ations
ĠJ in
Ġy esterday
i ability
ĠH at
Ġadmin istered
Ġnow here
Ġsepar ation
ĠC ant
ĠFil ip
Ġdispl ays
ĠS ug
ow der
Ġret rie
qu et
ĠBr ig
Ġen velop
Ġsem if
io let
Ġthreat s
he rent
th al
ĠPlay ers
Ġgr im
Ġtre m
ĠSpen cer
y ers
ĠN umber
Ġbe nd
ik ely
Ġball s
Ġstud ios
Ġsever ely
Ġattract ive
ĠLeban on
or ient
our g
Ġcomp rom
ah l
ĠP ul
t or
h anded
ĠS ul
abb ing
Ġacknowled ged
Ġent ity
ĠL ux
Ġn ic
Ġhard ware
Ġconc ur
ĠG ra
ĠL ogan
ĠMont ana
Ġab rupt
agon ist
ĠF BI
Ġrit ual
in us
w ings
Ġr aced
Ġ9 6
ĠBut ler
Ġrenew ed
ĠDel aware
uct ive
Ġmid fielder
us hes
en burg
Ġpract iced
Ġ184 0
Ġd awn
Ġsw ing
Ġt ut
ĠMar x
Ġ6 9
Ġtrav elling
ĠS outheast
Ġl ined
ĠCr uz
Ġtri ple
Ġintrod uce
Ġeight een
ĠV ern
Ġequ ation
ĠIndepend ence
ĠW a
Ġint ensity
ĠShe ff
Ġm all
Ġsacr ifice
Ġrebell ion
Ġpil ots
ĠHe avy
Ġscream ing
ou stic
Ġneighbor ing
rop od
k ar
bo ards
ĠBulgar ia
un s
Ġhand ling
Ġsl ip
Ġsuggest ing
l ane
c ount
ĠSebast ian
ĠStan ford
atch ing
Ġin g
v as
Ġvar iant
Ġg ymn
Ġaw kward
Bl ack
ĠWed nesday
Ġs ake
Ġpat ent
ĠP ros
Ġc ad
ĠShan ghai
ĠL anguage
ĠR ace
ĠM ol
Ġbag s
ĠT erm
Ġaffili ate
ĠTy pe
ĠTr uth
Ġ187 8
Ġmain land
e b
Ġunder graduate
ĠB ent
ĠSur vey
Ġsp are
ĠBul garian
ian e
Ġplant ed
ĠHe in
Ġdes ired
Ġinstall ation
Ġfort ress
ĠW u
Û Į
ĠEx change
ĠÃ ģ
I G
orm al
Ġseem ingly
Ġso ap
ĠR ah
ĠLeon ard
Ġcul min
ĠTre as
Ġlo ver
Ġstruct ural
ĠDar win
ĠY u
Ġw itch
ĠSh akespeare
ĠForm ula
m ans
Ġcons pir
Ġab olished
ĠS ure
e u
ĠIraq i
ĠF ant
ch t
Ġheart s
Ġcomplic ated
ĠCh i
Ġrefuge es
w right
Ġimag ined
ĠK le
Ġv ig
al is
ĠM ut
Ġche er
Ġdial ogue
ĠInt elligence
Ġpresent ation
ĠD ol
ĠB M
s ur
Ġfe ared
Ġac ademy
H ere
ĠH us
om i
Ġexhib itions
ĠTh anks
Ġland mark
o i
Ġround ed
Ġrat ings
ĠBeg inning
Ġfast est
Ġsurviv ors
Ġelev ator
ĠâĤ ¬
ĠS Ã£o
Ġb apt
ĠTh ai
ues day
Ġpsych ology
ov an
B E
Ġp ile
ĠTib et
ĠBer keley
ie g
Ġal tered
eal ous
Ġsign ature
ĠD aw
ĠÅ ł
Ġsoc ieties
b ek
ĠP oll
Ġren owned
ĠCamp aign
Ġcounter part
ĠUl t
ount ed
Ġflo ating
orn e
Ġfe ather
Ġf ence
Ġ8 8
rick eter
Ġc ooking
ĠG y
Ġbu ff
ĠRo om
Ã¡ s
comm unic
Ġhe aling
f ounded
ĠEx pl
Ġp unk
Ġreve aling
Ġ186 7
Ġ" (
ĠL ot
ĠB ass
ĠS ex
Ġinv ented
ĠC and
Ġinst inct
Ġflow ing
Ġm ansion
Ġvar iation
S orry
Ġextend s
ĠTh ursday
Ġpat ri
is an
Ġlad ies
Ġres ur
Ġw ishes
Ġc ust
oy s
Ġ187 2
Ġattract ion
Ġarg ues
Ġassign ment
Ġg auge
Ġout come
Ġviol in
f irst
on ial
n al
Ġnecess arily
ah an
e or
Ġlo aded
Ġbomb ing
um m
d irect
Ġsle e
ĠProt ection
ĠP ent
Ġch airs
Ġrock et
uck land
ĠLind a
ate ful
a very
w he
Ġstation ed
Ġvocal ist
Ġres erved
Ġm ere
ĠLe x
ĠM ills
ro e
Ġexha ust
ord inary
Ġh ospitals
Ġf ist
ĠD ays
ain ted
Ġrel ating
ĠOther s
Ġalt itude
Ġvolunte er
Ġ187 5
p it
ist le
red ited
Ġmiss ile
ocol ate
ĠPal mer
uls ion
Ġship ping
gom ery
Ġgu ilt
i ology
Ġcirc ular
Ġw iped
ĠC yr
Ġsuccess ion
Ġb ite
em a
h all
op ing
Ġmar ch
ĠB ened
Ġdiv ine
ĠD elta
Ġret iring
Ġcr ashed
Ġcolon ies
ĠO g
Ġdepend s
ĠCh ad
Ġt el
Ġmut ual
Ġprin ting
Ġsusp ension
qu er
Ġrece iver
ĠVenezuel a
ĠCH AP
ĠFin ance
Ġsc rew
Ġ7 7
ĠS ak
Ġdrag ged
Ġrec all
ĠOper ations
ri en
Ġprogram mes
ĠW alt
Ġpsych ological
Ġreform s
ĠPhill ips
Ġdis g
ĠRet urn
Ġcam eras
Ġres ource
add le
ĠR ams
ĠK ur
" '
Ġcon vert
yl an
Ġ187 9
th ree
Ġdesper ate
ep per
Ġb ord
ĠProd uction
ĠJenn ifer
B ig
Ġmar g
um i
Ġb ike
n amese
Ġnumber ed
pl ing
ou p
r ain
Ġb er
Ġp ig
ĠT ab
ĠKr ish
Ġ" ".
ĠC hes
ibl ings
Ġpredomin antly
Ġs ank
Ġdown load
istr ation
p ine
Ġpeace ful
Ġro ster
Ġfort une
d al
c ott
ĠByzant ine
Ġ7 8
ĠCHAP TER
ĠSh a
Ġprest igious
Ġvers es
Ġair line
Ġ ib
Ġcompos itions
Ġwitness ed
ĠMal ay
n Ã©e
ight ing
Ġfro zen
Ġarchae ological
Ġp oured
Ġun h
Ġinter vention
ĠJul ie
Ġhon ored
ĠIn side
ĠCroat ian
Ġc osm
Ġclimb ing
ĠSheff ield
Ġdisp ers
Ġc iting
ĠO w
ĠEag les
ed a
Ġaggreg ate
Ġo rient
Ġvict ories
n ut
Ġpit cher
Ġtest im
Ġgl ac
hold ers
Ġtr am
il ian
ĠRom ans
d isc
Ġr ip
aur us
Ġup coming
Ġcr uis
ĠOt to
Ġabs ent
ĠMethod ist
ur bs
Ġtr ace
Ġn a
Ġdial ect
Ġde als
Ġrest ore
ĠHig her
ĠP R
Ġmagn etic
Ġevery body
Ġfeed ing
az i
Ġsw ung
ĠB ond
av ian
! !
20 13
Ã© l
ĠAp oll
ĠK or
lect ed
Ġf ires
Ġqual ification
Ġob st
ill es
Ġex h
ĠRe ed
Ġpot entially
Ġdef ender
Âł Â°
Ġevent ual
ĠMore over
ĠY ellow
isc opal
Ġhum or
Ġgu ided
Ġreserv oir
ĠL ess
Ġport ions
arm s
z h
if ier
Ġch at
ĠMc M
ĠA uckland
ĠSom ers
Ġbes ides
Ġ7 4
A ny
Ġupd ated
au er
Ġ á
Ġf illing
Ġlay ers
Ġsatisf ied
Ġcur ious
ĠUnivers e
Ġnot ion
Ġ186 8
Ġcomp ass
ĠSecond ary
Ġg ifts
ĠA j
Ġreview ed
Ġmoder ate
Ġassemb led
Ġv ow
Ġman ages
Ġit em
ĠNash ville
ĠJ oint
u ate
ull ah
ĠM ap
Ġj ealous
ĠMont gomery
ĠGram my
Ġth read
ĠGro ve
Ġprogress ive
ĠPr ice
Ġassess ment
Ġstream s
Ġvulner able
Ġaw ake
Ġcle aring
ĠPl at
ĠC ork
Ġbr ut
Ġ187 4
Ġ186 6
ĠN ine
c aster
Ġex terior
ĠObl ast
oc al
Ġindepend ently
ethe less
199 0
Ġ187 3
Ġtour ism
ĠZ ach
Ġtri ps
Ġph osph
Ã± a
Ġr ings
Ġkill s
ĠCr ime
ĠUS S
Ġto ll
Ġfind ings
ĠD od
Ġrub bed
Ġra id
Ġtri o
ig ate
Ġproced ures
Ġl iver
b et
ĠT rent
Ġf isher
ĠRe ading
ad ise
Ġvirt ually
Ġcr uel
ĠCh ang
Ġpossess ed
ĠS yn
Ġbul k
Ġown s
ĠS ask
ĠP av
Ġmart ial
ĠLe ft
Ġfr act
Ġrequ iring
Ġle agues
ĠG am
ath a
Ġtem ples
Ġf rown
ĠAnn ie
ĠF ig
Ġj oke
R ed
Ġvar ied
fect ure
ĠMo z
Ġprofession als
Ġbroadcast s
Ġreg ulation
Ġf ears
ĠEx am
ĠPalest ine
Ġtouchdown s
ĠL iz
ĠL amb
Ġarr ay
ĠJosh ua
ĠH alf
Ġinvol ve
ĠR af
Ġread s
imens ional
ac ular
f ilm
Ġ9 7
Ġhe al
Ġh ood
ĠSw an
Ġan k
Ġprop he
Ġsc iences
ia o
Ġrun ners
200 4
B O
ĠCollect ion
ĠM D
ag ic
Ġaut umn
ĠG ate
ge bra
Ġcivil ians
Ġemer ging
Ġhoriz ont
ĠPrim ary
l ived
op ened
Ġen abled
Ġru ins
ĠJ unction
ĠE ff
av i
Ġlocomot ive
h l
ĠArab ia
Ġread er
Ġse ated
Ġor g
Ġb icy
Ī Ĵ
Ġrid ic
Ġcry stal
h ole
Ġmar ble
Ġabsor bed
Ġr idge
Ġphenomen on
Ġse al
Ġen zyme
ĠF am
ĠSol omon
Ġs ke
Ġrout ine
ĠBer g
ater al
pr ing
Ġkey board
Ġchap ters
ĠJess ica
Ġr amp
yr am
Ġde alt
ĠM TV
Ð° Ð½
Ġambass ador
Ġm oll
ĠComp uter
c ur
Ġpartic les
Ġ187 7
Ġut ter
ĠRhod es
min ster
Ġmem br
ĠT uesday
ĠEle mentary
spe aking
Ġdemocr acy
ĠVerm ont
Ġimmigr ation
g ov
Ġsp at
idd ing
Ġsub stance
ĠAlbum s
Ġf erry
ot ted
Ġdevelop ments
Ġrequire ment
Ġw ounds
âĢ ĺ
Ġcount ed
ĠC raw
Ġh aul
ĠAmbass ador
V P
u ros
ĠAn a
H ave
Ġadvert is
Ġsole ly
N C
ĠEll en
Ġprov isions
te am
ĠEag le
Ġacc us
ĠV illa
Ġsimilar ly
T E
ĠSat an
ul i
Ġunderw ent
ĠF oster
ĠAm azon
aly sis
os hi
att a
Ġhand led
ĠV ent
p y
ĠAr c
Ġsw ift
p in
Ġte nder
ĠT alk
ĠProd uctions
Ġgas ped
ĠG as
ĠM orning
Ġin stitute
Ġb inding
Ġpurs ued
Ġhur ried
b ot
Ġdrink s
ar re
Ġ7 3
ic ations
Ġtransform ation
at to
Ġexp anding
Ġnot ing
er ver
Ġd imin
Ġarm ies
Ġsure ly
Ġpick ing
ĠE M
ment ed
Ġwe igh
Ġrestrict ions
ĠYugosl avia
Ġadv ised
Ġreb els
art a
Ġav iation
ĠInter state
udd y
ĠCh an
Ġsp okes
Ġcur tain
ĠAp art
w hat
Ġphot ographer
Ġprov en
Ġdisco vers
ĠSte in
ĠLe ad
ĠR us
m ill
Ġtheat rical
Ġreal m
Ġam pl
St ation
Ġconsequ ence
arl ing
Ġcur ve
Ġb ills
ĠUn cle
Ġcommun ist
ĠC C
ĠB rah
H ello
is ch
ĠPlan et
p ic
spe ed
Ġbur ial
Ġstat istics
Ġsoul s
Ġreserv es
Ġconf ron
Ġrem n
it ol
Ġgl ory
Ġinf ection
ĠSt arting
Ġs iblings
ĠP od
** **
Ġfar mer
j ud
v ae
Ġsum mon
Ġmaintain s
Ġcrit eria
ĠMig uel
Ġord ained
Ġsp an
Ġf aded
ol and
et o
Ġven ues
J an
Ġ7 1
com p
ĠViet namese
ĠBenn ett
Ġh ull
ĠMe g
m akers
Ġen able
" |
lin ing
ĠK as
Ġvari ations
ĠJ ak
Ġrev ival
uss ion
Ġf ung
Ġd ug
ĠE ss
Ġdiscip line
oc y
Ġto ile
Ġsurre nd
T ime
t z
it ted
ĠW ald
Ġr anges
ĠL em
Ġse gments
Ġmin imal
Ġlov ing
ber y
ent ry
ĠT able
Ġdescend ed
c z
ĠFriend s
B ecause
Ġpione er
Ġart work
Ġrest ing
Ġtoss ed
Ġath lete
p se
Ġre h
ĠK ill
te xt
Ġsa iling
Ġp our
ĠAn im
ĠSh in
Ġdiscontin ued
so le
Ġ184 8
ĠM ik
Ġsymb ols
M E
Ġprotect ing
ĠGu ide
ĠD y
P e
ĠBou levard
ĠPer th
Ġhy brid
ĠS ey
ina e
Ġsol ve
ĠSher iff
ĠRon ald
ĠAv iation
ĠH D
ĠAnglic an
Ġbar rier
Ġtow ers
Ġtr igger
Ġdivor ced
mun ition
ac a
ĠL az
Ġfre ight
Ġqu oted
Ġred es
Ġ8 2
Ġex ile
Ġgr ain
Ġinv itation
Î ¹
Ġp ant
Ġun anim
ĠM am
ĠPr ague
oin ts
ĠChel sea
it ious
Ġw elfare
ĠF ish
g reen
Ġsc andal
ĠD in
al ign
Ġsome body
ĠMaur ice
Ġadop t
Ġmag ical
ry s
Ġtour ists
ĠE C
by ter
Ġins ects
Ġdatab ase
ĠAc adem
Ġheadqu arter
Ġimpro ving
ĠClar ke
c ano
bor g
Ġb ab
Ġc af
ĠMan ager
Ġre str
boy s
Ġvol unt
ĠCarol ine
sec ond
ĠN ad
ĠMo h
ĠDou g
ĠD ame
ĠCh uck
S ome
Ġeat en
il o
Ġint ens
Ġapp rent
ĠCom merce
es a
hy ll
Ġmolec ular
Ġfarm s
ĠG and
omet own
Ġred e
Ġ18 00
ibl ical
Ġsens es
Ġs oci
Ġsn ake
Ġb ast
im en
Ġr ang
he ll
Ġdies el
Ġwas h
Ġtarget ed
ent e
Ġdef ine
Ġrelax ed
Ġillustr ated
Ġin cl
Ġcirc ulation
Ġle aning
Ġliter acy
Ġadvoc ate
ab lo
Ġwas hed
Ġbre ed
Ġsil ently
back s
ĠB ach
ĠNorth west
f old
Ġbu ying
ĠFran Ã§
Ġengine ers
Ġproport ion
osoph ical
Ġtransport ed
ĠF ul
oc ity
Ġh unt
Ġspecial ist
Ġo ak
ĠAp ost
Ġf ake
amb ling
Ġprin cess
Ġpriv ately
Ġrefere nd
Ġpre lim
Ġrev ol
ĠFl ight
ĠCons ervation
Ġr age
Ġ186 9
ĠEconom ics
Ġd iversity
au kee
ĠAnt i
Ġcat hedral
Ġcol ours
Ġblank et
Ġh ier
Ġdoct rine
Ġwid th
Ġenjoy ing
Ġinter face
Ġcons ent
ĠD im
ĠH MS
st ed
ĠCont emporary
ĠJ ill
Ġconsider ation
ĠBudd h
Ġem ail
ĠSud an
Ġob ey
sw ick
ĠDiam ond
ym ph
oun ters
ĠP ick
ĠTransport ation
Ġpan els
ĠD erek
ĠTw itter
Ġavo ided
bec ca
Ġtribut ary
ĠPan ama
ĠSc out
ĠK ol
Ġanth rop
ĠLi u
umb ai
Ġtre as
É Ļ
ed ia
Ġ18 30
Ġult imate
o j
ĠT ong
ĠL ak
ĠN AS
ĠTh ings
Ġcl o
Ġreflect ion
ĠK ash
Ġconfl icts
Ġwar fare
ting ham
ĠB ag
Ġprompt ed
Ġwarri or
it us
Ġcomp at
Ġstr anger
ĠAh med
ri ages
ĠC ut
Ġtrans it
Ġhand ful
ĠMil es
Ġd orm
ĠPr om
Ġinc om
ator ial
ĠAl tern
h alf
Ġterr ain
Ġmin isters
L P
ĠCab inet
Ġremov ing
Ġarg uing
ĠEth an
Ġo v
Ġacqu ire
T e
ell ers
ĠDun can
Ġass ured
Ġ Ñģ
Ġmut tered
Ġ9 2
C o
A ng
ap ur
I F
ĠW end
ĠTh under
ĠLou ise
Ġor ph
Ġlif estyle
Ġst ability
f ol
sc he
ĠSask at
ĠInd ies
ore y
ect ions
ed ge
Ġr ust
Ġauthor ized
Ġir rit
ĠL ily
Ġcart oon
Ġimag ination
Ġag gressive
6 00
ĠT ir
200 1
20 14
Ġcho ices
ĠA w
I nt
st s
Ġslam med
ĠKer ala
Ġdr ives
ĠCard inal
Ġalleged ly
Ġint im
ĠCelt ic
Ġaut hent
Ġgodd ess
Ã¼ n
Ġsaf ely
ĠP and
Ġmor ph
ĠAl pha
ung le
ĠG olf
Ġa uction
Ġelder ly
Ġcollect ing
bor o
ree ze
ub a
im o
at ra
ĠSt akes
N ov
ĠS ullivan
Ġreact ions
Ġmanufact urers
ĠD ylan
ĠJac ques
ĠBr id
Ġche ap
ult ural
Ġs unk
ĠMar tha
ĠW ag
Ġident ification
h aus
ĠM ull
col m
ist ani
Ġy a
ĠLiber ty
Ġbl ues
ĠRepresent ative
Ġc reek
ĠL ooking
Ġfl ames
ĠK id
alt ies
ĠVlad imir
Ġgovern ing
ĠDev on
Ġart if
Ġgr ants
ĠR an
and ra
ĠWilhel m
Ġgr id
ans k
cent ral
ĠAr med
Ġpred ict
ĠK ab
ĠBe aut
Ġp atch
Ġpurs uit
itte es
20 15
Ġp istol
ĠB uc
Ġbank ing
ĠKn ights
ĠL A
Ġsix ty
Ġste al
r ina
Ġacc ent
Ġstre ak
d ing
Ġcl ergy
ateg ory
ry ing
ĠCl aud
Ġeditor ial
ĠColumb us
umn i
Ġp unch
r av
Ġinstr ucted
Ġquant um
M on
Ġrepe at
Ġapprec iate
Ġanim ation
ĠD ale
Ġsear ched
Ġinhab ited
ĠHamb urg
ĠFour th
Ġgraph ics
Ġpsych iat
ÅĤ aw
s elling
Ġgener ate
Ġw arr
ĠFin ancial
Ġto pped
Ġcent res
ĠS of
Ġp av
ĠT ree
ĠK i
ĠB un
ĠHe ath
ĠRail ways
Ġsy mmet
ĠT ax
Ġcan on
ĠR if
Ġp ub
Ġnom ine
ich i
ĠK un
ĠN one
he v
Ġex port
Ġweak ness
c ul
Ġr ape
Ġt ang
Ġen listed
umber land
Ġrest ed
ĠFried rich
Ġrem ix
ĠP i
Ġcomment ary
ĠN ak
ĠEd mund
ĠGi ov
E d
h op
ĠM ang
Ġdet ective
ĠG ospel
ĠPunj ab
p age
ĠTr adition
ĠW als
Ġdecre ase
ĠWork ers
Ġfat al
ĠN C
200 3
t w
w aukee
ult ure
ĠGoth ic
Ġinvest ors
Ġport s
f urt
z ens
on aut
Ġsl avery
ĠArt illery
M arch
ĠIndones ian
Ġsh ame
Ġpark ed
ĠS uff
Ġp ine
ĠCo x
ot he
Ġr ivals
ĠRev ival
ĠStud ent
Ġh ometown
Ġcl erk
Ġthe sis
ew ise
et ing
ĠAgricult ure
Ġb ol
Ġmet ropolitan
aret te
est e
Ġdub bed
A ust
ĠAirl ines
Ġl os
Ġlaws uit
ro st
Ġpre cious
Ġoverwhel ming
Ġaccompl ish
Ġden omin
sen al
Ġment ions
ĠRena issance
Ġaud iences
ĠEnvironment al
ĠCh ronic
Ġintegr ation
Ġa est
erv es
Ġunl ikely
bro ok
G M
in yl
S outh
p ath
c ience
Ġt une
ĠA unt
Ġign ore
Ġins cription
art en
as se
ĠC el
Ġth y
ĠMc L
the y
Ġmat ure
Ġdisc rimination
Ġjourn als
k an
Ġneighbour ing
ub ble
ĠCirc le
Ù İ
ĠPr ivate
Ġam munition
ĠP age
Ġjum ping
Ġir regular
ĠGh ost
Ġtouch ing
Ġfair y
ĠIn v
Ġun employ
ĠCry stal
ane ous
ĠP am
ĠO F
ĠM idd
Ġen lar
Ġje ans
ĠH erm
ir ling
ĠS ally
Ġa ster
Ġd uration
ĠWrit ing
act ic
Ġuncomfort able
Ġflood ing
ov ing
Ġfoss il
ely n
Ġtort ure
ĠL iam
Ġm ock
Ġswall owed
Ġ9 3
om atic
ĠEs sex
Ġpubl ish
st op
ĠCD P
Ġdistingu ish
% ),
Ġprot otype
m ind
as an
Ġcurric ulum
ĠJama ica
A ugust
Ġdisapp ointed
the re
Ġwel com
ĠLe gend
og g
hib ition
ins ky
Ġar bit
Ġpack ed
ĠGer ald
ĠSl av
qu arters
h ad
Ġhas n
Ġf are
Ġin ch
Ġw ise
Ġconj unction
Ġvary ing
ĠPalest inian
ĠAbd ul
Ġgl ow
T H
Ġrevolution ary
ro ying
Ġexha usted
ĠProvinc ial
Ġlect ures
ĠS ter
head ed
Ġconduct ing
Ġrep ublic
Ġpain ful
Ġwarri ors
Ġb io
Ġthreat ening
Ġclean ing
ĠFr anz
ĠM umbai
Ġcommand ing
aly mp
C onn
row ing
sh ore
ĠR ut
Ġ10 1
Ġbl ast
m id
ec raft
ĠSomers et
ĠBry an
Ġp ipe
200 2
Ġd ense
Ġad equ
Ġa unt
Ġim per
Ġ8 1
Ġor al
Ġ8 7
ov sky
Ġkn ight
Ġple asant
sh ot
Ġanch or
s omet
on so
Ġb out
Ġdraw ings
Ġalt ar
ĠF uture
ĠLeg ion
d imensional
ĠPlay Station
Ġvar ies
Ġremark able
c or
Ġaut obi
Ġmat rix
viron ments
ĠK urt
ĠC row
iz ations
i u
Ġin ev
Ġnomin ations
Ġpoor ly
ĠComp an
ĠRe becca
Ġoper ators
ĠI gn
ĠMat hemat
Ġbel ly
ĠB our
Ġa rose
ĠJ ur
ud ed
Ġc ord
Ġloud ly
ad ier
8 00
Ġal ph
Ġsynd rome
Ġconduct or
d em
Ġsong writer
m are
id an
Ġmar ched
Ġalleg ations
Ġt empt
ĠFor um
anth rop
ĠG ardens
Ġ ic
ĠTas man
ĠNA SA
Ġarg uments
ĠC ed
Ġdecl ar
ĠBrun swick
id y
ĠC O
Ġsil k
ie ve
Ġconsider ably
end ers
Ġc ub
Ġess ay
Ġjournal ists
st able
ĠDr ake
Ġ185 7
ĠL akes
Ġbed s
s ix
Ġinterpre ted
ĠC R
m ath
Ġble w
Ġaccept ance
Ġt ier
ĠCh a
gr and
ĠOak land
Ġ7 9
ĠL ac
ĠSh adow
ĠLe ices
V A
Mus ic
i ago
Ġwitness es
ro x
ĠM C
ĠN G
Ġsp o
Ġoccur ring
Ġrid ers
un ning
Ġind oor
Ġg arrison
ĠJ ava
Ġactiv ists
ĠStock holm
ĠCy cl
ĠCl a
ĠSch ol
ble m
Ġdis agre
S E
Ġ185 9
ign ated
ĠHe ights
ĠR aid
al ie
Ġf og
Ġpol ar
Ġsing ers
st age
ait ing
O ur
Ġcap abilities
Ġtr im
ĠBe a
Ġconsult ant
ĠFranc o
olog ically
ĠB aby
ĠP ain
Ġsec ular
Ġpred icted
Ġup right
Ġhy d
ĠPrest on
Ġc odes
ĠG ang
Ġreason able
ĠRevolution ary
ec a
Ġobserv ations
l iga
Ġwithd rawn
Ġoff ense
Ġfre ely
atter ing
el o
Ġy eah
GB T
Ġ Ñ
ĠA ub
Ġreferend um
ĠQu arter
Ġfound ers
Ġassoci ations
Ġinter ven
Ġch ore
em e
ĠC ould
ĠT roy
ĠIs ab
ĠSimilar ly
ĠMal colm
Ġimp osed
w oman
Ġgrav ity
ill on
Ġcontr ad
ĠG T
O ct
Ġsc ent
s up
Ġ8 4
Ġ11 0
Ġspec imens
l ass
Ġinter mediate
ĠArt icle
ĠD ata
Ġd well
ĠLiter ature
ĠH i
in ent
Ġlo os
ĠMar ines
Ġinc idents
pher d
ĠB od
ĠM ick
Ġun ve
Ñ Į
Ġcur rency
Ġsm iles
Ġb row
Ġb ra
ĠL il
Ġelabor ate
Ġr ally
Ġopen ly
ĠE RA
Ġche ese
w alk
Ġhydro gen
Ġth igh
ĠTr ue
ĠL ok
ĠAh mad
ĠH ous
clus ive
b ey
Ġc ant
Ġprior ity
ĠMar vel
Ġtri umph
ill ance
ra its
enz ie
ĠA ires
M ad
ĠR oth
Ġbat ting
ĠAd rian
Ġlov ely
Ġnation wide
b ird
Ġch icken
p ress
Ġun con
ĠV ery
war f
ĠO z
19 80
Ġcruc ial
E uro
ĠTun is
Ġcat aly
Ġprelim inary
Ġexpl aining
ĠMan ila
Ġ8 6
ĠA ur
bu ilt
ens ing
Ġdis gu
Ġ8 9
Ġv ault
Ġd read
W orld
Ġe ag
Ġcast ing
ace y
Ġcontem pl
ĠHe y
Ġk een
ĠD uc
Ġcommunic ate
Ġg ut
Ġele g
ters hire
Ġvoy age
Ġback wards
ĠGeorg ian
Ġcar riage
Ġcan cel
Ġveget ation
ĠF un
ĠPar alymp
Ġterror ist
on ica
ĠMor r
ĠA ch
b ank
ĠR ice
Ġcons ec
ĠNik ol
Ġch im
Ġinher it
lo aded
ĠStev ens
ĠPhil osop
Ġstri kes
Ġrec onc
cl ock
im ination
uc er
Ð ³
it tle
ĠL ay
Ġinteract ions
] ,
Ġfe es
Ġmem oir
m ay
ĠW onder
Ġcitizens hip
Ġur ged
Ġdemocr atic
ĠRel ations
a que
Ġdisapp oint
Ġninet eenth
ĠP ath
Ġch ains
ĠPres byter
ĠA ges
Ġmonitor ing
Ġf irms
Ġrom ance
ĠDur ham
Å Ľ
K ing
E m
im ity
Ġintellig ent
Ġcondem ned
art et
Ðµ Ð½
Ġcry st
Ġprec ip
ĠFer din
Ġlearn s
G e
Ġthe ology
Ġspread ing
Ġdest roying
ĠG ol
Ġch orus
Ġtruck s
ĠBos nia
enh agen
Ġless er
Ġb ark
ĠAm anda
Ġvol leyball
ĠSus sex
ot ing
Ġgovern ed
Ġaccident ally
ĠHol mes
Ġf rog
Ġw agon
Ġcompr ising
Ġcustom s
Ġdepos its
ag i
Ġover head
Ġc ens
Ġl ighter
Ġfl ick
Ġboard ing
S ch
P P
ĠE b
Ġcompens ation
C ar
ĠNot tingham
Ġr ises
. <
Ġstory line
ik ing
Ġang els
G reat
ĠC itiz
Ġtack les
Ã© d
ĠCub an
Ġpres um
at ics
ĠBrook s
ĠWest minster
ĠNapole on
ĠV iew
ĠBrad ley
ĠS H
Ġmet ab
ĠIs le
Ġmon arch
D F
Ġcent ered
ator ies
Ġbo ost
Ġconfer ences
osl ov
es ar
anc ers
ĠMar io
ĠH ass
ĠO ber
d ied
g ood
Ġint act
Ġref uses
Ġrespons ibilities
ĠV II
Ġsport ing
Ġch ances
ĠAndrew s
Ġneighbour hood
Ġas cend
ĠTri ple
Ġgr am
ĠR iley
bu ilding
e a
ĠCong o
Ġd il
Ġj er
Ġatt ribut
Ġcor poration
Ġlar vae
L E
ac hers
ĠC red
ĠPubl ishing
Ġst aged
Ġo ct
ĠBet ty
Ġcontroll ing
Ġal umin
ĠK arn
ĠM ead
th ouse
Ġbreat he
Ġembr ace
rib e
ag ne
ĠBr andon
Ġon wards
Ġman or
ĠArm strong
Ġm aj
Ġf art
ĠB ark
ple te
Ġnation ally
ĠRe id
ar u
Ġdemonstr ate
Ġastr onom
Ġgr aphic
Ġe ternal
ĠWood s
ĠA B
ĠMag gie
ĠV oice
Ġsl ide
ĠVol unte
Ġdiscuss ions
Ġ9 1
Ġby pass
fl u
Ġcon vey
el ong
Ġachie vements
- "
ĠPh ot
Ġped est
Ġdraw s
Ġagre es
ang ered
ĠB ros
Ġactiv ated
Ġder iv
Ġdim ensions
ĠL iv
ĠTo o
Ġheadquarter ed
arm ed
isc al
Ġcompet itors
Ġlight ly
Ġdi ocese
R ight
Ġ7 00
Ġpian ist
Ġc ricketer
Ġto b
ĠZh ang
ĠEx pedition
in h
Ġrub ber
ĠScot ia
ĠMot ors
W ith
ag ram
th ood
ĠL odge
Ġper ception
ĠSh ield
ĠDo es
ĠMil waukee
Ġac oustic
ĠSome one
ĠM ade
Ġ9 4
ĠW atch
ĠKenn eth
Ġvic inity
ĠPaul o
Ġlegend ary
Ġcorn ers
ĠC ort
g io
Ġam id
an or
Ġpast or
ĠNew port
Ġcons ensus
Ġprob ability
qu al
ash ire
ph is
Ġbom bs
ĠEll is
Ġalgorith m
ĠH ir
intend ent
ĠH IV
ĠC ai
ĠBu enos
ĠR aw
uss els
ur bed
Ġdyn amic
Ġbond s
Ġshe ets
ol ine
Ġmigr ation
op ol
ĠAr d
ett es
ĠLabor atory
om orph
Ġen vironments
Ġman ual
Ġib n
Ġupgr aded
ĠSerge ant
Ġresp ected
ĠR ush
it ative
ĠP ink
Ġkilomet res
ĠJohann es
il ion
Ġadop tion
Ġaccord ance
ĠWeek ly
it ively
is i
ist ence
Ġmathemat ical
ĠH arm
ĠD rew
p ose
ĠStep han
Ġanx iety
Ġfight s
Ġro ok
Ġcop yright
Ġbr ush
Ġopp osing
Ġc ouncill
ĠTr ack
ĠK end
Ġlux ury
2 50
Ġn avy
A D
Ġ185 4
Ġham mer
Ġn erve
ĠP iet
onna issance
sc reen
intend o
orient ed
Ġair field
Ġtwent ieth
ĠAl m
Ġtrib al
ĠS old
ĠN an
ob s
Ġest ates
Ġperform ers
Ġfrustr ation
M en
ĠSo x
Ġsc ales
ĠN g
ug ly
ĠSim pson
Ġsp ine
er als
Ġunder lying
ĠF ly
iff e
Ġl aser
T ell
Ġd ried
ĠSt age
Ġtrail er
Ġdrop s
à §
ĠCorn wall
Ġign or
ĠE is
spec ies
ĠCy pr
Ġtick ets
ĠS ource
ĠAlban ian
Ġman eu
Ġbacter ia
Ġadd s
Ġsal ary
Ġlibr aries
ĠIndian apolis
Ġst alk
Ġmission ary
ĠKing ston
hold er
ĠD ob
ingu ished
t ail
off s
Ġexc use
Ġjud icial
S ec
h al
Ġtorped o
ĠK em
ĠSer ie
Ġdev il
Ġs outheastern
ap a
ri um
ĠB il
b ian
Ġexpl oration
Ġreb el
L B
ĠRh ode
gr im
Ġmagn itude
Âłk g
ĠH ank
Ġsuppor ter
ĠArt ist
Ġ185 5
Ġdis l
ul ates
Ġcod ice
z ig
ĠBel arus
ĠAl most
it ory
Ġhor r
ĠH ait
im er
Ġresc ued
Ġcontr ary
iction ary
ĠC F
Ġcom ics
Ġal ley
ĠC ann
Ġmilit ia
Ġ8 3
Ġdis bel
ĠBened ict
ĠP ir
ĠLanc ashire
Ġsub mit
Ġmen u
ia z
Ġadvis or
ĠL ie
Ġl ou
ĠMichel le
et e
Ġre join
Ġsomet ime
ad ian
aj i
Ġep it
Ġsurf aces
Ġprox imity
ĠDav ies
Ġbi ography
Ġcomp ounds
á ¹
Ġgoal keeper
ou x
ĠN AT
Ġcon ceived
Ġconfig uration
ĠS ang
ĠE SP
I O
u ador
ver age
Ġwarm th
Ġc er
ress ing
ĠGu ards
l ies
ĠLyn n
Ġen cl
Ġsecret ly
ĠDev il
ĠGl ou
ĠS aw
ĠPak istani
Ġsm oking
off icial
ĠS weet
Ġmid night
sw orth
ĠBr on
ĠM ine
ĠTre vor
Ġb und
ĠSoph ie
ri ke
Ġmolec ules
ĠFilm s
Ġrend ered
ens en
am y
ĠL ance
Ġprosp ect
Ġup stairs
Ġing red
ĠS ite
n ell
Ġfle e
ĠT iger
Ġany body
Ġ" ...
occ up
S U
ant le
Ġdem ons
ter bury
ĠMan it
Ġsp ur
ĠF lying
Ġjoin s
he ro
Ġmod est
Ġinterview ed
Ġchalleng ing
Ġsuggest ion
n on
Ġcust ody
Ġcons umed
air y
ĠL ost
ok u
Ġcolon el
r ish
pr ises
Ġleg acy
H er
am as
Ġexp elled
st eps
ĠForm ation
b oth
Ġcreat or
Ġdoctor ate
idel ines
ĠC IA
ol ith
ic us
Ġevery day
Ġpar as
Ġslow ed
Ġdim ension
ĠRo vers
Ġf ol
ĠP orts
it ating
Ġaff ection
Ġfl ies
uck ing
ĠM old
ĠH annah
Ġde er
ath i
Ġun ions
ros cop
g as
Ġrain fall
id ays
Ġforg ive
ĠCard inals
Ġfaith ful
ĠWh ich
ĠBa iley
Ġr ic
c ap
u ition
ri pp
Ġd ancer
ĠLes lie
Ġopin ions
N G
ol ics
ĠB ears
Ġcl iff
ili ary
Ġforg ot
Ġimprison ment
ĠCurt is
Ġline up
Ġancest ors
Ġg ig
Ġvar ieties
Ġb unch
ĠB ri
ĠD j
iffer ent
Ġd ign
ĠOut standing
Ġrep airs
ij a
Ġdecre ased
und a
-+-+ -+-+
ĠPerform ance
Ġg arn
Ġspec ified
ett i
Ġl aps
Ġ185 8
Ġsequ ences
ak u
Ġpract ically
Ġcomp act
ĠH aven
Ġremark ed
Ġdem anding
Ġmur m
Ġres olved
inn y
in is
Ġcig arette
ĠRabb i
Ġwick ets
ro le
20 16
found er
Ġhar ass
Ġmer cy
Ġmin im
is ely
Ġun ited
ic les
Ġsc out
ĠH od
ĠGene va
g ement
s outh
ĠCop enhagen
Ġb its
ar in
Ġbu zz
Ġpress ing
Ġtact ics
ĠG az
Ġpron ounced
op y
Ġbi ology
ĠRod rig
am ation
Ġch ase
ĠAndre a
Ġcalc ulated
Ù Ī
Ġvari ants
Ġreg istration
th an
d an
ĠL GBT
ĠCal vin
Ġrow s
ight y
Ġest imate
Ġleg ally
ĠHar per
c al
Ġr anch
w ill
Ġan ime
fic ial
S ur
ĠP ly
ĠHigh land
Ġmechan isms
ĠR anch
qu est
Ġt il
Ġb ust
Ġlight ning
ĠGrand e
Ġnort heastern
st ock
ĠRem ember
R L
Ġspect rum
Ġrot ation
Ġless on
ur as
ĠGiov anni
E F
Ġprem ier
E ast
ĠK ra
Ġuncle ar
miss ions
Ġ185 6
Ġmanufact ure
Ã ¯
ĠV il
Ġfr uits
ĠCzech oslov
ĠG em
Ġhost ing
] .
Ġt un
Ġcompl ained
ĠB A
ĠCa uc
Ġsup ern
Ġref use
f in
Ġle ase
Ġtestim ony
Ï ģ
ĠD ana
he ng
Ġplan es
ass y
Ġfe ver
ĠâĢ Ļ
Ġh alt
Ġc ere
Ġprom ises
Ġp ump
Ġlist ing
Ġtob acco
Ġcr imin
Ġcritic ised
he art
ie u
Ġem bed
Ġrob ot
Ġconv oy
Ġdec ent
Ġden y
Ġc ared
Ġch ocolate
ed o
Ġv ine
Ġv ector
C ap
Ġsl opes
Ø ¯
Ġmurd ers
Ġworksh ops
Ġvac ant
ĠContin ental
M al
J une
ac ional
qu in
Ä Ļ
Ġhands ome
ĠEst ate
h s
ĠW orth
un al
ĠDr ama
ĠM ake
Ġconsist ently
r ise
ĠB elf
Ġsl ope
ĠCle ar
it ches
ĠC ord
Ġlay out
n ai
ĠEc uador
ĠBr ussels
Ġinstruct or
ah u
Ġsepar ately
Ġs ulf
ak y
Ġloc als
L ife
Ġvo iced
at em
ĠAll an
199 9
ĠId aho
Ġstrateg ies
Ġinnov ative
Ġjournal ism
Ġpath s
anth a
ĠEug ene
ĠRichard son
Ġterrit orial
Ð ¹
Ġb ind
ĠP on
oy le
Ġcon sole
ĠX V
Ġz omb
ĠA A
Ġundert aken
H F
n av
ĠEm my
Ġn aming
Ġver te
im eter
ĠFerdin and
Ġport al
Ġh over
Ġtrust ed
Ġsub urbs
Ġgreet ed
al id
ap or
he ars
ĠCypr us
ighth ouse
Ġsend s
Ġexpl ored
Ġz ones
ĠSc ript
anc ement
Ġsqueez ed
el in
Ġex claimed
F l
Ġal right
Ġdiv ide
ĠN as
Ù ħ
Ġal ert
Ġa in
b ase
Ġdet erior
Ù ĩ
Eng lish
Ġstr ings
Ġd ull
Ġgr ateful
Ġrad i
ĠD iana
ĠSub sequently
ĠDes ert
ĠBaron et
Ġdevelop er
P M
Ġdis abled
F amily
stan bul
ios ity
Ġprom ising
ĠF ay
Ġl ib
oc ene
Ġbl onde
er i
Ġbr ig
ĠA str
ĠPrincip al
Ġpro claimed
Ġtheore tical
Ġint end
ĠTrans it
Ġlung s
nold s
Ġdirect ing
ĠInd eed
ĠPrinc eton
Ġmin eral
ucle ar
as per
Ġan ten
che wan
Ġdevelop ers
Ġcheck ing
ĠH ull
Ġright eous
Ġsacr ific
ĠSand y
. *
Ġpop ulated
es ters
Ġmark ing
Ġlect urer
Ġinvestig ated
Ġlast ing
ĠZ imb
ĠArt ists
Ġ185 1
enn a
Ġpropos als
Ġhum id
Ġmotorcy cle
Ġad mir
Ġinv isible
ĠL ic
ä ¸
Ġver b
Ġfulf ill
p ack
ĠGl ass
ĠUr ugu
Ġintegr al
Ġhor rible
Ġgast ropod
Ġmeas uring
Ġpre val
ĠT rip
Ġar row
Ġhom eless
ĠN intendo
ab we
Ġcar pet
Ġwelcom ed
Ġaer ial
enn ium
on ne
ĠV iv
b est
Ġtre mb
Ġs inc
Ġcour ty
ĠEd gar
D R
in ely
al ions
as is
Ġbus h
any on
Ġdet ected
ĠW H
Ã ī
ĠSch w
ĠAg re
Ġdoll ar
Ġassass ination
ĠAgain st
Ġwithdraw al
Ġrun way
ch ron
ust ers
i ott
ber to
Ġhost ile
Ġst abil
Ġloyal ty
oph one
Ġcontinu ously
rod e
am ine
oun s
Ġor ch
Ġrev ived
re v
ps y
Ġv est
ĠHend erson
Ġconsid ers
Ġc ov
ĠP orter
h arm
art z
ĠNe ither
Ġaccept ing
Ġreb ounds
pl ane
ĠMoroc co
Ġfood s
ĠS ep
Ġb itch
ri o
old s
ĠMil ton
Ġens emble
ĠPow ell
anc a
prod uced
Ġteam mate
ĠAdv anced
Ġgenu ine
Ġs her
ĠUg anda
ang s
ĠPe ak
Ġc aut
sh ine
ĠJo el
Ġpray ers
ĠR ib
ĠBrad ford
ĠG ren
Ġhar vest
Ġwild life
ĠE t
J uly
ĠPresbyter ian
ĠTh ir
Ġhur ricane
ĠV a
Ġvol t
Ġprec ise
st orm
ĠGib son
ĠKaz akh
Ġn an
U SA
ell ar
Ġ icon
ĠApoll o
ĠM ing
ou b
Ġp ause
Ġhom osexual
ard i
ĠCard iff
B ook
ĠCan terbury
N othing
ĠD iane
ĠNe g
Ġhorizont al
Ġsp ray
Ġhe ct
Ġ ion
ĠC avalry
Le ague
Ġam ph
N S
Ġse aled
Ġab bre
ĠPr ison
Ġpar ade
ĠWild life
Ġworld s
Ġdo zens
Ġextra ordinary
Ġac claimed
act ions
ĠD awn
ĠWh atever
y on
ĠConstant in
ĠAdvis ory
ĠX I
Ġsec rets
ĠNo ah
A pril
Ġdis hes
oy a
Ġconqu est
Ġreconstr uction
ĠPl us
ĠK urd
Ġabrupt ly
o que
Ġlack ed
ĠScient ific
Ġfl ame
Ġh ub
ĠSh op
Ġair ing
ĠSant iago
ĠWes ley
ĠFer gus
ĠK w
ĠStud y
uk h
Ġl amp
Ġpres ervation
br is
enc ia
ĠA F
Ġbass ist
uch y
go vernment
Ġcompan ions
Ġsurrend ered
t echn
b ad
Ġconv iction
Ġcontact s
ĠLore n
Ġexpect ations
Ġrel iable
se at
can ic
Ġcatch ing
ĠD w
B rit
ĠC rist
land o
in as
ish i
ĠMar co
Ġhel met
ĠTim othy
ĠS M
ĠAng els
Ġcl uster
Ġd ors
ubl ished
Ġerr ors
ĠPl ate
ĠB ren
ĠConn or
Ġind irect
ĠMc Donald
ĠIn g
ĠHind i
ĠLithuan ia
Ġne ur
ĠSaskat chewan
Ġconspir acy
N ational
Ġsp ear
he y
ĠCl if
Ġill umin
Ġtr ump
Ġprem ises
Ġre per
d aughter
ĠSac r
ĠT ampa
Ġqual ities
Ä ĩ
ĠGu ang
Ð ¿
oc ate
lect ion
ĠFern ando
Ġex empt
ĠMalt a
ĠSalv ador
ĠG ael
Ġac claim
Ġment ally
sh irt
ĠL ocated
Ġsun light
ical s
ay ed
~ ~
ĠR ab
Ġsp y
Ġrock y
ĠC M
ph ant
Ġsens ation
Ġmatch ing
ig ue
as ma
ĠH es
Ġent ries
Ġconcentr ate
Ġmet re
Ġout fit
ĠV iol
ĠTr in
Ġaut o
Ġobs erve
Ġc ater
Ġch lor
uff led
Ġle nd
Ġcha os
c u
Ġre ly
enn e
ĠTh r
ĠPro per
D E
Ġview ing
Ġcur ved
velop ed
l ook
cons cious
ĠW ool
en i
ĠP M
Ġin clusion
ĠL ords
Ġenh anced
Ġmon ks
h ouses
s ome
Ġsub tle
ĠDomin ican
A f
ĠPo et
Ġsurround ings
is ive
Ġat op
Ġh ips
Ã¤ r
Oct ober
Ġinter rog
ĠM obile
T ake
onom ic
ĠPal m
Ġpull s
Ġrival ry
Ġfre ed
ort al
av o
I ON
g irl
ĠC ond
Ġex pense
u um
Ġbox ing
Ï Ĥ
ĠE van
Ġres olve
Ġworksh op
C al
Ġpay ments
ĠV eter
ĠCh in
Ġmet all
Ġestim ates
Ġp owder
Ġteen ager
ĠE k
Ġdesper ately
CA R
aw i
Ġtack le
b in
ĠAnn ual
ĠKum ar
ĠEv angel
Ġgest ure
ĠOut side
Ġsur pass
Ġf et
os ity
ĠBl oom
Ġlay ing
Ġcho osing
ĠSaf ety
ĠEngine ers
Ġsh aft
ĠCompet ition
S at
ĠC ly
S eptember
Ġd are
g ary
Ġport raits
ĠInd ivid
ut a
Ġh aun
Ġdiam ond
Ġlaw yers
ĠCamp us
Ġhabit ats
Ġfavor able
ĠBas in
a uthor
ĠAsh ley
Ġfin ale
C H
F irst
s ay
Ġdisg ust
ĠSt ore
Ġsee ks
Ġrul ers
Ġprim itive
ĠI z
ĠLuther an
Ġut ility
Ġdiscuss ing
ĠSur rey
d ia
ĠMach ine
Ġprevent ing
im an
ĠCase y
-- -
Ġperform s
Ġal gebra
Ġlim estone
ĠMar ian
ĠC ave
ĠPark s
form ed
ĠG Ã¶
O s
ak k
Ġtre asure
ĠK in
ar se
Ġcry pt
Ġfl ashed
Ġbatter ies
gr ad
Ġb rows
p owered
Ġorient ation
s er
Ġinv aded
ĠBas il
ĠHur ricane
man uel
Ġpregn ancy
Ġexc iting
ion ed
ĠP ine
ĠRe x
Ġjew el
Ġsp here
et ary
Ġant ib
in ate
ĠI v
( "
av id
ĠCath olics
Ġc ement
ĠT aking
ĠAm endment
ad h
am n
Ġcount s
Ġhero es
app a
Ġ185 2
B rien
Ġcommand s
Ġafter math
iment al
ĠS E
ĠMer ced
Ġsouth western
ĠM is
ch ant
Ġr ider
Ġstr ang
ĠZimb abwe
ĠWin ston
n ie
ĠF ighter
Ġavo iding
Ġelimin ate
Ġto oth
ent ric
ĠAngel a
Ġpriv acy
Ġaver aged
ĠBeh ind
ĠG ul
r ange
ĠI BM
L ike
az ar
> </
ĠRe ich
Ġreal izes
le en
Ġmos que
Ġadv ancing
A nt
Ġhypothes is
Ġrelig ions
Ġsusp icious
Ġmist aken
uff ed
Ġep ic
ĠSm ashwords
ĠRey nolds
od or
A ct
Ġ à¦
Ġpen insula
Ġtw ins
Ġhalf way
Ġprohib ited
Ġfound ations
Ġc hess
Ġsh apes
ĠLux emb
ĠÅ ģ
ĠB anks
Ġcor on
Ġdep icting
all i
D I
ic z
f iction
ĠB rent
ast ics
Ġ13 0
Ġh ugged
Ġm ouse
ĠGl enn
ord e
ĠMem phis
ĠHer ald
S an
or rect
Ġb reeze
Ġalph abet
ĠQu inn
ĠRepublic ans
Ġfre estyle
ĠI g
ĠArmen ia
Ġess ence
Ġm arsh
ĠM oss
ĠNot re
Ġrespons es
Ġsub urban
rest rial
abil itation
Ġachie ving
Ġtheore m
Ġup wards
ĠDist inguished
R ock
Ġdes ires
Ġpolit ically
ĠMan or
Ġdark er
ĠBl u
Ġfac ade
Ġl ing
ur ities
ĠG iven
Ġrec k
ĠCont est
c ock
ĠS isters
if ax
Ġlect ure
ĠA L
Ġbr ands
Ġtrad em
Ġteach ings
ist ocr
Ġtax i
d orf
o op
ĠC u
H i
ĠC anyon
Ġcoll ar
ĠD ow
m al
ĠCamb od
Ġun ity
Ġrenov ated
Ġcott age
Äģ n
ar ians
ĠPr act
ab ling
child ren
ed uc
ĠPro f
Ġgl ared
Ġbound ed
pe ople
Ġtrans p
ĠAb original
ĠGriff in
Ġphilosop her
aged y
ĠCr us
Ġce ase
Dec ember
Ġpromot ional
ĠAn at
Ġhar bour
ĠO S
ĠTr ain
Ġsh ade
Ġd iving
Ġhot els
ĠSh ore
in stein
Ġarchitect s
h urst
Ġproceed ings
Ġmanuscript s
ĠD und
le z
ĠJack ie
Ġneighb ors
Ġtr ails
Ġ185 3
Ġhoriz on
ĠR up
ĠAct or
Ġmembr ane
ĠW ake
ĠBarn es
Ġintent ions
ric a
ĠR ather
Ġhur ry
ĠL uck
Ġcontin ental
ĠPly mouth
ĠMc N
Ġcontin ent
Ġhe ated
Ġde pr
ĠB ever
Ġsp inning
song writer
P res
O ut
Ġsil ly
ĠBur ton
Ġbankrupt cy
ĠWar wick
Ġsmall est
Ġdeliber ately
che ster
al gam
Ġflag ship
ĠLegisl ature
ĠPl aza
ĠZ en
ĠU nd
Ġdeterm ination
Ġtr aced
Ġm es
ĠV ale
lin ary
ĠM ale
Ġp iss
ĠEd itor
Ġorgan ize
Ġep id
Ġs ins
let te
Ġpres idency
Ġent ities
Ġexerc ises
ĠDiv ine
Ġsurve illance
ĠAlexand ria
Ġball ot
g age
Ġall ocated
Ġaccur acy
ĠOs lo
ĠSab ha
Ġlength s
Ġle an
ĠY a
Ġv inyl
Ġenter prise
h uman
ĠBC E
ĠJo ey
ux iliary
I reland
Ġrenov ation
Ġbur den
est ock
Ġg rief
oun ge
ĠDyn asty
ĠD oll
any a
m el
and ro
199 8
ĠAlban ia
ĠBright on
merc ially
cy cl
Ġb ored
ke es
Ġfacil itate
Ġtw e
Ġpreced ing
Ġcur se
19 70
Ġsuperv ision
g ae
Ġd ri
ad os
ĠC os
ĠX X
Ġsett ling
ĠJan et
Ġad mission
ĠV ick
r h
Ġemb arked
Ġinvestig ations
ĠCl ara
Ġte lev
kin son
ĠFin als
Ġt ales
agon al
Ġox id
Ġt rophy
C ent
ĠPhilosop hy
Ġproject ed
Ġinter im
Ġ Ø§
ĠBel grade
Ġd amp
Î µ
Ġst ance
Ġsevent een
Ġw ives
Ġpropag anda
Â Ń
Ġdiagn osed
uff y
ĠMar ion
as ium
ĠWind sor
Ġreflect s
Ġnurs ing
Ġf ut
Ġtorn ado
ĠF eder
ĠFif th
Ġso b
Ġvel ocity
ĠManit oba
Ġeyeb rows
Ġexch anged
er ic
ĠRo x
Ġun aware
ĠRich ards
Ġj am
s pring
ĠMc D
Ġs izes
ĠTr avel
se nd
ĠD um
ĠLe vel
Ġcar n
Ġbr u
Ġabstr act
ĠNot es
ĠFound ed
1 50
Ġinvest ed
R uss
Ġc rowned
rit ion
ĠNAT O
Ġrect angular
ĠGu j
Ġin land
Ġdisc ipl
m ember
y ards
Ġexhib its
pl ess
Ġport fol
B y
Ġnorth western
ĠHug o
Ġ15 00
Ġpost hum
Ġf ond
Ġdisp os
ĠSpe aker
Ġcost ume
ĠWork ing
Ġst yl
Ġbr ass
Ġab ortion
199 7
Ġ184 9
L os
rit ic
ĠC ert
Ġst raw
Ġtr aces
Ġexam ine
Ġhe ter
Ġreleg ation
hem atic
Ġinf ant
ĠM um
Ġfrag ments
ĠG ir
Ġsett ings
Ġm asters
Ġlif ting
Ġstr ain
b one
Ġphot ograp
Ġgr asp
ĠCom edy
ili ation
Ġstrict ly
ĠCat al
on gh
aff e
ĠM echan
Âł ft
al us
ĠMon th
ĠMon roe
ĠSh ane
Ġd up
ĠEm il
Ġencour aging
Ġagre ements
Ġcert ificate
Ġris ks
Ã¡ r
Ġprot agonist
c ard
ĠT ow
Ġille g
co very
Ġtr igg
Ġlab els
Ġaccompany ing
r ant
o an
ad al
ĠT ul
ĠO wn
erv atory
Ġcompl aints
ist on
yl on
ĠD iet
Ġw ool
ack er
ĠD ew
ĠV ij
Ġc ats
Ġcompr ised
Ġfin est
Ġ184 7
uch i
ĠCh ancellor
w ait
ĠComple x
ĠDirect ors
Ġpresent ing
Ġdemonstr ation
ĠHe at
ĠB end
in um
m ons
Ġmat ched
ĠAct ress
Ġsn ail
Ġplan ets
Ġble eding
Jan uary
Ġconsum ers
ĠAddition al
ĠAr senal
ist ically
B N
H is
iz za
Ġp ir
ĠÐ ¿
ĠCrit ics
Ġkiss ing
Ġrecur ring
Ġimport ed
ĠAg ent
p ri
ĠBel le
Ġo ri
Ġdig it
Ġs or
ĠÃ ĸ
ud ge
m its
ĠI F
an ium
Ġsl ot
Ġproceed s
ĠESP N
Ġdif f
Ġmiss iles
ĠEp iscopal
Nov ember
e astern
Ġlo ans
Ġworth y
Ġaut onomous
ĠRoberts on
Ġopt ical
Ġartif acts
Ġrecept or
Ġintrod ucing
ar am
ĠG at
Ġcourty ard
ay ing
sm ith
ĠRes ources
ĠKat ie
Ġcountry side
ĠPar am
Ġmerch ants
Ġcorrect ly
h as
ĠCap itol
Ġware house
Ġsh y
Ġprof ound
Ġs aint
Ġl ion
ĠR T
Ġ ?
Ġtr ait
Ġprotect ive
Ġexpl oded
ĠArch ae
ĠR id
am bo
Ġdece ased
v ens
ĠQ ing
ĠCoal ition
Ġinter f
mark et
ĠFr aser
S uper
ĠMont ene
e ur
en ary
Ġbr ushed
yl um
Ġbow ed
Ġbur nt
Ġl ane
ar ium
Ġscreen play
Ñģ ÑĤ
ĠK ane
l ied
ĠR A
Ġh ollow
ĠB alk
Ġmanag ers
l ace
ĠW A
ĠM oney
ri ans
b ably
Ġst ained
Ġdis k
Ġinf inite
ĠCar roll
Ġguarant ee
ĠLe op
N orth
Ġtrack ing
ĠHop kins
E G
Ġax is
A fter
Ġentreprene ur
Ġd ome
ĠF olk
d ad
Ġst umbled
ĠMerc ury
be it
mont on
Ġnickn amed
ĠP or
Ġt ens
Ġde bris
ace ut
ĠM olly
ĠGu atem
Ġback s
ĠCal gary
be ing
Ġdiffer ently
Ġsur geon
ĠChar ter
i ad
Ġman ga
ĠH ern
ĠStaff ord
ĠHar bour
Ġbot an
Ġdeleg ation
Ġhes itated
Ġcap ability
Ġaccept able
ĠT ennis
on al
ec hes
Ġfl own
arent ly
res hold
ĠB ody
ĠG P
ĠCo hen
W ait
Ġcrew s
ĠA FL
ah r
Ġsl iding
H ist
Ġins ult
Ġsuccess ive
Ġodd s
ll a
Ġbless ed
H C
Ġbl inked
igg s
ond o
Ġveter ans
Ġstri pped
Ġrecre ational
Ġs ab
Ġobject ives
Ġreal izing
Ġsy ll
Ġrequ ests
ĠMax im
ĠEd win
ĠHe ather
Ġres on
ab bed
Ġe go
Ġteen age
Ġalt ogether
ĠParliament ary
ĠE aster
Ġout s
Ġen gr
Ġsustain able
Ġspons or
ĠL enn
ĠR NA
ord ination
Ġcontract ed
Âł M
Ġser ver
ĠBurn s
Ġse as
ĠPresident ial
Ġsculpt ures
Ġham let
Ġh int
Ġc age
ĠColon ial
ĠD S
ĠFilip ino
Ġadministr ator
us ive
Ġconqu ered
ĠMorr ison
ĠD ud
Ġdep icts
rell a
h tt
ĠS ue
ĠSp art
ĠR andy
ĠUS SR
Ġp orn
Ġp enn
ĠS ister
Ġbo om
Ġemigr ated
Ġsw ear
Ġorg ans
Ġsupposed ly
Ġfact ion
c in
ĠHel ena
Ġresear cher
Ġsk illed
gu ard
raf ted
Ġto y
A g
ig ion
ĠA br
et ics
Ġhtt ps
Ġenroll ment
ĠPhys ics
Ġc her
Ġflood ed
Ġstrong est
hem es
Ġaud ition
Ġabbre v
Ġmist akes
Ġcomm ittees
Ġsocial ist
al though
Ġcivil ization
ĠTy p
Ġenthus i
x i
ut o
ĠHal ifax
uff icient
ĠBed ford
ĠRos a
Ġcompass ion
us a
Ġsoph istic
ĠE z
ĠG ur
g iving
Ġtoile t
ĠPl anning
Ġbre asts
T wo
N T
Ġh id
Ġshell s
Ġper former
Ġsub ordin
Ġstep ping
Ġcompos ers
Ġsculpt or
Ġlog ical
ile e
Ġ184 6
Ġharm ony
Ġint rig
Ġvac ation
ĠLanc aster
Ġknock ing
Ġdeclar ation
ĠNap les
Ġru ined
Ñ Ī
Ġunder go
ik er
d or
all a
Ġinf ected
Ġar istocr
h ot
Ġtherm al
lit er
ĠN adu
Ġ umb
Ġstream ing
Ġgran ite
Ġdead ly
ĠInter ior
% ).
ĠGl obe
Ġviol ation
U T
Ġgener a
Ġp ic
ĠAgre ement
b en
it ations
Ġshar ply
ĠHead quarters
Euro pe
Ġobtain ing
ĠKenn y
Ġclos et
Ġmot if
20 17
7 00
ĠOr lando
Ġste ering
Ġ ugly
Ã© m
Ġteac hes
Ġbutter fly
Ġst all
Ġinnov ation
Ġwhe at
ĠJul ius
ĠT anz
orm an
ĠMe h
M iss
Ġadj usted
Ġinaug urated
ĠThe odore
atern ity
Ġspeed s
Ġpul se
oc ial
Ñ ĩ
eng u
at ri
Q ue
ĠCle ment
Ġreg ained
ĠBuddh ism
ĠC T
ĠPat ric
ĠE g
Ġcare ers
Ġpoll ution
Ġpract ition
Ġen closed
r imin
Ġdepth s
th y
Ġquestion ing
Ġeval uation
ĠLear ning
ĠAlb any
an ian
Ġshort s
Ġorgan isms
com es
Ġequ ality
Ġstrugg les
cript ions
ĠN ed
Ġend e
Ġdec ree
O ld
he e
i ots
Ġphil osophical
Ġ18 12
umber ed
Ġveget ables
Ġb ug
ĠShe n
ĠN ixon
Ġra ids
Ġup r
ĠBer k
r ice
ĠFrank furt
C E
Ġcru ise
ar ity
ol ving
ĠExam ples
irc raft
Ġmuseum s
Ġmater nal
Ġhall s
ĠWarri ors
Ġback up
ak ov
Ġm ourn
Ġstat ues
ĠLy on
ĠÐ º
ias m
ĠSh ould
is ure
ĠS O
Ġfoot steps
ĠEx cell
Ġunve iled
Ġjoint ly
G S
Ġm ath
ĠT yr
Ġmach inery
Ġfact ories
Ġbreat hed
ĠF actory
ĠMo hammad
w ald
ip ur
Ġathlet ics
w y
ĠVar ious
Ġtub es
ĠI stanbul
iers hip
Ġsa x
" ".
est ablished
Ġas c
ĠC B
Ġvill agers
ĠSt op
ĠBo eing
pent er
ĠU A
l ink
ĠB j
se en
Ġfier ce
Ġecho ed
Ġc ake
ĠTh ink
Ġst ew
Ġinter ference
Ġph on
ĠBro ck
ĠAnd ers
ĠDep ression
ĠH ood
ĠCh o
ĠS it
a a
ĠMar l
S omet
ĠH off
Ġhighlight ed
m ile
ir ie
ĠM ail
itor ium
Ġhun ger
as ped
Ġexp enses
Ġth under
ĠAssoci ate
ĠRh ine
ĠSpring field
Ġt ips
ĠMus ical
Ġb ishops
Ġsub species
Ġcerem onies
ĠCh al
ĠB ec
Ġ12 5
ĠRe ver
ĠG M
Ġsh oved
Ġamb ul
ĠSlov enia
Ġstat istical
Ġment or
H ung
Ar t
Ġcr acked
ĠS U
Ġadv ocated
Ġgame play
spec ific
Ð° ÑĢ
Ġr ipped
ĠH els
Ġbl amed
ĠT ask
ĠL ah
ĠWrit ers
ĠPre fecture
cles iast
Ġmass acre
s chool
ĠPorts mouth
ĠO K
her ic
epend ent
ĠSem inary
ĠSp ider
stad t
Ġtend ed
l ooking
Ġse ating
osy stem
Ġt atto
ĠCor p
ĠK atherine
Ã °
Ġpur se
ĠOrigin al
Ġg am
Ġprec isely
Ġge ographical
Ġincred ible
ĠStef an
ĠV III
Ġd umb
Ġanticip ated
Ġd warf
ĠE ye
ĠSh aron
ĠAcc ount
ĠEv a
Ġla wn
Ġrecommend ations
Ġass ert
Ġp y
Ġfl ipped
Ġne at
Ġover th
Ġsub family
Ġrap per
or ters
Ġp m
Ġtrans mitted
own er
Ġcom mercially
Ġhat red
Ġl ens
Ġs el
Ġdon ations
C r
Ġsect ors
ĠN SW
---- ----
Ġdisappoint ment
ĠCla ude
à¤ ¾
Ġsynthes is
ĠCh ange
Ġwid ened
ĠB agh
ĠL omb
ĠSt anding
Ġcelebr ity
ĠCraw ford
Ġg ospel
Ġend angered
Ġbre w
S l
Ġnav igation
ĠRe agan
Ġd ent
ex pl
Ġcr ushed
Ġspec imen
P al
l ance
ĠEd monton
Ġlack ing
ĠAmeric as
Ġancest ry
Ġdiscip les
Ġh ob
Ġed iting
ĠNic ol
ĠChurch ill
Ġphil anthrop
ĠPruss ia
g ard
ĠS ent
Ġtunn els
uct s
z hou
Ġreflect ing
Ġgen res
ĠRock y
Ġsp elled
Ġgl owing
ĠS ap
Ġaccommod ation
ĠSchol ars
ĠH il
N E
Ġdep ot
ĠBur ke
Ġed itors
Ġposition ed
Ġl od
s ign
Ġt ense
ĠBelf ast
Ġhold er
Ġp el
Ġess ays
Ġw icked
Ġrev olt
N P
ig i
Ġsw ords
mit t
Ġnovel ist
ull en
ĠWag ner
ĠN u
ĠEll iott
Ġpar ad
ĠT O
ĠK ang
Ġor th
Ġins ight
sh a
) )
ĠV id
Ġh ab
Ġall ied
R NA
ĠAc cess
Ġb unk
Ġsw orn
and in
Ġsalv ation
oty pes
Ġunsuccess fully
Ġaccount ing
Ġlad der
Ġ18 20
Ġorche str
ĠCinem a
ĠMay a
Ġpro c
Ġ184 5
ass is
ore sc
ĠOl ivia
up t
Ġbas ically
Ġj ack
Ġus eless
L ittle
Ġprof its
ĠM ist
199 5
Ġwarr ant
ĠH ab
Ġvari ables
ĠMidd les
Ġcontact ed
Ġmoment um
Ï ĥ
Ġp ension
ĠInd ex
c ery
Ġreun ited
Ġdec iding
Ġpartic le
Ġapart ments
Ġcolle ague
ĠS aid
Ġrein forced
io x
Ġmon key
ĠHay es
ale b
the l
ĠBey ond
ĠH ors
c ussion
is or
ow l
ĠC ustom
ĠB ib
ĠM E
ĠRoc hester
Ġappl ies
eli hood
Ġstair case
Ġbat ted
ĠBl air
Ġrook ie
Ġdr ifted
ĠAt hen
Ġpersu aded
Ġsatisf action
ĠY ah
Ġs way
ĠFell owship
D own
ar ound
Ġfl av
o qu
A c
Ã Ĺ
Ġsemif inals
ol an
ĠDet ective
Ð¾Ð ²
Ġexpert ise
ĠÐ ±
Ġbicy cle
w id
ĠK ad
ĠCor inth
is ode
ĠArchitect ure
n ormal
Ġd ancers
Ġdeleg ates
iv o
Ġdr iv
ĠHun ting
Ġ14 0
ĠL ip
ĠStr ong
Ġnav ig
ĠEd en
Ġinsp ection
199 6
Ġimm une
Ġtr act
Ġ10 5
OR D
Ġo ath
ĠHer o
Ġvan ished
Ġs orts
Ġdes erve
S al
ĠFranÃ§ ois
Ġsound ing
Ġmob il
Ġmet er
Ġdis orders
Ġpurs uing
Ġbott les
p resent
Ġdeploy ment
Ġadv ances
ĠX avier
Ġap ost
ze gov
Ġauth ored
Ġl anes
ĠSof ia
im son
pl us
ĠP om
Ġlegit imate
Ġsu ite
âĢ¦ .
amb a
Ġr iot
ĠK iss
elf th
Ġo w
Ġsanct uary
Ġfl ank
ĠAm b
yram id
Ġple aded
Ġuniform s
Ġadvent ures
if iers
m ain
Ġru in
ĠPro gressive
Ġins ect
ĠH ann
ĠB ast
Ġf iber
Ġiniti atives
S D
Ġl ig
oin ting
Ġfe ast
) ",
ĠNob el
Ġcontest ants
ang o
P G
Ġlong time
Ġdr ank
at hetic
ĠWill ie
en heim
Ġgr at
Ġur ge
st ep
Ġemploy er
ĠLiber ation
Ġfr ames
u ana
Ġth ou
Ġpreced ed
ĠInsp ector
Ġscre ens
ĠP ere
ĠAber de
ĠP Ã©
ĠT rou
nd ez
ĠP all
oc hem
Ġhe els
Ġnever theless
atern al
Ġpo ets
Ġnew er
ĠJeff rey
ĠMerced es
Ġcons ort
sp ace
ham med
ĠKn ox
M et
ĠE rik
Ġst ole
Ġpe as
um en
at al
Ġg ym
C omm
ĠF ur
ap est
ĠF o
ĠR iv
-- -+
Ġ3 60
Ġlim bs
ĠCl oud
D es
Ġ3 50
D ay
Ġbr ide
Ġund ers
Ġmechan ics
ĠLuxemb ourg
ĠU tt
ĠT ina
ĠV ish
uk u
Ġout lets
á Ģ
ĠBudd ha
ad ic
Ġcomplex ity
ĠPhill ip
Ġgro aned
ĠC ool
Ġir rig
che m
F rom
Ġspons orship
Ġo re
ĠEston ia
M a
iform es
Ġtim ing
Ġremn ants
Ġh ast
Ġbless ing
Ġgradu ates
Ġg orge
Ġneighborhood s
oca ust
ĠDay ton
om as
Ġtal ented
ĠC hess
Ġenh ance
Ġfright ened
Ġnarrow ly
Ġvac c
Ġres ides
ĠWy oming
ĠP omer
al bum
f ig
Ġprot ocol
Ġmother s
Ġbord ered
ĠDor othy
og o
Ã¸ r
uff s
ĠO st
Ġdisp uted
em pl
per ed
Ġtend ency
b eck
Ġr am
Ġend less
ĠB ene
Ġcann on
Ġaw aken
Ġsuspic ion
Ġrefere e
Ġeng aging
ĠYan kees
i w
Ġbelie vers
ĠBor is
Ġbal let
ĠD ipl
ĠK ann
Ġflower ing
ĠT ucker
Ġstead ily
Ġorgan izing
i em
Ġsu its
s u
ĠKrish na
ĠMaced onia
ĠCarl o
ing le
Ġmyth ology
ĠW is
Ġbel oved
ed e
Ġsoon er
Ġal ly
ĠAm ber
Ġt ab
ir ical
Ġupd ate
Ġreg ards
Ġsl aughter
Ġmid st
at isf
Ġinvestig ating
Ġinv ention
ĠMon ica
Ġfart her
Ġvol cano
ĠMov ie
Ġstun ned
ĠMar in
ã ĥ
Ġsm ugg
Ġfail s
c ia
ĠBel ow
ĠA FC
h h
S w
ĠDr um
Ġaw ful
Ġcrit ically
im i
ad io
Fe bruary
ĠR az
Ġg ly
ĠA G
Ġread ily
Ġcur iosity
ĠF ear
ĠBalt ic
av ity
Ġh atch
ĠAr ctic
ĠAr ist
Ġtro op
u ity
Ġnational ist
Ġinqu iry
ĠÂ «
Ġt onn
Ġshout ing
Ġblock ing
in qu
ĠL ut
ĠSouth west
ĠBill board
mod ern
Ġs od
Ġvis itor
s qu
ĠCom mercial
ĠO kay
ĠFel ix
Ġaddress es
Ġs inking
ĠStr at
P lay
Ġautom obile
ĠHaw k
Ġvirt ue
Ġvol canic
ĠSuper ior
mus ic
Ġmission aries
ĠDou ble
ĠC ay
Ġanx ious
Ġinst ances
Ġsn ap
ĠMet al
Ġpun ish
Ġdef ines
ĠEle anor
Ġposs ibilities
Ġde af
ĠS ed
Ġpromin ence
il ateral
ĠAgricult ural
Ġwebs ites
Ġ183 7
om al
Ġcoordin ates
Ġprot ested
Ġprog ressed
Ġcruis er
Ġattribut es
ĠC ros
Ġmass es
S y
Ph il
Ġavail ability
Ġcateg or
ud er
ter min
Ġtox ic
Ġhealth care
ĠNiger ian
Ġal ike
im on
d ec
Ġsp elling
ĠMar ÃŃa
Ġfrustr ated
Ġcl ue
Ġth reshold
ĠW C
Ġquant ity
Ġprov ider
Ġintegr ity
Ġtel esc
Ġrig id
Ġsu ited
Ã± o
eg ie
zegov ina
Ġdoub led
Ġapp lying
ĠUS C
ĠS ons
r ag
Ġp ec
ament o
enc hed
Ġwrest ler
ain es
ĠK ot
Ġto re
Ġthr iller
ĠEx hibition
ĠAr r
Ġtal ents
ĠF eng
ĠG avin
Ġn ost
Ġpure ly
Ġelect or
Ġforb idden
Ġvolt age
Ġc rafts
Ġ ____
ig nt
ĠWe ather
bl ack
ĠL ap
ĠK ai
Ġpresent er
ĠSe oul
Ġmon sters
c ro
im ming
ĠT otal
ĠO pt
ĠCur rent
ĠBo hem
ĠN em
Ġembed ded
Ġhon ours
cl ip
ĠAntar ctic
Ġmamm als
ĠF alk
Ã ½
Ġunn ecess
Ġch ron
Ġt apped
Ġsent ences
ĠF let
ĠCong reg
ĠCor por
Ġhar bor
ĠOffic ial
Ġre opened
ĠTh ames
ap y
Ġre hears
Ġbatt alions
ĠG E
k ers
ĠMax well
ĠMarsh al
Ġve ins
Ġc ure
Ġfoss ils
op l
ott a
att i
Ġh ire
vers ion
Ġcor rel
Ġbr ave
ĠSoft ware
ĠÃ Ĺ
Ġg ains
ĠMey er
re hend
Ġsur ge
b at
ath am
ĠMy ster
Ġret reated
" âĢĶ
o ft
Ġexpl oring
Ù Ĭ
ĠBald win
Ġhigh ways
Ġcompl aint
Ġfool ish
ĠCharl eston
Ġsher iff
ĠN iel
Ġscreen ing
Ġprop riet
Ġenc ounters
Ġover see
Ġcon cess
H ar
il ogy
Ġhapp ily
Ġsem in
ĠP ars
Ġembarrass ed
p olit
Ġst er
P ar
id ian
ĠLyn ch
Aust ral
Ġreg iments
Ġexpress ions
Ġback ward
isc her
ĠN acional
Ġatt ain
Ġank le
ĠSt alin
ĠSh i
ĠJ i
sk a
Ġfemin ist
B ar
Ġenvelop e
Ġher b
ĠEl i
w elling
Ġover night
Ġbow ling
Ġdevelop s
role um
Ġlimit ations
anc o
Ġhe ating
ĠS ard
ip eg
Ġsle nder
Ġfresh man
ip ing
Ġdet ection
Ġpl ural
oot s
Ġpost p
ĠB rod
ĠTr acy
Ġenthus iasm
Ġlength y
Ġvamp ires
ĠN ass
el age
us ement
Ġant iqu
ĠEthiop ia
ific ent
ĠCorn ell
Ġpock ets
Ġgl ob
Ġcrowd ed
Ġnarrow ed
ĠG enesis
ĠMel issa
Ġcom merce
Ġendors ed
Ġf iscal
Ã© g
Ġtransmit ter
or um
ĠW inc
Ġprin ts
P ort
Ġder ives
Ġ184 1
ĠRes p
atter y
Ġinvest ments
ĠBu ild
lo e
Ġscen ario
ĠThe ory
Ġatt ained
Ġr av
ĠL ing
ĠCar son
Ġmarket ed
Ġliv estock
Ġtra its
Ġwings pan
Ġsp awn
ĠJohn ston
Ġwh it
Ġsens ed
Ġcyl inder
rec ord
Ġign oring
ĠAr n
asc ar
omet er
Ġsp ider
ĠC ul
Ġcorrespond ence
ost ic
ĠR aven
ĠEm ploy
le ft
Ġinc ons
ĠVol ume
Ġexplicit ly
Ġpros ecution
ĠZ ion
ĠJohn s
ĠR as
ĠN E
Ġsk etch
le igh
ĠLe y
ĠLud wig
bre aking
arth y
ĠIndust ries
A L
Ġpup il
ĠCarn egie
z el
art e
od ied
Ġexperi encing
ace ous
W ould
Ġgrow led
199 4
ĠK ids
ĠMar cel
Ġcogn itive
ĠD re
Ġdown stairs
ĠSte am
Ġmarg inal
Ġgr un
ĠCass ie
ĠAnd rÃ©
Ġsn iff
Ġp ad
ĠPop ular
Ġst int
Ġtrain er
ĠB erm
Ġinc orrect
Ġ1 18
Ġref r
ul ator
Ġcon form
Ġcorpor ations
ĠLeices ter
Ġappe aled
Ġph ones
Ġprofession ally
P aul
am ous
Ġconvers ations
ĠSher man
Ġoverl ook
ĠV isc
ĠPre viously
Ġe tern
ĠCai ro
Ġcrimin als
f ar
Ġgood bye
Ġcar riers
ĠH ence
Ġnomine e
ey ed
ĠK erry
Ġcongress ional
Ġint imate
ard on
ĠY emen
Ġadequ ate
ĠIn stitution
ĠStat istics
ĠP os
ag ogue
Ġel imination
ab lish
ĠC od
Ġmed ic
Ġsh ifting
ĠSh awn
ĠDiv is
Ġl ied
... ]
ĠAd olf
Ġ184 4
ab ul
am ar
ansk rit
oot ing
Ġfin ite
r ary
á ½
ĠSc reen
ĠÄ Ĳ
199 2
Ġrib s
ĠN ame
N ever
ĠKos ovo
Ġcomed ian
atic an
ĠLar ge
ĠB ash
r ays
Ġso fa
ĠI TV
cl ed
ĠM aid
Ġsk et
Ġsc anned
Ġan at
Ġdel icate
ĠCour se
or se
Ġmeasure ment
Ġintim id
re ation
G old
Ġreg ain
Ġspac ecraft
h ra
ĠNew man
Ġdiagn osis
Ġbo oth
iz able
R oll
ar ag
Ġver t
d ep
Ġrec onnaissance
Ġlon ely
Ġtum or
à ¯
199 3
ĠC ancer
ĠEd ge
r ate
Ġsc hemes
ĠRos en
G P
l ings
al ong
ĠNe ed
Ġl apt
Ġc anton
w hen
Ġ183 6
Ġcontain er
ĠPict ure
d rop
ĠGo vern
Ġsimilar ities
Ð ·
ĠY eah
s im
Ġev angel
Ġem issions
ĠH undred
ĠR oland
Ġform ats
ĠBer ry
st roke
Ġam algam
ant o
T om
Ġmon uments
Ġer ect
Ġly ric
as ive
ĠN um
ĠBre ak
Ġpresum ably
Ġto es
A ss
Ġw age
Ġf usion
Ġca ution
ber ger
ge ant
Ġpe ered
rah im
ress es
Ġrevers ed
Ġ183 8
Ġisol ation
Ġnob ility
Ġd anced
Ġcommand ers
Ġple as
Ġinstitut ional
Ġcount ing
Ġval ued
Ġad ul
Ġh orm
ĠB elt
Ġpar ishes
Ġre velation
Ġtermin ated
part y
Ġtrem end
en o
ĠW ade
ĠChrist ine
Ġexcess ive
w al
Ġweaken ed
ĠDe e
ĠSc ots
Ġre iss
Ġdram atically
Ġsub d
Ġreluct ant
Ġ16 0
cl air
i ative
Ġstart led
ĠConstantin ople
R O
ĠSant os
Ġpre f
Ġsub str
rit z
ĠM ikh
head s
Ġreview er
p ot
Ġsup erm
Ġel bow
ĠSh am
Ġtend s
Ġf oul
ĠK ind
ĠH ut
Ġexcept ions
unn el
Ġsing ular
and i
Ġdisp utes
Ġcr ater
Ġdiplom at
ad vant
ĠFl ag
ĠIn tegr
leb rit
pl ant
ek ing
um ing
Ġher d
Ġm im
Ġcollect or
ĠN O
ĠGl ac
Ġequ ations
Ġin eff
Ġsh ining
ob ic
ĠIs h
S te
ĠWe i
elect ric
Ġb anner
Ġdischar ge
ĠRuss ians
an as
ĠA ven
Ġmaneu ver
Ġey ed
ĠGre ene
Ġmon op
ĠK re
Ġbroad er
ĠM uk
Ġf us
et ed
Ġimp at
U K
ĠG ates
ash tra
Ġtechn ological
Ġper ipher
Re ally
Ġju ven
Ġman kind
ĠPot ter
ĠD ong
Ġage nda
am on
al ine
Ġmon k
Ġs orrow
Ġcl ut
Ġship ped
Ġcont ing
Ġl ac
Ġcomb ine
lebrit ies
Ġst ub
ĠF en
Ġimmigr ant
ĠSp ect
Ġemer ge
ĠAr ms
Ġsail ors
ĠM ater
J apan
Ġhel pless
ed ged
Ġmis er
Ġ( '
ig m
ec ute
cl amation
ĠAct s
Ġf res
Ġmel od
ĠWinn ipeg
ĠU z
S L
Ġcapt uring
19 60
Ġs ar
ĠS ou
Ġdecor ative
et erm
Ġridic ulous
Ġcrowd s
ĠC ON
Ġ183 9
Ġch ip
Ġfol ks
ĠLithuan ian
ĠTerr or
Ġmod es
v oy
Ġc ivic
ĠCo ch
Ġundert ook
Ġpartn ered
j in
inc hed
ĠMir anda
Ġdist ances
ĠRub y
J ack
Ġst arter
Ġun ch
H a
que z
ĠTob y
ĠWals h
Ġmel ody
c ope
Ġscreen ed
Ġsupern atural
row th
Ġin ception
ĠLaure n
ĠGael ic
Ġelect ro
Ġste aling
Ġenlar ged
n u
ĠDon na
ĠH ook
ĠT ah
S I
ĠAlger ia
G l
ĠL if
Ġfav ored
Ġdestroy er
Ġdesign ers
ĠM ob
Ġen acted
ces tershire
ĠSlov akia
Å Ļ
it ivity
it he
Ġj ungle
in itely
ĠHer zegovina
ignt y
ĠBr onze
ĠO ften
Â »
h art
ĠLa ur
ĠGod d
Ġwho ever
Ġoccup y
ĠCreat ive
Ġcyl ind
Ġgl obe
ienn e
Ġassum ing
Ġa ston
ĠCon sequently
r us
occup ied
oin ing
Ġterm ed
Ġresemb le
ry n
Ġkidn apped
Ġcur ves
ib a
ik ed
Ġme als
ĠWol ver
col span
U p
ra ising
ĠLouis ville
Ġg azed
R eg
ĠD art
ĠÐ ²
ĠSl ow
Ġv end
ĠBeat les
Ġbe ats
Ġd y
at z
Ġg ul
pro f
Ġcon stitute
ĠComb at
ĠF ed
Ġtrou bles
ĠSal em
F rench
Ġle ased
Ġconf ined
ĠA chie
ĠSug ar
ĠL af
Ġlink ing
an an
Ġsp ells
ĠBu ilt
Ġam endment
found land
at ro
Ġdef ault
Ġvolunt ary
Ġloc ate
Ġelectron ics
Ġportfol io
G N
Ġcat ches
Ġutil ized
Ġst ack
Ġid ol
Ġemb assy
fl ow
Ġprov iders
ĠY ard
ats u
Ġir re
ĠNic ole
m ud
Ġal umni
Ġres ided
ĠÐ °
Ġw art
Ġd rown
________ ________
Ð ±
ĠTh irty
Ġkick ing
Ġsec uring
ĠB ess
ĠG an
Ġmeasure ments
clesiast ical
Ġautobi ography
foot ball
Ġthe or
ĠI M
ĠK om
m ag
s i
ĠIns urance
ĉ ĉ
V E
ĠEld er
ĠClass ical
Ġ ),
Ġcou pled
cent er
Ġpract icing
Ġlic ence
R ep
St op
ut i
Ġdem o
ĠBe au
ĠRever end
e i
Ġins ane
ĠAd ult
al ore
Ġgram mar
Ġph ases
ĠAT P
ĠH ort
Ġhun ter
Ġtrou bled
Ġgr avel
Ġparam eters
Ġdescend ant
ĠM ile
us p
ĠSpeed way
arn ation
ne um
Ġexclud ed
ul ent
iz a
Ġcle ver
ĠLeg al
igr ation
ĠH omer
Ġfeed back
ĠGeoff rey
in f
Ġmot ivated
Ġar ise
Ġjud ged
Ġnerv es
umb ers
Ġcommission er
Ġpray ed
Ġd ens
inn ings
Ġcelebr ations
ut ing
Ġopt ed
Ġsubt ropical
Ġla und
medi ately
Ġimpl ies
Ġapp le
ph ones
Ġm ills
Ġsidew alk
Ġpick s
Ġtr agedy
ĠYugosl av
Ġbab ies
roll ing
ĠGriff ith
ĠL ars
ĠMong ol
v als
or ian
ĠV in
Ġslee ve
M at
ĠDub ai
Ġdistract ed
Ġt ucked
Ġgeomet ry
! '
Ġec osystem
Ġident ifying
Ġsummon ed
og ene
hy dro
Ġpath way
ĠErn st
ĠD ust
Ġconven ient
Ġst ip
Ġsit com
Ġs ued
ĠV atican
B el
Ġfunction ing
ĠY uan
Âł 1
Ġclin ic
e apolis
Ġthorough ly
Ġmix ing
Ġam end
Ġspr ings
ĠM oor
Ġex ped
Ġshr ub
cl iffe
ĠCo ff
Ġ183 2
Ġhect ares
Ġbl own
Ġst ems
Ġkn e
ĠGram mar
d u
aw ed
Ġinform al
g eneral
ĠR ica
iÄ į
Ġillustr ations
Ġ184 2
Ġconfron ted
pres ident
ĠL ed
ĠS ind
ĠLaw s
Ġcert ification
re a
Ġprol ific
Ġcomprom ise
Ġen abling
ĠSouth ampton
ĠUl ster
ĠSoph ia
ĠFem ale
room s
Ġrein forc
iv ities
Ġlater al
R es
ade qu
Ġesc al
ept ion
ik k
ĠSc andin
Ġcl utch
H T
ĠEuro vision
Ġju ice
ĠBav aria
ĠC ock
Ġover h
Ġmetab ol
Ġthrow s
Ġc aves
Ġgu idelines
Ġs ire
at um
Ġvac uum
ĠMalays ian
Ġcur sed
Ġapprec iated
Ġtw ist
ĠV it
Ġmeant ime
th ird
Ġbattle field
Ġpublic ity
Ġref using
Ġstret ching
Ġtact ical
play ing
Ġup ward
ĠJane iro
est ead
Ġpop ped
Ġconsec rated
C P
ong s
Ġtransl ations
Ġrif les
ĠC i
e als
Ġ183 5
Ġp ent
Ġide ology
B R
Ġsum mar
ĠCol ony
f i
ĠPier ce
Ġo h
g ree
Ġo ught
Ġind ie
Ġcomb ining
od s
ĠTreas ury
ĠDe ut
ĠC anton
Ġpossess ions
ĠH ast
ĠOver all
ĠP u
ĠBund es
ĠK ara
ĠBro oke
Ġdis cl
Ġgener ous
. ),
ĠBr as
ĠPri est
ĠB irth
H igh
Ġcompar able
ev o
ĠBal let
Ġfit ness
ĠBrown s
in ating
e ight
Ġvill ain
Ġwhere ver
ĠH ul
s ection
ĠTh an
Ġgentle man
Ġquant ities
Ġw al
ĠJen kins
c ats
ĠAfter wards
ĠOn line
Ġc ass
Ġf ountain
199 1
b ay
Ġsophistic ated
ĠCh oice
ĠRaj a
Ġsubstant ially
ĠKash mir
Ġg own
Ġequ ity
it ars
Ġcur led
ĠCa esar
fore st
ĠFlet cher
gr ily
ol in
Ġc ops
oc o
Ġl ust
ab l
ject ed
er os
Ġre ef
ĠN ate
ĠS leep
Ġsymb olic
Ġspect ators
ĠEmp ress
ĠKim ber
ĠBud apest
ĠChile an
ĠS W
Ġimpro v
ES CO
Ġcor pse
. ).
Ġsex ually
N ote
Ġcor rupt
fl ies
ĠInd o
Ġtransl ator
amp h
Ġchart ed
Ġaffect ing
ĠStre ets
Ġc ob
olith ic
Ġunemploy ment
ch urch
ĠĠĠĠ ĠĠ
Ġal iens
at aka
Ø ª
Ġabund ant
ĠTrin idad
ĠW ant
Âł p
ĠReg ard
ars ity
ĠD ock
ĠWW E
ĠC ertain
ĠUC LA
ĠProgram me
ĠF erry
gr ave
ĠHein rich
"> </
Ġac ids
rox imately
ĠFergus on
Ġ184 3
ã Ģ
Ġb ail
Ġborrow ed
Ġupr ising
ĠT ank
Ġhe ars
Ġswe ep
Ġf oster
ĠM t
ĠSol ar
á ¸
l ore
Ġannoy ed
orn s
Ġst amp
T op
che l
Ġp add
Ġgal axy
if a
ĠRick y
Ġill usion
Ġcre st
Ġbul lets
Ġrail ways
Ġac ute
C he
ĠNew foundland
Ġspec ially
ĠCher ry
w rote
ĠMar qu
omm ission
Ġcle aned
ink led
ĠIs s
Ġacc redited
Ġeth n
L ou
sk irts
Ġmed itation
S ir
ĠF iction
20 18
Ġconsult ing
Ġhal ted
Ġdr ained
Ġm isc
ĠRe in
ĠR ank
Ġ10 2
Ġspec ulation
Ġ9 00
ĠL un
Ġpre ference
ĠRaf ael
Ġsevent y
ĠPer cy
ĠCr iminal
whe el
Ġpr inc
pr ising
Ġdrain age
led on
ĠAm ateur
os ion
ĠTrav is
Ġt uber
Ġl oses
ĠD arl
Ġref urb
ĠD ul
ag ging
ĠG ent
Ġcontin ually
Ġevolution ary
D oes
en ic
e ven
) ".
Ġfil ter
Ä ħ
Ġgr aves
Ġcan vas
U P
Ġpl aque
ĠEx cept
ĠSy rac
em ia
ĠG amb
ĠBrit t
ari at
T ur
Ġv oid
ap o
Ġfin ishes
Ġansw ering
Ġgl are
ug a
ĠRec ording
ĠObs ervatory
Ġshr ine
ard ment
an mar
Ġcool ing
Ġpe aks
ĠBrun o
Ġch ips
Ġdeal er
ĠCh am
Ġmar itime
Ġp aved
Pres ident
ink i
Ġgr abbing
ĠF ont
Ġarch ives
Ġinherit ance
ĠStr ateg
ĠSum mit
ĠFant asy
Ġsh oe
Ġpl acement
ĠPro gress
nt on
Ġbox er
ĠHard y
ĠCh ak
Ġin k
Ġlaun ching
Ġpill ow
ĠHum ph
Ġc um
C ity
communic ations
ple x
ĠCon stitutional
Ġsub mer
Ġcycl ing
az y
U R
Âłm ph
Ġbast ard
ĠAberde en
ĠCop a
ĠHol ocaust
er ical
Ġapp ar
fr ame
ast on
B et
Ġmotion ed
Ġrent ed
ĠChief s
Ġm ast
Ġchar itable
iz ards
R oman
aw k
Ġpro long
ĠPr iv
Ġdis advant
Ġfeather s
Ġheav ier
em on
Ġw ages
Ġdi ary
ow o
ĠL LC
Ġdam ages
l ord
Ġw ishing
Ġsystem atic
Ġmand atory
ĠT ry
ĠJ ag
os o
ĠP ret
oc he
Ġrecre ation
Ġlou der
Ġm umbled
Ġtradem ark
Ġgovern ance
ĠNob ody
ĠMort on
ĠFull er
ĠPruss ian
Ġse greg
ĠBr u
ĠSil va
op ped
ĠMe gan
Ġterr ified
ĠPar agu
are l
Ġlo ading
Ġshoot s
oll en
ĠNAS CAR
Ġself ish
Ġins ign
ĠMathemat ics
Ġrank ings
Ñ ħ
ĠJ up
Ġoverl ooking
Ġat oms
Ġkid ney
ĠPar adise
Ġc uis
Ġw ards
Ġtheat ers
Ġlo aned
ton ation
Ġreluct antly
ĠSic ily
ĠSh iva
Ġpri zes
ac ies
bu ild
bo ats
ĠL al
Ġpersonal ities
Ġg ren
ĠJud a
parent s
Ġshut tle
Ġa pe
Ġsand stone
Ġcon stituted
Ã¨ s
ĠR he
Ġl iner
Ġdisbel ief
Ġguarant eed
ody nam
Ġgarn ered
Ġloc ks
ne z
ĠW ait
Ġpl aster
Ġbomb ers
Ġhol idays
Ġdist urbed
Ġcl ip
ï ¼
L es
ĠV all
ĠChe ng
ĠMinn eapolis
Ġingred ients
Ġesc orted
P art
Ġcomple ment
Ġcr ust
Ġd ys
ĠJ iang
get own
z ym
ic ist
ul ative
Ġrec on
cont in
V ery
c ony
ais y
Ġt ide
Ġfur ious
Ġd in
Ġch assis
ĠN urs
ĠU m
om ore
ĠBr ady
Ġ10 3
ĠEy es
ĠTra ff
ĠL ill
ad en
Ġsl apped
Ġexcept ional
Ġout skirts
ĠHam pton
Ġteam ed
Ġce lebrities
ĠC yn
Ġaster oid
Ġp ear
ĠB oss
ĠV olk
Ġmort al
ne g
is y
Ġpart ed
Ġpen alties
ig el
Ġbe ard
W ar
ĠF ork
hr an
b red
ik s
Ġpot tery
Ġanth ology
ĠS ag
ĠI A
ak o
ĠEd u
Ġch ambers
Ġt in
ĠP itt
Ġo k
ip el
ĠIb n
ĠUtt ar
Âł Âł
g ang
ĠD addy
ĠM itch
ters on
Ġerup ted
Ġarm our
ĠInn ov
app ropri
count ry
ind y
ĠBr om
j ord
Bl ue
ĠHous ing
ĠBur ma
Ġaccept s
Ġdress ing
ĠC ore
Ġb olt
Ġg le
ĠWat ers
v iv
Ġtraff icking
Ġguess ed
f und
Ġadvant ages
Ġsk ept
Ġoff spring
ĠSyrac use
rap h
ur ai
Ġplant ation
ĠW ilm
Ġmat hematic
ĠK oh
Un ited
Ġar rog
Ġthe e
T R
ir s
Ġsad ness
Ġdesp air
ĠAd ri
ĠHam mer
Ġdec oration
ĠMon ument
Ġpun ct
J es
ĠAI DS
Ġ[ ...]
ĠChe v
Î »
er oy
Ġch aired
c ross
ĠInd oor
ĠConc ert
Ġsl ower
Ġreal istic
! ",
Ġg rou
b ons
Ġhigh lights
Ġaest hetic
Ġmin ers
ent on
Ġup grade
Ġb asket
ĠV ision
Ġplat inum
Ġdisc our
Ġloos ely
Ġr ays
Ġbreak down
Ġb oring
Ġpl asma
C R
ĠK ell
Ġalign ment
W R
Ï Ģ
: #
re qu
Ġse am
ĠR ao
ĠMo hammed
R em
ĠMan ufact
Ġat omic
Ġexplos ive
n amed
Ġprot esters
Ġtreat ing
ĠSc he
ĠM are
Ġe man
ĠWhit ney
ĠH ed
ĠV iolet
ĠG ian
Ġcomput ing
En ter
ĠNort heast
ĠAg u
oc es
Ġcre ep
edd y
Ġterror ism
ĠCast ro
ĠV ander
Ġbe aches
ĠAugust us
Ġm old
ir able
ral tar
Ġsk irt
g reat
Ġhelp ful
Ġdif fers
Ġinteract ive
unc iation
Ġad vers
g s
ĠPatric ia
" ",
ĠVern on
Ġens uring
ĠJoy ce
lo o
ourn ey
ĠRaid ers
ur able
Ġm um
conn ected
Ġid iot
ĠPatri ots
Ġwat ches
ogen ic
ant is
Ġeth ics
: "
Ġpuzz le
ĠCauc as
l is
er ick
H el
ĠBat man
Ġgar b
Ġj ersey
Ġa ug
Ġbl ades
Ġacknow ledge
ĠFal con
Ġch ill
ĠRober to
Ġche f
ĠApp arently
Ġprop het
---+ ---+
ĠH ost
ass ic
e ze
ĠJ ob
ier i
ĠX box
Ġeffect iveness
Ġdig ging
S am
Ġsc orer
ar f
sh op
mar ine
ĠUrugu ay
Ġknock out
ĠL ub
Ġprepar ations
ul in
Ġregul atory
ĠApp eals
P ac
ĠM ix
ĠU FC
Ġdiscipl ines
Ġsubject ed
K A
ĠR ip
ĠGarc ia
ĠCon rad
ould er
Ġshel f
Ġst ays
Ġun official
ĠF iji
Ġa ided
ĠH ond
Ġret aining
Ġpl um
ep pe
ĠSt ories
S il
ĠZ am
ĠCommunic ation
c ular
Ġg ambling
Ġmet aph
Ġcompet itor
ĠH ack
Ġdriv eway
ond ition
Ġsur g
Ġdoctor al
Ġn ud
Ġreg ulated
ell ation
t re
Ġas pir
Ġen ables
Ġo val
ĠEmer gency
ĠCly de
Ġg raz
Ġdeterm ining
Ġsuc c
Ġm ice
ress ive
ĠQur an
us ions
P D
ĠGre ens
r ors
Ġnerv ously
Ġamb itious
Ġt et
Ġcar ing
st ones
Ġfr action
ac ious
ĠEl is
ĠMer it
ĠAny way
l ov
Ġper cussion
ĠKu wait
ĠR ule
lim ited
Ġchrom os
Ġreven ues
Ġsk ating
ew ater
Ġam usement
are tt
Ġc ort
ĠQ atar
Ġto ys
198 9
t itled
Ġpubl ishers
Ġdeliver ing
ĠKazakh stan
ĠM ia
ĠNort on
Ġ ell
Ġanticip ation
ĠSt rait
Ġretrie ve
iz ers
ul iar
ĠW id
Ġchemical s
ĠD ion
Ġte ens
Ġ ÑĤ
Ġin ver
Ġv it
ĠIm mediately
ĠPhil harm
ĠSee ing
ĠD ry
Ġsatisf y
ĠPhys ical
ĠTon ight
ĠB order
d ict
Ġaff ects
ĠJ orge
Ġtri angle
Ġpal ms
Ġspr int
ĠW ik
Ġcoll ision
Ġfr amed
ĠS tern
Ġreason ing
The se
Ġrel ate
mid t
te e
Ġt ire
light en
Ġgri pped
Ġdecl are
' )
ĠÄ Į
Ġaddress ing
ĠSid ney
g ue
ian ces
Ġfac ial
us ually
ĠV irt
Ġsub mission
Ġcontribut or
Ġmet als
Ġadm ired
Ġincom plete
ĠStat istical
ĠWhe ther
Ġex agger
Ġd ances
ĠL ORD
Ġan onymous
Ġmod ifications
ĠAnd r
Ġw aving
igg ins
op ter
Ġcorrespond ent
Ġorph an
Ġdist ress
c ourt
Ġbr ace
Ġcouncil s
Ġremark s
ĠV ed
ĠConf ederation
Ġk in
Ġassum ption
Ġsan ction
ug ging
Ġwart ime
ĠAcadem ic
Ġwaters hed
Ġbl owing
t el
Ġfemin ine
Ġmand ate
On ly
ĠP aper
ĠLeban ese
ĠThom son
ĠSacr amento
Ġred d
ĠPl ains
iat us
Ġb ure
Ġincorpor ate
B re
Ġc ute
st ick
Ġab olition
ov el
Ġnurs es
Ġsm elled
Ġshow c
W C
Ġtow el
v ir
c ity
Ġgener ating
in ia
ĠSc r
Ġaccess ed
S F
Ġsp ont
ĠCount ies
Ġconstitu encies
ĠY OU
ĠBoy d
ĠA ircraft
Ġrecommend ation
ĠS anskrit
Ġpass ages
c idae
U M
t em
ĠR C
Ġsand y
ĠGeor ges
he arted
ern er
Ġin adequ
z an
ĠIn tonation
r and
ĠT i
S M
Ġd ive
Ġsovere ignty
Ġweek day
Ġlabel ed
the m
Ġp ound
ĠO le
Ġal beit
ĠV i
ĠAll ison
Americ a
Ġplay wright
ĠM ama
ĠF an
ĠGard ner
Ġ10 4
Ġteam mates
Ġafter ward
Ġsufficient ly
Ġle ts
Ġpl ains
ĠV augh
Ġscream s
ĠTrib une
Ġrub bing
==== ====
Ġenc oded
hard t
Ġfro ze
ĠProv idence
ĠGuatem ala
Ġfit ting
Ġtask ed
ĠD owntown
Ġteen agers
ĠĠĠĠ ĠĠĠ
Ġ18 15
ĠBul ld
ĠG le
T unes
ĠW er
Ġremember ing
ĠSm art
ĠW i
Ġuncom mon
ich ael
Ġter restrial
ĠNat alie
ĠG ymn
ĠGr aduate
ĠGand hi
land ers
ĠK aw
Ġinv ite
ĠShir ley
Ġswift ly
sh aw
omet ric
Ġded ication
erv ille
Ġ ×
Ġde ity
Ġemphas ized
le ading
ã ģ
Ġmet eor
ad ays
th s
Ġbal cony
ĠPl ain
Ġconsequ ently
b irds
Ġreform ed
e ated
Ġout comes
Ġcomplic ations
Ġpart ition
og l
ĠToy ota
a an
Ġinev itable
o ine
lyn n
Ġdispl aced
ĠSam antha
ic ism
ĠMic key
al and
ĠHeavy weight
rit e
ĠT et
Ġindic ation
Ġdiss olution
au f
ag ascar
Ġrad ius
Ġrum ors
Ġcl enched
Ġmigr ated
ĠCec il
Brit ish
Ġbal anced
ener ation
Ġstorm s
Ġsurvey ed
Ġrel ied
ep p
Ġpe aking
B ro
ĠAg nes
n ian
Ġl as
Ġw olves
Ġwh olly
co le
tle ment
ĠTasman ia
Ġkiss es
oc us
agn etic
ĠSup erman
Ne ill
ĠD A
is co
Ġsovere ign
N R
ĠS F
Ġseason al
ĠLe igh
ĠLin ux
L ist
Ġund ef
Ġwas hing
d el
ĠN uclear
ĠPatri arch
Ġins urg
am by
Ġuns ure
ĠWeb b
Ġde eds
Ġvalley s
Ġrec ycl
per t
Ġdial ects
Ġstri ker
ant es
Ġbot hered
ĠHawai ian
Ġmir acle
Ġ( $
Ġsurprising ly
Ġmaid en
ĠW r
im ar
sc ript
em br
Ġmight y
il itary
ĠVict ory
Ġtrust ees
on o
ĠAssoci ated
clus ions
ul ine
Ġbroad caster
Ġelect r
ĠW imb
ĠTerm inal
Ġmagn et
ĠGib raltar
Ġpil grim
L D
ĠMar itime
Ġbom ber
Ġassoci ates
Ġsubmar ines
ĠIsab ella
ĠSpec ies
Ġsucceed ing
Ġwood land
ĠLe one
Ġtrigg ered
ll er
W ow
Ġsh attered
ĠG ive
Ġancest or
ij uana
ĠP irates
ĠElect ion
Ġembr aced
en za
Ġunnecess ary
Ġadvis ory
ounc ing
ĠK och
G E
ĠAlexand ra
are z
Ġs oup
ĠDr agons
ĠH its
run ning
ĠZ o
Ġsol ved
Ġunh appy
g ression
Ġpray ing
Ġfinanc ing
Ġinter fer
Ġwire less
ip zig
Ġan arch
Ġmoll usk
Ġde an
ĠSant o
k u
ĠGu adal
Ġge ographic
ing ed
Ġrem ake
ĠM Y
r ance
ros se
Ġpubl ishes
b rown
ĠâĢ Ŀ
Ġcontest ant
in j
ĠAN D
Ġqu ad
Ġbreak through
ĠP arr
âĢ¦ âĢ¦
Ġunder water
Ġresemb les
Ġins ufficient
Ġliber ation
T T
Ġass erted
Ġuncertain ty
Ġnight mare
asc ular
Ġshe er
G C
Ġin equ
ĠC osm
Ġdors al
ĠW ick
ĠCare y
Ġqu adr
cl ub
ĠRif le
Ġnecess ity
Ġwe ighed
abul ary
uc a
ĠSuff olk
ore n
Ġpe ers
Ġrep et
ĠEduc ational
Ġshort ened
ĠS ikh
ĠLis bon
ĠEl ena
ĠMahar ashtra
ir ming
Ġdec isive
È Ľ
ĠW ander
ex cept
Ġinc ent
b ling
ĠMid land
Ġn ap
somet imes
ĠF ighting
E ven
Ġdest iny
Ġcol oured
I E
ĠA ce
l av
Ġapprec iation
Ġr im
ĠEurope ans
Ġl ounge
pl aced
Ġjer ked
Ġaffili ation
ĠM Ã¼
Ġwhere by
Ġcoordin ator
olog ne
Europe an
ĠEl s
ĠÐ ¾
ĠC umberland
ĠBol ivia
Ġrem inis
Wh ite
Ġswitch ing
op en
Ġass et
ĠS iber
ĠTanz ania
ĠCole man
ĠMikh ail
Ġbrut al
Ġeduc ator
Ð° Ð»
ĠG n
ĠMar ina
Ġ183 4
Ġfinanc ially
Ġf ists
Ġdem ise
Ġdec ommission
ĠD ixon
Ġpurch asing
ĠPop ulation
so ver
Ġ18 14
Ġdifferent ial
Ġcult ivated
ae us
J ournal
Ġtrans action
Ġeag le
es y
lic ation
ĠL ob
F ine
Ġno on
Ġret ros
Ġcount less
Ġo wing
Ġeyeb row
ind e
ĠMy anmar
Ġp aired
Ġab bey
ĠW ins
ac ritic
ek a
a ic
od i
Ġbre ach
u en
ĠAle ks
Ġimag ery
Ġscr ub
Ġbutt ons
ĠSac red
Ġcoin ed
ock et
ĠRe b
Ġwild erness
Ġsed iment
Ġtr ay
ĠBut ter
Ġclo ak
Ġ3 000
Ġsol ic
Å ¼
Ġs ap
ĠPart icip
ĠCitiz ens
for ward
Ġcy cles
ĠLet ter
ĠAut o
ĠBet ter
it ational
ĠPy th
Ġtonn es
nd on
ĠRel igion
se ven
Ġemploy ers
ad ia
ĠLy dia
ĠP ale
c amp
Ġprec urs
ĠBad en
ĠFre eman
Ġexp end
Ġdis ability
Ġm aker
Ġover time
r il
ĠT ara
Ġsubsc ript
ĠB ard
Th ree
Ġk e
Ġin mates
Ġf ancy
ĠSe g
ĠC otton
ĠCow boys
mind ed
ĠSen ators
ĠSing le
ĠG ross
ĠV y
Ġscholar ly
iz on
Ġflex ible
ĠF est
ĠUN ESCO
Ġsurve ys
og ical
Gr and
il ib
Ġsquad rons
ĠT aj
Ġbarr acks
ĠÐ ½
ĠS uccess
Ġ10 6
ĠNor wich
Ġlo vers
Ġdec omp
Ġbar on
ĠH appy
Ġfrequ encies
Ġsm ir
Ġevac uated
Ġwand ered
Ġins erted
Ġclassroom s
C hic
ĠMad ras
ons ense
Ġdef ining
br anded
oc aly
ĠPh arm
pr int
Ġs ings
Ġan grily
ĠM Äģ
Ġdesign ing
Ġgener ic
ĠD uchy
ou st
Ġwick et
es p
Ġphenomen a
ĠMP s
Ġtall er
Ġser geant
Ġi Tunes
ĠT ian
Ġang les
Ġinf ilt
ur ia
s an
ĠKle in
ud der
Ġambul ance
Ġpost er
Ġfront ier
Ġaccus ations
Ġdis in
198 8
ĠTur ks
j ar
ĠNaz is
ĠR ita
ig on
Ġpat ience
ĠQu ick
ĠS D
Ġdescript ions
ĠL uk
Ġens uing
Ġdepos it
Ġsen ator
ĠEngine er
itro gen
Ġn atives
Ġs erm
Ã¡ ndez
an ie
ĠS ib
ĠK ok
ĠGreek s
ĠSh annon
ĠB ug
ĠTele graph
Ġqu ar
Ġc ough
Ġrit uals
Ġsav ings
ĠI de
ĠChen nai
Ġdet ention
Ġcommercial s
ĠWill ow
it ia
ĠBomb ay
ĠWimb ledon
o ise
ĠP owers
ans on
> <
AR T
ĠM ec
oy e
ip linary
ood y
ĠChap man
Ġform ations
Ġw ears
keep ing
M art
Ġ ze
O k
ĠHy de
Ġbar g
ĠPant hers
Ġfresh water
Ġcompl iment
Ġexpress ing
Ġpl ac
ĠT in
Ġqu ot
Ġamph ib
ĠPart ners
Ġam ino
Ġtw elfth
Ġatt itudes
et z
ĠFrances co
ĠM orm
un i
et ian
gr ass
ĠSand ers
Ġbet a
ĠMcC arthy
Ġgen ius
m and
Ġconf isc
ĠTel ugu
ĠM ald
l as
Ġnegot iate
Ġt ensions
Ġsyn chron
at hed
ĠZ ar
Ġproduct ive
ĠBeng ali
el ic
ĠBe ast
ĠH ew
Ġaut onomy
m ith
ĠPoet ry
Ġforg iveness
ĠL och
or ical
Ġm ol
ĠP ond
p ret
ĠTer esa
Ġhab its
Ġabund ance
ĠSt ella
Ġele venth
ĠChronic le
Ġext ant
Ġdeleg ate
own ers
Ġpod ium
Ġscr ut
Ġd ash
ĠUnder ground
Ġen zym
Ġun m
Ġsh ifts
Ġtechn ically
Ġunf air
ĠT oul
ĠOl iv
ĠTr istan
ĠR um
Ġst amps
Ġst atic
ou g
ic he
ĠPenn y
Ġtr ash
Ġprompt ly
ĠVen us
Ġlapt op
er d
Ġun ified
ĠB le
ĠH utch
ĠFl oyd
ĠExcell ence
ĠGener ation
ĠH onda
air d
er vers
ĠMad agascar
Ġtreat ments
Ġr ides
Ġimm ense
i ating
Ġtra uma
Ġviol ations
Ġcook ed
Ġf ox
ĠZ ero
ĠS uk
ĠUs ually
Ġmar riages
Ġfilm maker
Ġunf old
ĠKarn ataka
st en
Ġ183 1
ist e
Ġexecut ives
Ġcomp uls
op t
Ġpool s
Ġd iox
Ġtremend ous
iformes Family
Ġp ose
ron ics
ĠMad onna
f ried
Ġcerem onial
ber n
Ġcomp are
Ġcr ush
ĠEm bass
Ġrep aired
un ched
Ġesc aping
ĠIm ag
ĠR ust
Ġhaz ard
Ã¢ te
ĠGeor getown
ĠMe eting
ĠNob le
other apy
Ġn as
ĠW ere
Ġrep orters
ĠHy der
Ġhuman itarian
Ġobserv ing
ĠCer amby
Ġel ong
O ff
ĠC ot
ev iÄĩ
Ġnegot iated
Ġp enc
ĠH oney
Ġdecl aring
Ġcelebr ating
ĠLeop old
ĠÃ ł
al p
ĠEv ents
Ġsuspect s
Ġarr ange
Ġsumm ary
ĠCzechoslov akia
Ġcommemor ate
ĠJ ung
uc ci
hy dr
ã Ĥ
ail able
ĠR ost
ĠM Ã©
op ard
ĠPe g
ĠAchie vement
ĠShe pherd
ĠEv il
ĠJ ets
Ġdoub ts
ĠChem ical
S up
Ġcomm od
Ġs ucked
Ġconfront ation
ĠLad ies
Ġl ith
Ġun rest
Ġincred ibly
Ġlandsc apes
ĠSlov ak
Ġesc apes
he res
ĠL ik
ĠZ ha
ĠCr u
ĠM ons
g art
em er
Ġfather s
ge nder
ĠHonor ary
Ġspect acular
und y
ĠP ablo
ĠPhilip pe
sal m
ĠK err
ĠB ates
Ġmetall ic
Ġyear ly
Ġsn ails
b ear
Ġinfer ior
ĠBer gen
l ation
Ġarch ive
Ġcompat ible
Ġg ifted
k ok
ĠÐ ´
Ġjewel ry
ĠCl iff
cont rol
ĠC aleb
ant om
Ġmurm ured
ĠLib ya
Ġexam ining
Ġp osed
ĠBol ton
N L
n ote
ĠF rost
Ġunw illing
Ġre struct
ĠG unn
ĠIsland er
J ew
Ġper ce
ĠParalymp ics
Ġpec uliar
football er
V C
hor se
ĠGlac ier
ĠCeramby cidae
ĠDivis iÃ³n
ĠMar athon
Ġin ability
ĠBr ain
ĠK ens
Ġw ww
ĠSan ct
ĠN est
Ġassess ed
ĠD ag
Ġey el
Ġcost umes
Ê ¼
Ġconsolid ated
Ġdom ains
pro t
Ġs ip
on ts
af a
Ġol ive
c ot
Ġc el
ra ul
Ġcomment ator
ĠM ord
Ġsubmer ged
ĠRel igious
ĠIb rahim
res cent
Ġchar ging
ĠT unnel
ĠN ina
Ġspir al
it as
n ational
at u
--- |
Ġhe d
ĠB rett
ful ness
ĠLind say
ÃŃ s
ant ically
ĠVolunte er
ĠArab s
ĠBe ats
ĠSat urn
Ġb ubble
Ġconvinc ing
Ġcol legiate
ĠK olk
Ġcome back
ĠP ione
Ġex otic
Ġnarr ator
ĠNorth western
iz arre
olph ins
ĠPro cess
Conn or
f red
Ġnon etheless
ĠStephan ie
Ġdes erted
Ġbroad ly
Ġstuff ed
im et
z on
Ġb ells
Ġred uces
ĠNic olas
Ġd uck
Ġcons cience
Ġn ave
Ġp ounding
Ġb urg
q i
ĠH aj
ĠA very
198 5
ĠBuck ingham
Ġdes erved
Ġbad ge
Ġfrag ment
Ġorder ing
Ġst ressed
198 7
Ġval ve
Ġnucle us
ĠCambod ia
Ġnod s
hy a
Ġ183 3
Ġins criptions
hist oric
p os
Ġlaugh s
Ġsuperv ised
Ġhier archy
Ġc rou
ott i
ĠPer iod
Ġpos itively
Ġar ched
r ams
r s
L ive
N D
g os
ĠTe ams
Ġout line
Ġadvoc acy
Ġeleg ant
ĠK Ã¶
C or
Ġdr ift
ĠIndivid ual
Ġcuis ine
ĠSt oke
ĠArch ives
Ġimpl ications
ĠHait i
ĠV ald
iat ric
ac iÃ³n
ĠC ash
to ire
ĠCh ambers
g il
an us
Ġcons on
ĠB enson
Ġhelicop ters
com be
ĠEr in
ĠM ats
Ġcalm ly
ĠGarc ÃŃa
Ġchar m
Ġunder way
a uth
Ġbetray ed
Ġund is
ĠRe ad
ect ing
ĠL ines
Ġtr icks
urg ical
ĠEnter prise
Ġcult ivation
Ġl ighthouse
Ġdem olition
ĠFl ash
Ġl umber
ĠG us
act ical
Ġs aves
ĠF resh
r ud
ĠP H
Ġp iv
Ġs ack
Ġind ef
ĠChem istry
Ġprevent ion
Ġtrad ers
ĠIn stitut
ĠR ash
Ġd ip
Ġch asing
Ġencompass es
Ġacqu iring
ĠGust av
ĠL av
ĠIn st
Ġadd iction
Ġmark er
ĠH uss
di ocese
ĠKh al
ĠJup iter
ĠF ri
Ġsymp athy
P I
are th
ĠWeb ster
ĠF RE
ri ka
ĠL on
Ġdown stream
Ġstri ps
ĠH ollow
Pe ople
Ġmot ivation
ĠAb by
Ġn iece
bro ther
erm o
ic ol
ĠClay ton
al er
Ġtort ured
es que
Ġrecover ing
Ġar rows
Ġemb ry
Ġres ide
u ence
ĠInd igenous
Ġd re
ber ra
Ġsup reme
ĠPap ua
198 4
em i
ĠG ri
ew ide
ĠEn s
ĠS iles
Î ¼
Ġn asty
Ã »
ĠConstant ine
ĠC ell
Ġresemb lance
ĠLet ters
Ġro be
ul ously
Ä± n
udd in
h m
ĠU se
Ġimportant ly
Ġrob ust
Ġsuccess es
ĠD as
Ġs acked
ĠBo at
Ġsup ers
A pp
Ġdemonstr ations
u ating
Ġthank ed
Ġgot ta
Ġcapt ive
Ġcl usters
Ġbe ef
ĠHels inki
ĠInit iative
Ġr iots
Ġj okes
p al
oc ide
Ã¢ n
ring ton
ĠM au
Ġsuper hero
wid th
Ðµ ÑĢ
Ġdet ached
Ġcl ause
ĠAll ies
v ous
Ġmemor able
Ġdemonstr ating
ĠJuda ism
w ara
ĠQuest ion
ĠEston ian
ĠEmbass y
g ia
Ġag ing
Ġle v
ĠR ican
O H
Ġovers aw
is ans
ĠK iev
ĠSax ony
ĠDemocr acy
Ġscr atch
ĠWor cester
Ġjum ps
Ġpassion ate
ank ar
ĠJud y
Ġmot to
af ia
Ġfact o
Ġsurv ives
Ġpl ug
Ġadd itions
ĠSt y
Ġmort ality
ĠTw elve
Ġmot ors
ĠLe ipzig
Ġannounc ing
Ġcon gr
Ġdeb ts
che ck
Ġfor k
ment ioned
Ġind uced
Ġcollabor ative
Ġposthum ously
Ġoff shore
W ork
Ġst icks
ĠMatthew s
Ġdisapp ro
ĠDod gers
es ome
Ġaccur ately
Ġattract ions
Ġcancel ed
pe z
ek ed
od us
ĠTit le
Ġportray al
oph on
l ide
Ġver bal
worth y
ib ia
ĠThe res
k ill
Ġmar ching
ĠM atch
Ġthe ft
ĠCom ing
Ġsupp ress
Ġch ant
Ġrecept ors
Ġcand le
ĠBry ant
Ġp sy
ĠMet acritic
ĠAl icia
Ġemploy s
so on
Ġdisappear ance
P L
Ġrent al
Ġheav ens
D M
Ġpoly mer
Ġmon archy
ĠCl an
Ġsurg ical
Ġdon ation
Ġline age
Ġso ils
__ _
ĠI X
r aged
ĠCon stitu
ĠT ears
ĠLiter ary
Ġh airs
eng ine
Äģ d
Ġtall est
ĠGl oria
Ġmodel ing
ĠK ul
Ġfore wings
Ġunanim ous
Ġprofess ors
es ian
il is
imp se
ĠDis covery
198 6
in ting
g one
Ġlegend s
t n
Ġlingu istic
Ġreal ise
Ch ief
ĠCamer oon
ĠC ologne
Ġg aming
ĠCh amp
Ġacc idents
Âł ...
Ġannex ed
ut ter
spec ially
Ġpl ag
rew s
ĠBas ic
el come
New s
Ġdec ay
r ÃŃ
Ġreject ion
aw ks
ĠTibet an
ĠG OD
ĠTh ur
ret ion
Ġdown wards
Ġcheck s
e on
es pecially
Ġhom eland
ract ed
Ġscreen writer
ĠMaj esty
ĠJul es
en stein
ĠCh urches
ĠDar ren
M el
ĠC OM
ian i
ĠL ana
Ġstrengthen ed
ĠZ amb
ĠW ings
ĠM ae
ĠC av
Ġd agger
Ġtrend s
l abel
Ġbl ond
ath ing
clip se
ĠLat via
Ġf u
ĠH our
ĠâĢľ âĢ¦
Ġcontem por
Ġroll er
Ġplate au
ĠDoc ument
ĠJ ared
ĠOffic ers
Ġexp ired
Ġsymp athetic
ĠHast ings
ĠSt rike
Ġr ats
Ġparticip ant
ĠI vy
ins ki
Ġ @
Ġbr anded
ĠSw ift
H y
Ġroll s
ari os
ud i
Ġpr one
ĠM VP
ĠSh u
Ġneed le
Ġpreval ent
ĠEl vis
Ġneed ing
Ġmagn ificent
Ġb iblical
Ġle isure
M ed
ĠB R
Ġ å
oped ia
ĠJackson ville
ĠOri ental
bour g
ĠR otten
Ġprog ression
Ġp ac
Ġgu itars
Ġb ir
Ġdam ned
Ġimpl ied
ĠDomin ic
ct ica
ĠR onnie
ĠValent ine
Ġout right
Ġf als
ĠÅ ½
ĠC indy
ĠM ell
ĠNorm andy
ĠAn imal
ĠA way
Ġgall eries
Ġpast oral
Ġdomin ance
year s
Ġm i
ĠNe gro
Ġreh abilitation
pr om
Ġmod ule
Ġv ag
ĠVis ual
Ġv om
Ġdec lining
ĠEuro pa
Ġhis sed
ĠW yn
Ġreal ization
Ġnew sc
Ġpers ecution
Ġopt ional
ich t
Ġdyn amics
ĠC it
Ġcr ap
ĠW ong
ĠConc ord
Ġsupp ressed
Ġam ended
Ġreun ion
ĠJ ade
Ġrel ates
hys ical
ĠHerman n
ĠMer cy
Ġ10 7
Ġshot gun
art on
ĠRud olf
s eries
op r
ect ors
h orn
Ġadj oining
Ġdefend ers
Ġal k
Ġgl oves
Ġpun ched
ĠMon ter
ĠSand ra
lo ading
Ġcon ve
ĠG os
u ish
ac ity
Ġprecip itation
Ġincorpor ates
Ġdiss ip
ĠS EC
unt a
be e
ĠMontene gro
ĠColomb ian
Ġl ur
Ġamb ig
Ġetern ity
Ã³ d
ly wood
Ġpod cast
Ġoverwhel med
ist ance
ĠF ry
ĠK amp
Ġdispos al
ĠP ill
Ġles bian
Ġh ut
Ġt iles
Ġl an
Ġgl impse
ropol is
Ġpre jud
M ac
ĠApp eal
Ġv ivid
ĠEx eter
ĠS earch
Ġfor um
l ate
T w
19 50
ĠHistor ically
ĠElect oral
ĠReg ular
à¥ į
ĠD ear
Ġhel m
Ġlif elong
Ġpun ished
Ġexcell ence
Ġacqu aint
ih ar
ĠH M
Ġr att
ĠLead ership
ĠSh ak
ĠVij ay
ĠS unn
gl ass
ĠT ud
Ġeth ical
ĠPr ide
Ġbe ams
Ġviol ently
Ġout ward
f aced
Ġmolec ule
ir led
uff le
Ġbar riers
ĠS ach
ac ia
Ġimm un
ĠSter ling
ĠS pl
Ġp neum
ĠD up
ĠJ et
Ġhorn s
Ġover d
Ġpl ague
t ures
Ġa ven
Ġres ume
ĠDen is
c yl
Ġirrig ation
ĠRes erv
An n
Ġb inary
Ġsum mers
Ġa uxiliary
Ġcomp ly
ĠDaw son
Ġcycl one
Ġadvis er
he ed
Ġcomp aring
ev al
pro v
ĠP ull
Ġincorpor ating
Ġord in
ĠK ob
ĠP oor
dist ance
se in
pl ate
Ġgu err
ipel ago
Ġpat ted
ĠS iege
Äģ b
ĠField s
ĠR ook
ool s
Ġmax im
Ġinfl ation
Ġstr ained
Ã§ a
st orey
ĠN ay
Ġ18 10
Ġarm ored
ĠFor bes
ĠL Ã©
aceut ical
op ath
Ġgigg led
U h
Ġcl aws
Âł h
is che
ĠCr om
ĠDavid son
Ġmark ings
ĠBy ron
Ġmus h
b il
ul se
ham pton
ĠY uk
ĠHon ours
ĠBr onc
Ġat he
Ġblack s
Ġabbrev iated
lar ation
Ġper imeter
Ġcollect ively
ĠSav age
Ġrejoin ed
Ġprec ision
Ġal pha
T O
ĠM LB
haus en
ĠD res
Ġfact ions
Ġmag istr
Ġrebu ild
ar ra
Ġsynt hetic
U s
ah i
Ġpersu ade
Ġflow ed
ll i
ill as
Ġunus ually
Ġd airy
Ġcup s
Ġtremb ling
Ġimpat ient
Ġ18 25
ĠR ally
Ġsex y
Ġin ning
D aily
y ch
ĠAlb ion
Ġcar b
Ġthe ological
ĠCons ult
Ġday light
ĠMy r
Ġcomb ines
Ġw izard
ĠAdvent ure
Ġch ased
ĠC ao
ĠG ert
ĠS ales
el ius
erv ice
Ġtiss ues
p ired
Ġst am
pr on
Ġd un
com b
ĠWinc hester
ĠTour ism
ĠIn ner
ĠPat rol
ĠJer ome
Ġpat rons
Ġex empl
ĠR CA
ĠR ising
ĠH ers
re ach
â ĪĴ
Ġdis qual
bl ock
we ed
Ġlisten ers
L R
ĠSut ton
Ġbure auc
Ġfort ified
ĠJ ub
Ġdef enses
Ġtrans actions
Ġtelev ised
G reen
rod uction
Ġoccup ying
ruct ive
Ġcolor ful
ĠB ott
ut ic
Ġd ose
K O
Ġliber ty
Ġtor ch
orth y
Ġrepl ies
198 3
S un
ĠT ropical
Ġfulf illed
ĠInter est
ĠIr ving
Ġg rit
ĠBart on
Ġh iatus
iec es
Ġhonest ly
Ġdev otion
ar ius
ĠPhilharm onic
f o
ĠM anning
Ġadvoc ates
Ġob ed
M ic
ec o
ĠJacob s
et ically
B o
ĠI st
ĠT il
Ġbene ficial
Ò Ľ
ĠB attery
Ġcell ular
Ġspe eches
Ġindivid ually
Ġtrans parent
Ġski ing
Ġsh iny
Ġmed ication
un ately
ĠLe af
Ġy elling
Ġgrand parents
Ġbus hes
Ġr het
Ġinter val
Ġprosper ity
Ġmy st
prod uction
ĠFl at
Ã¼ ck
ir rel
ĠC ott
ol ish
Ġpromot es
at ile
ĠCan berra
Ġn uts
Ġpuzz led
Ġfert il
Ġdocument ation
ĠShe ikh
ĠGreat est
om bo
Ġsc are
ĠS aul
Ġgrand children
ĠF ast
B ack
Chic ago
Ġshoot er
Ġpione ering
p ound
ĠCh rys
m art
Ġâ ĪĴ
ib ald
Ġpip es
ĠCred it
p ay
ĠJul iet
Ġcraw led
Ġpost ing
ĠSin clair
ĠB enny
Ġh iking
C ount
Ġg n
ĠV amp
Ġl uc
un ate
Ġper cept
c io
P at
ĠM ant
ĠCle m
ĠClare nce
le w
Ġp irates
Ġl odge
ĠAr cher
Ġs ore
ĠTh orn
Ġreper toire
N Y
Ġconcentr ations
Ġex ited
ell es
ĠCongress ional
lighten ment
Ġprivile ge
Ġwarm ing
isp here
Ġreward ed
ĠJud ith
ĠPet erson
Ġh uh
ĠP ep
ĠDud ley
ag ree
ĠMess enger
ĠB ax
Ġweekend s
Â ½
Ġar che
ch annel
Ġpar ody
p ark
ract ion
ĠAdvent ures
ĠN H
Ġres isted
Ġ10 8
ĠG w
Ġtight ened
." "
ĠTw in
ĠIS O
h un
ĠD ors
? ?
ĠParam ount
less ness
Ġautom ated
ĠM otion
Ġcontin uation
Ġbi as
Ġsoph omore
ĠVisc ount
ust ain
Ġtil ted
Ġvict orious
ĠC unning
ĠB uk
ilib rium
Ð° ÑĤ
Ġp p
oss ibly
ĠS oci
ĠWill is
Ġimag ing
Ġfe eds
ins k
Ġsens ors
Ġgu ides
ĠBronc os
ĠInvest ment
Ġphys i
Ġgener als
ĠWend y
Do ctor
Ġlun ar
E nd
Ġs addle
Ġvir gin
Ġec clesiastical
ĠHaw ks
ib an
Roll ing
z burg
ĠAb ove
Ġn ails
ĠGar rett
ĠAbd ullah
Ġc ries
ĠB in
Ġmer it
Ġsexual ity
Ġvolunte ered
ĠPh ase
Ġal oud
Ġch ick
ĠGr ass
ĠShe ll
st ral
ĠWh ilst
Ġconvent ions
Ġqu arry
ĠTol edo
b ol
k el
Ġschool ing
Ġref usal
Ġfell owship
ĠR ules
Ġpass port
Ġun bel
ĠSix th
Ġg oss
Ġnot ices
ĠY osh
Ã ²
er ting
ch ard
Ġpol ished
ĠTurn ing
prof ile
ret ched
Ġtarget ing
Ġs aints
Ġprocess ed
uss y
Ġco eff
cut ta
ĠCol le
Ġaccum ulated
ĠO mar
Ġ" -
Ġtatto o
Ġo wed
Ġoccup ies
Ġl one
F S
Ġres ent
ĠM ih
Ġdr ill
ĠDr ug
Ġb ury
S ave
Ġint ensive
ĠSh arp
Ġobs erver
Ġinc ap
ĠBar ack
mans hip
Ġmurder er
Ġske leton
z one
Ġactiv ation
Ġhand ing
Ġunc ont
Ġfle eing
ĠAl berto
N O
ĠSh ire
ol ation
th ren
br and
Âł b
Ġcounterpart s
ĠConserv atory
D ie
M o
Ġapolog ize
ĠBM W
ĠCN N
Ġmin erals
Ġw aking
Ġspons ors
ĠC ove
il ers
ĠAnd roid
Ġas ylum
Ġspecial ty
ĠTh ous
ĠS V
ĠR ene
friend ly
ĠP asc
Ġt ires
ĠN ice
Ġdest inations
Ġdepos ited
Ġsim ul
Ġdiscover ing
ĠCompan ies
m ic
Ġal igned
ĠMan ch
ĠL uz
Ġaim ing
Ġv ain
ĠVik ings
ĠW are
Ġge ography
cont rolled
os er
ĠReturn ing
C all
Ġt ones
ĠB rick
Ġinter red
d ong
ull a
Ġcampus es
ĠW arn
Ġsuperm ark
ĠÃ ĵ
Ġsc an
ĠJ ude
Ġwand ering
ĠC ivic
Ġdet on
ĠKolk ata
Ġ18 21
Ġadm its
Ġdischar ged
Ġh ref
ĠM iz
Ġinvent ory
CO M
s ince
Ġoccur rence
ĠBagh dad
Ġlack s
Ġobsc ure
ĠBar oque
Ġ ).
fl ower
Ġconclud es
D T
ib al
Ġkn elt
ec onomic
ĠCl imate
ĠM IT
ĠAv iv
Ġcooper ative
Ġgro cery
ĠF K
Ġhun ters
Ġninet een
Ġhes it
ĠCh ip
abet es
ĠNe o
ĠT itan
ĠL ucky
Que en
ess es
cl ick
Ġd welling
Ġgrand daughter
ae a
Ġgest ured
agre b
s burg
U nder
Ġback pack
Ġmer ge
M ont
ons hire
Jes us
ĠL ands
ĠQu int
ĠAss y
Ġpl un
ĠLoren zo
Ã¡ l
Ġproport ional
Ġsubs id
Ġd Ã©
ĠSc outs
ĠB onn
let ter
Ġm akers
ĠRed s
as aki
ĠBi ology
ĠF ind
ĠGod s
ĠP ole
Ġrefr iger
Ġle ap
Ġwheel chair
ĠJo han
ĠSl am
Ġvir al
ĠPat terson
Ġfre eway
Ġcont amin
Ġtri angular
ĠKr ak
Ġmis under
amb led
Ġ10 9
Ġret ro
ĠG ov
ĠG DP
Ġmar athon
Ġm apping
ĠS ale
Ġ {
Ġviol ated
ĠÐ ¼
Ġlik ewise
Ġd rowned
ir us
P op
ĠJ al
Ġimm ers
Ġfree zing
ach y
st ated
Ġdefend ant
Ġgovernment al
iling ual
ĠB it
Per haps
ĠM ate
ag ara
Ġjust ified
Ġdiox ide
le ague
Ġcl ick
ĠJ ab
rib ly
ĠBar rett
I m
Ġdign ity
Ġp epper
up on
Ġsh ri
Ġout law
Ġemotion ally
Ġpat ches
ĠIn qu
Ġinter vals
Ġhe x
Ġpost al
ist ries
om ans
Ġr ay
ĠV ince
ĠHyder abad
Ġsoc io
Ġpage ant
Ġdevast ated
Ġg ard
Ġnot orious
is en
ĠE rie
m l
ili ated
Ġbats man
Ġp aternal
Ġquarter finals
Ġsoc ially
ĠW an
Ġout let
Ġcoordin ate
ĠÄ °
Ġconfl uence
Ġemer gence
198 2
t ailed
ĠI ber
ĠS K
ĠPsych ology
ary a
Ġne o
ĠD unn
Ġcompl iance
ĠStrateg ic
u o
ĠCal der
Ġsn akes
ad an
W S
I l
ĠLam bert
ĠFerr ari
Ġproject ion
Ġelector ate
ĠSing er
ĠR B
field s
Ġderiv ative
Ġdiss ert
---| ---|
Ġm m
Ġsub stances
ĠAm ar
ĠC ounsel
Ġ18 24
Ġdet ained
yn om
Ġ18 28
Ġra ises
ĠR ag
Ġec ological
Ġinvent or
ĠB ian
ĠElect ronic
Ġconqu er
Ġfus elage
Ġve in
Russ ian
Ġdef unct
Ġe cc
Ġcons erv
ĠF uj
Ġpeas ants
sc ill
Ġrecogn izes
Ġvis ions
Ġpossess es
ĠHeart s
Ġcomm issions
Ġd ump
ĠAl g
ĠVal encia
Ġsidew ays
ĠJes uit
ĠTe hran
Ä Ľ
Ġreinforc ements
ĠChe roke
Ġl ately
ĠB ac
Ġcre pt
Ġsh iver
ĠL ope
ĠCop yright
Ġgood ness
m our
ĠG aul
ĠN ut
Ġw ax
Ġapprox im
Ġass im
Ġsol itary
ip es
pl an
ĠD ix
ĠCarl isle
play ed
h of
act ivated
Ġdisp atched
Ġdisc ern
ong o
Ġstat ute
Ġ11 5
ĠCol legiate
ĠI L
Ġtr agic
Ġori ented
Ġp inned
Ġpass ive
ĠUz bek
ĠDuc hess
ĠNon etheless
ĠP iper
ĠT ill
Ġimpact s
Ġcompet es
Ġtest ified
Ġentertain ing
Ġst ain
ĠS ene
Ġen erg
Ġdep ressed
Ġp izza
Ġflo at
Ġassist ing
Ġdel ays
und ers
tt i
ĠChar ity
ab h
he ard
ĠTom orrow
Ġ17 90
pro of
Ġwh oles
Ġgen ome
up p
Ġmut ations
sc ape
v ine
Ġtext ile
im eters
ĠF ow
Ġse iz
Ġher ald
Ġenter prises
ĠP resent
Ġhum ble
Ġes p
Ġgarb age
Ġmoth s
ĠG ius
Ġtransfer ring
Ġdevast ating
ut tered
ĠApp lied
uit ar
Ġsw inging
Ġcolumn ist
ĠZ ur
Ġrot ating
Ġsens or
Ġhope fully
Ġpro se
19 75
197 9
c am
Ġconfirm ation
S O
fortun ate
ĠJ ed
ĠEx c
ĠMon astery
Ġrev ision
ĠMalay alam
Ġpup pet
ĠMc Le
Ġalumin um
Ġr hy
ĠEll iot
ĠEv elyn
Ġoffer ings
ĠAub urn
ĠK ais
ĠCarm en
Ġsket ches
ie ves
Ġaccount ed
lay er
s ar
Ġexceed ed
Ġle apt
Ġcock pit
s un
198 1
Ġun covered
ĠS ki
Ġdipl oma
Ġignor ance
arn a
ri que
ĠG wen
Ġto e
ĠH ak
ĠW itch
ĠJac qu
ĠNe igh
ĠK od
ĠPr att
Ġo we
Ġap ology
ĠZ agreb
h on
Ġfinal ist
ĠMart y
Ġb ounced
ĠL ect
ĠGr im
ĠCo ver
9 00
Ġb ald
arett es
Âł .
ĠBrig adier
og ram
Ġspecial izing
Ġup stream
Ġdu et
ĠNiel sen
ĠIn ternal
Ġflag s
ĠNic arag
ĠS lo
ĠBar th
ak is
Ġperf ection
Ġw agons
ĠM I
Ġende av
G ive
Ġfant astic
Ġmini ature
an ic
Ġhur d
ĠSpec ific
Ġg em
Ġflo ated
ĠA ston
Ġinnoc ence
Ġn itrogen
Ġsl im
sp oken
ĠJon as
Ġcr ude
n is
Ġcon clusions
Ġsimilar ity
Ġcatalog ue
Ġris en
S er
h olic
ĠS ew
Ġfre el
Ġcontinu ity
ĠZe us
ĠGlou cester
osp ace
Ġintrod uces
ĠCed ar
Ġer osion
ĠG A
ĠRoad s
p oints
Ġsole mn
ĠSal is
s ers
ĠR ough
ĠSt ark
min ton
At l
Ġbe ans
Ġsuff ix
Å º
ĠM its
ĠD odge
ĠMun ster
Ġdestroy ers
Ġsk ate
ĠBh ut
Ġdis par
Ġumb rella
Ġwh istle
Ġevac uation
Ġeight y
rol ley
Ġmet ro
ĠAl ps
Ġlight weight
Ġneg lect
Ġwas ted
iol a
Ġopp ose
Ġc ope
Ġrob bery
v ian
ĠL ima
Ġgl oss
Ġcr ashing
Ġday time
L o
ĠS we
Ġ18 29
Ġa isle
Ġoblig ations
des ignated
Ġrem od
ĠD oyle
ĠJose f
Ġpseud onym
Ġinc on
Ġpred ators
ĠAbb as
ĠT ac
Ġball ad
ĠCal ed
EN T
Ġca vern
Ġex iled
Ġjuven ile
sh i
1 20
Ġv iable
Ġint ake
ĠG ret
iped ia
Ġdam aging
Ġpl aint
Ġbehavi ors
E r
ĠCar penter
ĠBas el
Ġp amph
ot on
Ġpost erior
S aint
Ġz oo
F ar
ak in
ener y
am ination
Ġpain ters
K eep
. -
ĠT ate
olog ic
B B
il us
ĠTor res
af ts
Ġ" '
f ax
ĠBulld ogs
ĠHass an
Ġtr an
Ġimm ortal
Ġfail ures
ĠCorn er
anc ies
ĠL Ã³
ĠRe velation
ĠÅ ļ
ĠEl m
ĠRand olph
ĠPear son
Ġper mits
ĠTor ah
Ġout lined
eck er
st ud
Ġobst acles
ĠP oz
Ġd rought
app ers
Ġinstall ations
Ġg y
Ġbr ightly
ĠM err
ĠOm aha
osa urs
Ġtr ilogy
Ġqu ote
ĠN un
ered ith
Ġtrack ed
ĠG ott
Ġair ports
Ġphys icians
port ant
ĠPark way
wer p
Ġswe eping
ĠV and
ern e
ĠCan on
Ġl id
ĠCal cutta
Ġunn amed
in ster
ĠBo oth
Ġmasc ot
Ġtr ailed
b as
ĠMin isters
Ġsp anning
hes is
Ġint ric
ĠÐ ¸
Ġele phant
Ġinject ion
ig ma
ĠGl ory
Ġupd ates
ĠC ret
Ġrefuge e
Ġdisplay ing
oper ative
ĠHumph rey
Ġ >
ah ar
Ġsub way
ĠBritt any
Ġstret ches
ĠAugust ine
Ġcontract or
an za
ĠW en
Ġatt achment
Ġcomp artment
Ġconce aled
ĠHart ford
ĠT ort
work ing
ĠMag dal
ĠR BI
Ġassign ments
ĠF ight
ĠSch ne
Ġm ound
ĠAnd hra
ald o
Ġmarry ing
Ġpra ising
ĠNew ark
ĠO dd
Ġins ert
Ġview er
ĠThe ological
col ored
f illed
al one
ĠK et
Ġhand ic
ĠMid lands
Ġdrag ons
ĠK ub
ĠDaniel s
dr iven
ol om
ĠD at
Ġatmosp heric
it Ã©
ĠK C
rep resent
ĠCar rie
ĠAs ide
Ġre pt
ĠR oma
m ut
in ja
ĠThe o
Ġp ity
ĠLand mark
Ġsp ans
v ideo
ced ented
it ness
Ġb en
ee le
Ġswall ow
s ize
Ġauthent ic
Ġdispl acement
âĢĶ "
Ġstr angers
Ġsa uce
Ch ar
ĠP ied
ĠP anch
ĠY ak
Don nell
ĠNord ic
ĠBever ly
Ġident ifies
ĠZ oo
Ġtrans cription
Ġmist ress
os aurus
ĠHy dro
Ġstat ewide
Ġpill ars
Ġthe olog
ĠLe ah
j ee
Ġinadequ ate
ĠDec laration
Ġret ains
ĠArab ian
Ġarc ade
Ġas hes
M ore
Ġsand wich
ath lon
ut ers
Ġpoll s
Ġwh ist
Ġcom r
Ġ18 13
Fr ank
Ġhe aled
ĠChrist ina
ĠGuj arat
ĠBerm uda
ĠHam mond
M in
Ġunexpected ly
ĠQu artet
Ar thur
ĠF rem
Ġcirc uits
ĠCh u
Ġrec ount
Ġanaly st
ĠB ella
Ġpres umed
Ġdeb ates
ĠInvest ig
Ġrecru its
ÃŁ e
ĠHan over
ĠSlav ic
Ġalgorith ms
Ġcomp elled
ĠRec reation
Ġconcept ual
Ġpretend ing
Ġmerch and
V N
Ġam azed
ov ic
Ġf ury
Ġhost age
ĠT uc
ild e
ara oh
Ġwer ew
Ġsw amp
ĠP ag
Ġex ports
Somet hing
Ġpour ing
ĠMa o
ĠC BC
th or
ĠH ector
R P
Ġecc entric
ĠTunis ia
" /
ĠG Ã³
Ġstub born
ay at
Ġrac ism
Ġfin anced
ĠVeter ans
ĠUlt imately
Ġan terior
Ġsl ogan
Ġspark ed
ĠSe venth
ach ute
ĠCh loe
a q
ĠAng ola
Ġb ays
ĠH ale
Ġtable t
f al
Ġpic nic
Ġan them
Ġappro ve
Ġobs ervers
Ġanten na
Ġprofit able
ĠAle c
Ġgr ape
d ar
m ish
ĠU P
Ġcorrespond s
Ġoblig ed
197 8
ab is
Ġdet achment
be h
ĠP red
Ġenthusi astic
Ġdev ote
Ġadvertis ements
ĠChrist ie
Ġmiser able
Ġchim ney
Ġpl ots
Ġst abbed
Ġloc ker
Ġpromin ently
n ine
Ġatt ach
ĠFl ower
ĠScript ure
Ġutter ly
Ġreminis cent
Ġcompos ite
Ġide als
ĠGonz Ã¡
Ġl ymph
ro be
Ġsc roll
Ġsepar ating
ĠK oz
f u
ĠFrank ie
M I
Ġcontroll er
Ġwh ites
Ġflood s
Ġguard ian
il ight
Ġinform s
osp here
ĠConserv atives
Ġsubdiv ision
or ers
Ġsim ulation
ar ine
ĠO v
ĠEd ith
ĠFle ming
Ġbrick s
ĠRes olution
Ġreact or
Ġth irst
Ġentire ty
ĠSport ing
20 19
ĠSoviet s
Ġbless ings
ĠH ours
ĠW o
w ave
Ġgener ator
Ġorgan ism
Ġtrans fers
ĠG aza
Ġcous ins
Ġbuck et
ĠAntar ctica
Ġper tain
Ġmet ric
ĠO sw
dom en
Ġdev ised
ĠAnt io
Ġnon profit
ĠCov entry
Ð¾ Ð»
Ġdecommission ed
Ġten ants
ĠSt arr
ĠSc hed
squ are
Ġfert ile
ĠSch midt
ĠR anger
Ġaw aiting
Ġmotor way
Ġwind ing
Ġex ams
Ġcoordin ated
Ġsp or
Ġdism ant
Ġsent iment
ĠDund ee
ĠCarl ton
Ġoper as
ĠEll a
ri z
Ġrecruit ing
Ġminor ities
Ġswim mer
ĠKn own
n as
ĠF ut
Ġbeg ged
Ġb og
back ground
rib es
sh it
Ġconclud e
ĠRec ent
Ġcinem at
Ã¨ res
ici ary
ĠE ither
ĠCunning ham
Ġpot atoes
Ġmod ification
ĠAr lington
ĠT ut
Ġstraight ened
c irc
ĠVer onica
Ġliqu or
Ġghost s
ĠD uck
ĠL ug
ĠTe achers
ĠG ould
ĠRec ently
Ġprivile ges
ĠP end
ĠU d
T or
Christ ian
ac io
Ġsp erm
13 0
ĠAl leg
ĠPolit ics
Ġconfess ion
Ġ11 2
w ild
Ġtou ches
ĠPoly techn
ĠF ashion
Ġrecogn ise
ĠAm elia
Âłm i
ĠAl ess
ĠGer ard
ĠKit chen
S k
ĠFranc isc
à¤ °
Ġcas ino
ĠPars ons
ĠK ick
In ter
Ġext inction
ĠEv olution
ĠM eredith
ph al
Ġdefe ats
ĠH ok
x x
Ġtrail ing
ĠVan essa
Ġ11 1
Ġcan e
Ġjust ify
Ġpol ynom
ĠL una
ĠGonzÃ¡ lez
ĠPro bably
Ġprem ium
Ġaver aging
ĠBang kok
ĠI rene
Ġmasc uline
Ġant is
Ġredd ish
w ife
at l
ĠHold ings
heim er
ĠIceland ic
ul ia
ĠGius eppe
ĠSlow ly
W F
Ġexpl ores
Ġim ped
ĠTom atoes
Ġdecor ations
ĠMagn us
ĠW arm
ĠF ol
Ġcalc ium
Ġkind ness
f rey
ĠIn str
ĠReserv oir
ew ood
Ġring ing
Ġb izarre
Ġball oon
ĠMap le
Ġwrest lers
Ġsod ium
Ġp ending
Ġmart yr
197 4
ĠT es
Ġic onic
h om
ĠHer r
Ġaqu atic
Ġinf ect
ĠGal axy
Ġnob les
ĠBeaut y
Ġcont empt
Ġv ague
ĠMiddles ex
F O
ĠD uk
ry pt
ĠY i
ger ald
Ġconstr aints
an u
Ġar ches
Ġmon etary
ĠB om
Ġ18 26
ĠM iy
int age
ĠFI BA
Ġmus cular
Ġ18 18
Ġeld ers
ĠIt al
c ue
oot ed
ĠAs k
Ġhold ers
Ã¨ ne
Ġunp re
A z
Ġmel ted
Ġresid ences
Ġ4 50
ĠR ang
ĠThe ss
com mon
mar ried
Ġins cribed
Ġsens itivity
ion a
ĠSalis bury
T M
ĠM ets
ĠV era
Ġscrap ped
ĠVenezuel an
Ġconfess ed
l ich
ific ant
Ġentreprene urs
b ahn
Ġeight eenth
Ġsign aling
an ity
ic ultural
ĠOcc up
Ġch ord
Ġunder going
ĠCheroke e
Ġr all
Ġun stable
Ġguard ed
r ak
Ġfl ashing
ab ar
Ġresemb led
Ġa fore
M ost
Tr ans
Ġcamp ing
Ġpip eline
ĠLÃ³ pez
Ġlim iting
Ġfort ifications
Ġm ont
ĠJ agu
Ġmat ric
ĠCr isis
ĠL und
Ġbr akes
ĠM und
Ġfix ture
Ġsm ashed
ĠJ ing
tend ed
Ø ³
M c
sh ow
Ġpress ures
re b
Ġsp ill
Ġurg ent
D amn
Ġfold ing
Ġcop ied
ĠE specially
ok i
br al
ĠF arr
iz zy
o ic
ĠR ach
ĠB olog
ĠReg ina
R ob
Ġá ¼
F ort
g el
Ġh iring
ge ons
ĠC ities
ĠCl aus
ĠRoll ing
ĠV ul
anc el
ĠTre k
ĠBh ar
Ġelect rom
Ġsh ark
f orth
cyl inder
ĠP ool
197 7
Ġinstitut ed
M om
y u
Ġcour thouse
Ġsh ores
Ġhe ights
Ġcondem n
ĠBas que
ĠD aisy
ĠâĢ İ
Ġass ure
ĠSim mons
s ville
on er
ĠHow e
Ġdispers ed
Ġd ot
Ġdef icit
197 6
ĠS ob
Al right
Ġrebu ilding
Ġpitch ing
Ġsuperv isor
Ġad orn
Ġe ased
ĠNor a
Ġ17 0
Ġp ays
Ġl amps
ip le
Ġorganiz ational
Ġt ech
Ġat om
ĠHol t
Ġen force
Ġplay ground
ĠM aking
Ar ab
o ften
Ġmountain ous
re cht
Ġmathematic ian
ĠTr acks
Ġsynd icated
197 3
Ġske let
Ġgrou ped
Ġsus cept
to o
ĠEll ie
ĠShe ila
ia e
ĠSy nd
ĠT D
il ated
Ġincl ined
Ġtra vers
Ġaud itorium
ian c
ĠMart ine
Ġ u
R o
Ġbl ows
ĠProper ty
ĠAnt werp
ĠOl ive
af i
ĠMack enzie
Ġm ug
ĠP ius
ĠLope z
Ġabs urd
ĠH os
Ġappe als
back er
ĠTe en
ĠPerform ing
ĠBark er
Ġlocal ities
ĠNorm al
ĠG uru
u ations
ĠHall ow
Ġtoler ance
197 2
Ġobl igation
7 50
Ġspokes man
Ġl av
ĠZ ak
Ġdig est
ĠGr ac
Ġ1 19
d ou
Ġcult iv
ject s
C ont
Ġkind erg
z yn
Ġphot ographic
ĠTit ans
ĠR i
ey er
Ġfire arms
Ġpartnership s
Ġundef eated
Ġsick ness
ink le
Ġrend ering
ĠChes hire
Ġcl iffs
Ġpir ate
f alls
ĠMong olia
ĠF res
Ġpar an
op a
Ġac et
ĠLe vi
l ast
ĠP engu
Ġon set
Ġpers istent
ĠM og
Ġ à
gro ve
Ġinterf ere
ĠGl ad
L ord
ĠImp ro
Ġt an
Ġspec ulated
tt a
Ġcan oe
ĠAl ways
act ly
ĠD ante
ĠBeaut iful
it le
Ġover c
ĠTur in
Ġhop eless
Ġdup lic
Ġbas al
ĠMaced onian
d ated
ĠP ike
ĠAndre as
Ġhold ings
Ġdisturb ing
ä º
ĠWalk ing
ĠSe lect
L ondon
ut ory
Ġcas ually
Ġgorge ous
Ġell ip
Ġ12 8
che z
ĠPar ade
F I
ĠPra irie
ĠBull s
ĠComm odore
Ġrib bon
ĠPaul a
ih ad
Ġinf ring
ĠAb el
Ġpedest rian
Will iam
ay ette
ĠA ck
O ver
ĠP L
Ġneck lace
Ġa we
ĠR w
ĠN igel
Ġvic ar
ĠRou ge
Ġdrag ging
ĠBah rain
op us
al ach
ĠSe v
Ġcorrect ed
ĠI ps
Ġappoint ments
ren ched
Ġo mn
Ġtheat res
ert iary
Ġcart oons
ĠDeut sche
T P
z ew
Ġstr ongh
road s
Ġun related
Ġo scill
opr ano
ĠHon our
ĠH ilton
Ġnew com
ĠO kin
Ġrob ots
Ġcat ast
asc us
Ġcryst als
er land
Ġpat ents
ĠMid west
H en
Ġsuper intendent
Ġexplo itation
Ġsne ak
al om
appropri ate
Ġm elt
Ġfire f
Ġretrie ved
ĠAir ways
Ġh ay
ĠIs abel
Ġzomb ie
Ġd ental
um ann
ship s
Ø ¨
th irds
Ġ18 16
m ere
ĠH ag
Ġsc anning
uv ian
Ġour s
ow itz
Ġsatell ites
ĠL ep
ĠSey mour
Ġmot iv
ĠWander ers
ĠD epend
ĠLe Ã³n
Ġobl iv
. ",
n ame
ph oon
ĠS Ã©
Ġdissert ation
Ġprocess or
Ġrabb it
Ð¸ Ð½
Ġprocess ion
ul ing
ĠD oming
Ġsuggest ions
it ism
Ġdisapp ointing
U l
ĠD E
Ġsp it
C omp
Ġp arl
ĠB ing
ĠM ud
col or
ĠAsh ton
ols hev
Ġcap ped
ĠA be
ĠDo ct
Ġbr ains
Ġres ol
Ġdown ward
ch in
Ġsa fer
ĠSun ny
Ġc ros
st a
Ġscript s
Ġann ounce
ĠVik tor
ob ia
atin um
) (
Ġen vision
Ġgas oline
Ġreg ulate
st ore
List en
ÃŃ o
Ġkn ot
Ġmeaning ful
ĠGener ally
ell ite
Ġ180 6
ĠDam n
ĠVe hic
Ġl ava
he id
ĠVik ing
Ġunpre cedented
ure n
ĠN ou
ĠRivers ide
ĠP erm
Ġfire place
ĠCl ose
th ia
ĠEm irates
ĠD O
Ġspat ial
Ġver dict
ĠUnivers ities
ĠDal ton
Ġs uck
ĠJ ain
Ġencour agement
Ġape x
n ch
ĠF i
ĠUr s
ĠI R
y es
ones e
Ġinv iting
Ġred ist
Ġkingdom s
Ġle ver
Ê »
Ġurg ing
Ġattract ing
ĠBron x
ha el
ĠBlack burn
Ġfl ip
ĠTradition al
ĠD M
ĠGr aves
ab o
ĠC asc
id ia
Japan ese
ĠDr ag
Ġmodel ed
Ġsurpass ed
f em
ĠRe bell
Ġbackground s
ĠM k
Ġcan opy
ev il
ĠWhe eler
S B
Ġre ctor
est ine
ĠStev enson
Ġorigin ating
Ġw anna
ual a
ĠSw imming
inc ed
ĠV on
Ġind ul
Ġsar cast
Ġinv alid
Ġcame o
Ġpop ul
Âł "
Ġprolong ed
A I
ĠPay ne
Ġunanim ously
ĠL Ã¼
c ip
avel ength
ĠR ath
ĠF ritz
oll a
Ġ180 1
Ġfe as
Ġde le
Ġun fortunately
vent ions
Ġexcav ated
Ġnational ism
Ġcouncill ors
ĠUn ity
ĠMÄģ ori
Ġ5 000
ĠRav ens
ĠWe ber
N ight
Ġcor al
ĠFitz gerald
Ä ĵ
n orth
Ġdet er
ĠIr is
and an
ĠSax on
Ġpriv at
Ġl ent
ba um
ĠG ob
ĠParagu ay
Ġhyd raul
Ġnot icing
ĠEn c
b ore
S ax
Ġcand y
l ig
im edia
ĠLiber t
ĠD over
ĠL ester
Ġgrab s
Ġcryst all
Ġreconstr ucted
Ġprompt ing
ĠBr aves
ĠCe lebr
at ur
ĠS idd
ce ans
Ġinfl amm
Ġexcav ations
ap le
w ear
Ġstick ing
Ġm ars
ĠCh oir
ĠBar ber
Ġsp raw
ĠD ifferent
Ġbes ie
Ġy acht
Ġsl ate
ĠW et
ra red
ĠA va
al on
ĠOrgan isation
ig rap
ay e
Ġanch ored
ĠSh im
L ast
omin ated
Ã¶ m
b ows
hys ics
ĠS my
Ġper ennial
ĠJess ie
ĠReform ed
Ġembarrass ment
ops is
Ġ ul
ĠC ullen
ĠAltern ative
ĠCub s
ĠDres den
ĠMich a
ĠSh ut
ĠBe aver
ĠZh u
Ġrelie ve
ĠÃ ħ
em y
Ġillumin ated
is eries
ĠElis abeth
l ake
ĠAustral ians
ha ired
ĠSav annah
Ġco ordination
ĠStand ards
Ġinc oming
ĠG ut
ĠÎ ±
Ġth ief
Ġsqu at
Ġ179 3
Ġlic ensing
Ġshort age
r ils
Ġab domen
ĠD ash
Ġdest ined
icular ly
ĠH ang
oy er
ĠUC I
est an
L uc
Ġl iability
n ick
Ġj ar
Ġhum orous
Ġcl ad
St r
Ġep onymous
Ġb atch
Ġport able
Ġprophe cy
Ġforest ed
ĠAugust a
ĠRel ief
ac cess
Ġnodd ing
ĠSund ays
Ġ ump
ĠR ak
ĠC able
ĠEl ite
Ġge ological
ĠBe e
ĠCam den
ĠG el
Ġwh ip
Ġh arn
V er
ĠL inn
ĠJ asper
Ġ18 27
ur rection
ĠWal ton
ĠGal way
ĠB ally
St ate
Ġspec ification
udd led
ĠH BO
C ategory
ĠDw ight
Ġpo etic
Ġreprod uction
ĠTh ing
ĠDown s
ĠS amp
ĠB res
Ġmor ality
Ġp ie
Ġbund le
X X
Ġcho oses
Ġ2 20
ĠA AA
ĠC ors
ĠHar riet
Ġlan tern
Ġcompr ise
Ġsl ipping
ĠM O
ĠMin i
ĠC ategory
Ġeconom ist
Ġy ell
ĠAng ie
ĠSt art
ĠL ans
Ġdoub ted
l oss
le af
Ġ____ ___
ĠE arn
pect ives
Ġde ed
ĠEven ing
Ġthick ness
ĠAssoci ates
B ob
por a
ĠGu err
ĠP ue
ĠG iant
Ġgeomet ric
ov Ã¡
ush i
Ġreorgan ized
Ġ `
uther land
Ġmob ility
Ġun fortunate
ĠT iff
Ġvow el
Ġair plane
n or
at an
Ġcons ume
ÅĦ ski
um ar
Ġprecurs or
ily n
Ġgas p
Ġf ooth
Ġp its
ĠCount ess
form ing
Ġstir red
ier re
Ġg room
Ġa rous
ĠY as
Ġprov ing
ĠDe al
ĠMu gh
à¦ ¾
Ġr ude
ĠK ah
p rop
on te
her ty
ĠAtl as
Ġfolk lore
ĠAnn iversary
arl ow
Ġpostp oned
b ag
Ġbuild er
Ġle ak
Ġno ises
Ġpack ages
ĠCh ance
Ġab normal
ĠAn k
ĠÙ ħ
Ġstand ings
M od
Ġj unk
ĠL ena
ĠCon vers
Ġdist ribute
ĠWest on
Ġelect rons
m ine
Ġsol ving
Ġb un
ĠB rem
ĠNo el
Ġdiscuss es
asm ine
Ġalleg iance
haw k
est ial
ĠGaz ette
ĠIn clud
Ġpres ided
ĠW B
L and
Ġinterpret ations
ĠF CC
Ġpatrol s
ĠMoz art
Ġ180 3
ĠM W
ĠRand all
i ator
ĠK yr
Ġflat ten
Ġmort gage
Ġextract ion
Ġfa Ã§
Ġterror ists
Ġre vel
Ġneg lected
ib i
Ġpres cribed
IA A
Ġwor m
ra il
lo ads
am oto
D el
Ġd os
ĠIs les
Ġcycl ist
ol er
Ġequ ilibrium
Ġacceler ated
R ec
rod uced
M er
ĠHu ang
ĠZh ou
ĠS abb
ĠMos que
ĠS ept
Ġinf ections
p iring
Ġd od
ĠT ou
Ġb od
Ġd ared
Ġdraw er
Ã ¬
ĠG ore
Ġdefin itions
ĠKat rina
roll er
ĠPort o
ĠRaj as
br ight
Ġunch anged
Ġhy ster
ĠL ec
abs burg
ur ry
Ġdis abilities
Ġexp ose
Ġpiss ed
Ġsn orted
Ġstruct ured
Ġs ized
gr av
Ġsad ly
ĠT ap
ĠP asha
s ung
Ġplant ations
ent er
ĠAlf onso
view ed
et us
Ã¢te au
Ġeconom ically
ĠSch war
ĠHans en
ĠFe eling
Ġbank er
Ġn odes
Ġbe es
Ġharass ment
ĠBab a
om at
Ġrepe ating
Ġk idding
pt ions
Ġcurrent s
rehens ion
Ġtrou sers
D avid
ge ance
Ġhaun ted
Ġ18 19
Ġw ander
ĠB Ã©
Ġash amed
Ġbureauc r
Ġreact ed
ĠBang alore
on ge
Ġj og
Ġp rick
Ġsubdiv ided
Ġpost ers
Ġaccording ly
ĠPer kins
Ġrespond ing
Ġp yramid
Ġneur ons
ĠB oul
Ġcomp ression
ĠF arn
d ate
Ġdomin ate
ĠConn ie
Ġf el
Ġens ured
ch al
D ef
og ues
ful l
ĠF ew
ant an
at ical
ĠE up
com fort
ĠP K
ĠAd ults
Ġprem ature
Ġinvest or
Ġimplement ing
Ġoverh aul
You ng
197 1
o vers
Ġhy mn
Ġabsor b
ĠHold en
ĠRodrig uez
ĠW ave
Ġmic rob
ĠMac Donald
ĠRob bie
Ġcr ad
ĠO rient
ĠBundes liga
Ġgl ancing
ĠD mit
ĠI CC
Ġmoist ure
ple ments
Ġdismiss al
Ġd uel
Ġrec apt
ĠAr chie
ĠN ames
Ġselect ive
Ġsinc er
ĠN W
Ġf Ã¼r
ĠMad ame
Ġmess enger
cl ing
Ġsc ary
Ġsw ore
Ġappar atus
ĠSh o
Ġelimin ating
Ġpol ite
Ġpol es
ie vers
ĠM ai
Ġresur rection
Ġbe f
ĠMov ing
Ġc os
ĠF landers
Ġden ial
Ġse ize
Ġadvertis ement
aw an
min ent
ĠWilliam son
Ġacadem ics
ĠHigh lands
Ġgl uc
me aning
Ġiss uing
Ðµ ÑĤ
Ġsymp ath
isl av
ĠBy r
ĠE ly
c orn
s son
s ol
ĠAdmiral ty
ex per
ĠColle ges
ĠTechn ologies
Ġprosecut or
Ġwork force
ĠW ire
Ġapprent ice
Ġw ipe
Ġch unk
Ġtre ason
Ġextract ed
ĠBl ind
ĠL oss
Ġr ack
ĠDon ovan
F our
ull s
ĠD ex
Ġpref ix
Ġref lex
ar cer
Ġenjoy s
ĠG ior
Ġout rage
ĠChe ck
m atic
av is
Ġad verse
Ġinf amous
I X
ĠC ody
op hyll
s ided
ĠSure ly
ge e
Ġintercept ed
ĠA K
Ġp anc
Ġpre aching
Ġres ervation
p us
Ġgovern ors
ĠFig ure
Ġhes itation
Ġvac ated
ub en
at ivity
Ġsh akes
or an
Ġdimin ished
empt ion
auth ored
Ġcolon ists
ĠEthiop ian
Ġr aped
Ġreprod uctive
iy ah
196 8
ill i
ĠS L
Ġancest ral
196 9
Ġbe asts
writ ers
Ġtrad es
ĠAll Music
Ġs acks
Ġvill a
ĠHor ace
inn ess
ĠSome how
Ġcreat ivity
Ġapplic able
Ġharm on
ĠPart n
ĠMoh amed
Ġre app
ve z
ĠWit ness
ĠR E
utt gart
ĠN ell
he a
Ġdeb ated
ĠBuch arest
ĠSt yle
Ġcoast line
ĠGreen wich
ĠT C
Ġtownship s
Ġdisc arded
Ġgl orious
ĠDam ascus
ĠT ales
Ġshare holders
v iol
ĠShel ley
so lete
Ġshout s
ĠRup ert
Ġb ob
Ġwa ived
Ġsubordin ate
ĠNew sp
F re
Ġtop s
Ġapp et
E v
red itation
h ai
ob il
Ġwor ries
at y
ĠN ab
Ġphys icist
Ġplant ing
ĠEvangel ical
Ġ um
m ie
ĠAn alysis
ĠKnow ledge
ĠEnt ry
ĠCl ive
n ance
Ġcouncill or
Ġnumber ing
ĠN ile
R ich
and ez
ĠOr t
ĠX u
Ġ iv
air craft
Ġ180 9
Ġcomb inations
Ġst aging
Ġchief s
cul osis
A ir
Ġencour ages
Ġintention ally
Ġnew est
Ġsal mon
ĠK ant
Ġsque eze
Ġdiscover ies
R ev
ĠAbb ott
Ġdep iction
ĠChand ler
ĠE instein
ambo o
Ġcomplex es
ĠPap a
ĠEm manuel
Ġin herent
Ġwild ly
azz o
Ġbr ake
Ġunl ocked
ipp ers
Ġcompuls ory
Ġvot er
ast rous
Ġresemb ling
Ġoff ence
ĠTyp ically
ipe i
Ġconfer red
cha ft
Ġpilgrim age
Ġbirth place
Ġex ecute
Ġ18 22
ĠF ra
H P
Ġn ode
gu y
" ("
p end
H ome
Ġsucc umb
ĠT orn
ong a
Ġag ony
Ġt iger
ĠInt el
ur ian
ur red
d og
t ec
ĠB iblical
Ġo ch
ĠV ista
ĠCh op
V I
h ome
Ġpractition ers
Ġstri pes
w on
ĠI k
Ã¤ n
Ġn arc
B ad
Ġburn s
ĠHaw kins
Ġimag inary
ĠH ipp
h ov
ĠTom as
t able
ĠP BS
ĠCal d
S pe
Ġw ield
Ġaff irm
V al
en ko
ĠArchitect s
ung a
Ġdis rupt
H ell
H am
Ġsyn agogue
Ġlim p
Ò ¯
Ġt ipped
n ica
ĠC ey
Ġmir rors
ib e
ĠKr as
hn e
Ġ18 23
U m
Ġmar vel
ac r
ustr ated
Ġhe el
ograp hers
Ġhur ting
Ð¾ ÑĢ
grad ation
W as
Ġam used
ĠT ouch
o ids
Ġlim b
Ġad miral
ĠAl v
Ġcon e
Ġrepresent ations
Ġdisgu ise
ĠMar vin
ĠA ly
Ġwin ters
ĠCann es
um ont
roc od
L ong
ĠE cho
he us
ĠLaure nt
". "
Ġgrat itude
Ġsp oon
Ġref ined
ĠMar a
Ġcollect ors
ĠEarl ier
ĠAdministr ative
Ġcompl ain
ĠMur d
ĠNum erous
Ġp end
1 10
ent in
Ġam az
Î º
Ġcan cell
ĠCr an
ĠCreat or
ĠSt ones
Ġdel icious
ĠNathan iel
h ig
or ie
Ġfore most
) -
Ġtribut aries
Ġtrans cript
lar gest
Ġf ade
Ġtravel ers
Ġdescend ing
Å ĳ
Ġfore cast
Ġtelesc ope
Ġd umped
Ġ ÏĦ
Ġair s
ĠMy ers
ĠDream s
ij ah
Ġmin s
ĠP epper
Ġkn ights
ason ry
Ġcaptain ed
ĠCat alan
Ġneighb ours
ĠEst her
ĠN iss
ĠN aw
ĠW ords
Ġprob able
Ġpres ently
g ren
G irl
Ġp hyl
ĠT ess
Ġarm oured
Ġcy t
Ġab used
Ġrecept ions
ot hed
Ġwh im
ĠLight ning
ĠUlt imate
Ġf iling
ĠM ister
ot ive
Ġover ly
J P
Ġbeet les
Ġun av
Ġwell s
Ġcampaign ed
Ġcaf Ã©
ĠFront ier
ĠClif ford
ĠPer fect
ĠWater loo
Ġvis a
ĠBet a
Ġne ural
ĠGo ing
contin ental
g em
ĠPr ayer
j un
ĠGreen land
roph ic
ĠD ise
Ġbl unt
ĠAut umn
Sp anish
à º
Ġmat t
Ġchuck le
ĠP ip
ĠKann ada
ĠBr an
Ġdevelopment al
Ġfrag ile
Ġcirc us
Ġdress es
ĠL up
ĠY ar
Ġ( âĢľ
s il
Ġrep ent
record ed
Ġorb ital
Ġd ella
ĠBudd y
Ġfl ora
umb les
Ġax e
lar ge
Ġext ensions
D an
ĠFl int
W ashington
D er
ĠW izard
ĠV es
get s
l ot
ĠMar se
Ġphr ases
ĠJerem iah
ĠSam oa
ĠD raw
Ġb ump
onduct or
Ġcongr at
ĠH IS
ĠAntio ch
Ġwh ale
Ã¡ d
M ark
Ġlo ads
Ġex ported
ĠH absburg
m ounted
ĠS add
Ġt ast
Ġsh irts
sh an
Ġw ires
ĠC ain
mark ed
ĠA id
Ġg i
Ġrefer enced
Ġdemonstr ates
Ġpro stitution
Ġdisc rimin
Ġlog s
st re
ple asant
ĠSom alia
Ġfr aternity
Ġemploy ing
Ġsplit ting
anc ock
it ud
ĠM uss
aster ies
ang i
Ġsem ic
Ġconstruct ing
w itz
Ġcommun al
Ġl amb
Ġthigh s
Ġmean ings
Ġprov es
Ġcig arettes
inos aur
ĠCar th
Ġ180 8
ĠRe e
in ians
ĠT ao
ĠCar bon
ĠKnow ing
ĠDep ot
agg ered
Ġw eld
pr ints
Ġsp iders
Ġprev ents
ow ment
Ġ18 17
ell ular
omet ry
ch an
f est
fl ix
Ġtext ure
ĠRef uge
Ġch ol
ĠH ip
Ġgri ev
ĠTex t
ĠÃ ĩ
Ġdefin ite
ĠEp ic
ĠR ama
ĠHer c
udd le
Ġearn est
r aine
ĠG entle
ĠÂ ·
ĠK athy
ball s
Ġconting ent
Ġharm ful
ĠE uc
ĠP GA
ĠP oints
ĠArist ot
Ġgrant ing
m ount
Ġt earing
ĠB onnie
Ġadmin ister
Ġdict ators
ĠH ague
ec ourse
ĠInnov ation
b ig
Ġfl avor
ĠSupport ing
t ford
ĠA ve
ns ic
ĠNikol ai
ĠHond uras
ĠApp roximately
Ġpredecess ors
Every thing
ĠIps wich
Ġp ix
ĠPerson al
ĠBrother hood
ĠH ess
Ġident ities
Ġt ug
ĠY us
Ġp ills
Ġd itch
x y
Ġten or
Ġobject ed
Ġass umes
r anking
D O
un ion
er get
ĠO man
ĠA val
Ġgrad ual
Ġcurtain s
Ġdis ob
Ġclear ance
M T
at ore
ĠN ah
Ġrecogn izing
Ġdang ers
st y
Ġdeterm ines
o oped
B er
ĠAng us
ĠK ry
Pac ific
ĠLomb ard
Ġh ards
Ġcard inal
Ġm ural
st ation
Fr ance
ĠRebell ion
Ġinc omp
Ġcommit ting
Ġfung i
ĠM B
c os
Ġdeliber ate
Ġta vern
in ist
Ġste als
Ġsl umped
orn ings
b ecause
Ġn ip
ĠB io
Ġnetwork ing
Ġhum our
Ġblank ets
dist rict
Ġmean while
ĠAl am
Ġw inked
Ġh ipp
Ġdis gr
ĠV C
Cap tain
Ġutil ize
Ġanaly zed
Ġgreet ing
ĠLank an
Ġwh ipped
n h
ĠMarc os
Ġcoc aine
Ġexh aled
ĠP arent
Ġs ights
ĠOw ens
ĠSteel ers
gener ation
ĠArch diocese
ĠP urd
ĠStr ange
ĠH C
ann ers
Ġsem ester
Ġenzym es
ĠMorm on
n ear
Ġur anium
Ġforeign ers
Ġjud gement
Âł l
ĠBax ter
ĠB am
am orph
Ġro ared
Ġun le
fl ight
ject ive
Ġremind s
ro gen
ick er
Ġpre acher
ĠAct ing
Ġan ts
Ġinc arcer
Ġfig ur
Ġc ush
ol esc
ĠK ak
ore an
Ġr ans
Ġmis ery
Ġemp ower
Ġpsychiat ric
Ġag gression
Ġple a
Ġmut ation
Ġbarrel s
ĠF ischer
h ound
p i
Ġdream ing
bet ween
Ġcondition ing
or io
Ġresid ency
Ġalco holic
ĠX ia
ĠEliz a
Ġw avelength
Ġfare well
ĠLe h
Ġbapt ism
ĠRe leased
ĠAur ora
Ġresur rect
p ol
Ġnomin al
Ġ179 4
Ġroof s
Ġdis astrous
ĠÐ ¶
Ġte ased
Ġhand ball
196 7
iot ic
Ġ179 8
og i
Ġme g
Ġde ple
Ġc ares
Ġninet y
ĠMin ing
ember g
Ġpatri arch
g re
g uez
ĠElect ions
ĠPur ple
V ar
ĠB irds
12 5
am us
ĠEm erson
ev ille
Ġwarn ings
ĠCol ts
Ġfr ig
if iable
Ġcon gest
Ġhe red
Ġg ra
Ġprophe ts
Ġexp osing
ĠP ors
ĠE CO
ĠW R
ĠH R
ĠSt uttgart
ĠV ia
Ġp agan
ĠH enn
Ġsmir ked
w ic
Ġro ar
Ġmod ules
Ġexplos ives
Ġpap al
Ġsem inary
Ġdead line
ure l
ĠBe ir
ag her
Ġcast e
Ġread ings
Ġst rode
Ġdiss em
Ġmort ar
Ġc ables
st aff
Ġkidn apping
if ter
00 00
Ġstun ning
Ġsail or
echn ology
qu ality
ĠSuper intendent
ĠHold ing
ĠL ig
ĠRe ally
ra x
ĠRun ning
Ġm osa
c up
Ġche aper
ĠJ ourney
ĠSol id
ĠSch u
ar ie
bl ood
Ġconven ience
Ġnot ation
Ġexped itions
s ite
ĠTa ipei
ĠWolf e
Ġl umin
ĠG Ã¼
Ġhomosexual ity
Ġon ward
ĠOther wise
Ġro pes
Ġl ump
ĠPast or
ç ļ
ĠAut om
Ġfunctional ity
Ġbeh ave
F i
Ġ18 11
Ġconclud ing
bl ue
og ne
ĠD il
ĠSh ui
Ġdi oces
n umbered
Ġen erget
v ik
ĠRic ardo
Ġdisapp earing
Ġspend s
T F
Ġg able
ĠD R
ĠMel anie
op ot
Ġmot ive
ĠChamber lain
Ġash ore
ĠQual ity
O per
Ġbr ack
Ġwhere in
Ġad ren
Ch inese
ĠG iles
Ġ16 00
ĠJenn ings
Ġgentle men
Ġs ul
S im
ĠPle asant
ĠBolog na
Ġis ot
un it
ĠSh ay
Ġr anged
ĠT R
ĠS ain
uzz le
ĠI ch
ĠK ip
ĠNe al
Ġeval uate
ograph s
Ġro oted
b ilt
r ude
ĠLat vian
ank a
in ished
S a
Ġcustom ary
ĠAlex is
us ch
ĠAn ita
Ġexp ans
ro let
Ġcol span
och ond
Ġrenov ations
a qu
Ġcontain ers
ĠC ir
ĠLaw son
Ġprop ose
ĠA in
Ġbest owed
ĠId ent
at as
Ġdest ructive
i ov
Ġhon oured
gl omer
ĠK and
Ġred und
æ Ŀ
ĠE ra
Ġhom age
Ġexpress es
Ġ179 5
Ġlif ts
ĠAust ro
ĠF ou
Ġpre historic
ĠT ad
ĠSup erv
Ġprovision al
ar nt
ĠCarm el
Ġaw oke
P o
ĠOs aka
rÃŃ guez
Ġin ward
Ġpres idents
Ġrecip roc
A lex
m illion
Ġchar ming
ĠSh ot
Ġpe asant
it ri
te f
Ġinv ari
ĠP iano
ĠLiber als
ish ly
Ġconcept ion
Ġ180 7
ĠWarri or
ch y
ig l
ĠW ah
G ame
Ġ180 5
ĠCom ic
ĠL j
f its
ĠG ap
ES T
Ġkinderg arten
Ġaltern ating
ay ana
Ġculmin ated
Ġtransl ates
rap er
Ġdocument aries
Ġf ading
Ġob solete
ĠAl ison
Ġ11 3
Ġmicro phone
ep er
Ġbomb ardment
Ġw ines
ĠSp ot
ur an
fer red
Ġsell s
Is lam
Ġsurf aced
c ies
Ġmat urity
ĠC oul
Sp ace
ĠW ine
Ġtrans cend
Ġcur ator
en ian
ĠT uls
Ġpar ag
Ġsh udd
Ġt inted
c ourse
ĠN iz
ĠC oc
c s
Ġg ases
ĠH P
ĠAr gy
ĠHel p
ĠId ol
ĠRy der
ĠAnt oine
l ifting
w aters
å ¤
Ġst ares
Ġmigr ants
ï¼ Į
ĠVol leyball
ĠRod rÃŃguez
at ches
Ġs add
ĠDerby shire
ĠSund erland
ĠG erry
Ġt rolley
Ġfl uct
x ic
T y
ĠNational s
ĠBra un
ĠS ek
H old
Ġst unt
Ġr h
ĠN im
J ames
Ġwe aker
Ġfl ute
Ġfund raising
Ġdelight ed
Ġyour selves
Ġjud ging
ĠExpress way
ĠRena ult
ab outs
Ġsab ot
Ġmel ting
Ġslight est
ĠM GM
Ġeval uated
Ġkey boards
V ict
ĠSt eele
Ġannounc er
Ġsymmet ry
Ġkn ives
ĠWy att
Hist ory
est a
Ġem blem
Ġveget able
H ol
ĠDors et
ĠO R
ans en
Ġdisc ourse
ĠS od
ĠR ig
ĠP emb
ĠPer uvian
Ġgymn asium
Ġmet h
Ġnum b
g rown
Ġpatron age
ĠW ash
Ġdi abetes
Ġcomp rehend
D is
t elling
Ġj ockey
Ġwest ward
Ġre nder
Ġsun set
Ġamb ition
ĠF urn
Âł 2
âĢ ¬
ĠW igan
Ġsec re
Ġyield s
ĠApost olic
ĠI RA
Ġglob ally
ĠB aj
Ġstock s
ĠRob b
Sm ith
ĠMoz amb
as so
Ġpro claim
19 45
Ġcy ber
10 1
ĠExt ra
Ġpro be
r ust
ĠRiver a
Ġpres erving
Ġshow case
ĠMcC art
Ġrail s
ĠTrib unal
Ġassass in
Ġarbit rary
Ġf ianc
Ġsupport ive
Ġen forced
Ġdes irable
ĠHar lem
ĠRap ids
Ġblock ade
ĠEis enh
Ġinter rupt
ĠV or
Ġturb ine
ĠS utherland
ĠM LS
ĠRen Ã©
Ġch op
Ġm ates
ĠS uf
In ternational
ĠC ron
Ġplat oon
Ġbow ler
ac cept
Ġimp osing
n eck
is se
ĠRes cue
Ġthreat en
Ġlegit im
Ġle arnt
Ġundert ake
Ġam en
Ġprol ifer
m oon
ĠPrim era
Ġch ancellor
Ġscr ambled
ĠBeck y
Ġastr onomy
ĠGerman ic
ĠDev ils
Ġ11 6
ĠC oss
S em
f if
Can adian
ĠPartn ership
Ġpromot er
Ġser vers
Ġcl ues
Ġapprent ices
ĠMar i
pro fess
Ġup side
Ġ180 4
d ig
Ġaw a
Ġhead ache
ĠWhe el
Ġbreath s
Ġun re
ĠBre nd
ĠThor nton
Ġadop ting
ĠGu itar
Ġorche stral
ĠT ip
ĠO ss
Ġprot ector
im us
Ġlaund ry
ĠCyr us
ĠSet tlement
ĠR ider
ĠDr am
ĠNor se
Ġpar aly
Ġpar ap
Ġwater fall
m ese
Ġsoci ology
ĠMon ster
h aven
m eter
Ġpav ement
ĠLaure nce
Ġexpl orer
Ġbe e
ĠWe ap
ĠEst ablished
ĠTrust ees
a er
Ġwr ath
ĠGovernor ate
ĠLaf ayette
ĠMar ilyn
Ġde port
Ġgross ed
es is
ĠC rew
us z
Ġwhis pers
Ġven om
ĠPack ers
oll ah
Ġcontribut es
Ġcl ans
19 30
.... ....
ĠLenn on
Ġturn out
Ġwr ists
Ġsubscript ion
ĠT eddy
Ã¨ ge
ĠCorinth ians
ĠPh i
ot i
Ġpsych ologist
Ġcont ests
Ġbeg ging
ĠDe er
D ead
ĠH anna
ĠOpp osition
Ġfr igate
Ġsw am
ĠBuch anan
e very
Ġinspect or
Ġcourt esy
Ġtra um
s igned
htt ps
Ġso ber
el ope
ia ison
Ġwars hips
H ot
ĠLand ing
t ier
Ġsel dom
Ġsur plus
ĠFred die
ĠJak arta
am iliar
D D
Ġd ots
ĠR uf
Ġcomment ators
Ġdiam onds
ĠØ ¨
Ġrever ted
Ġcirc a
on el
ah on
ĠBah Ã¡
Ġt unes
Ġpop e
Ġn onsense
ĠR M
ĠR im
Ġdon or
Ġl ining
Ġlik elihood
Ġdre amed
b lo
ĠP err
ĠMay o
Ġgraz ing
Ġagree ing
ĠGr ad
Ġgr inning
Ġpot ent
ĠRod ney
Ġfav oured
ĠSem in
Ġapp end
ĠTr uman
Ġaw esome
ĠY o
ad ar
ĠWik ipedia
iet al
ĠVer de
Ġscr atched
ĠW on
Ġboard ed
ag us
ul er
Ġb red
Ġle aked
ĠAut onomous
ĠW N
Ġpol o
y i
Ġcapt ivity
ĠFal cons
ĠOpen ing
ĠFl ood
Austral ian
Ġvig il
Ġfarm land
v re
Ġcalc ulations
Ġg ust
ĠD ictionary
m ma
ĠRep orts
ma res
Ġcomb ust
att ack
Ġam ass
ĠH E
ĠF ors
Ġit er
Ġrecip ients
Ġlast s
Ġcraw l
âĢ¬ âĢ¬
ĠC annon
n esty
Ġfin ances
ĠR ous
Ġser pent
ĠChrist church
Ġcool er
Ġend ured
Ġsqu ares
b ud
ad ors
ĠKurd ish
ĠConc ern
Ġ13 5
Ġcand les
Ġcoff in
ĠEp isode
ĠRest oration
ed ay
Ġsqu irrel
Ġun r
Ġshel ves
Ġamb ush
Ġfeud al
ĠK es
Ġover r
Ġmic roscop
Ġresist ant
ĠH ancock
unct ions
Ġpharm ac
Ġphotograp hed
Ġcer amic
Ġ17 80
ĠNet flix
U L
Ġweigh ing
Ġpack s
ric anes
ĠPol es
R oyal
ĠF lynn
Ġ ions
ĠE ck
Ġm ans
Ġconsort ium
ĠColl ier
au k
ĠMarket ing
Th ose
Ġinvestig ators
ĠCas ino
ath olic
Ġkeep er
Ġmad ness
Ġcertain ty
ĠTud or
Ġh ailed
ĠWat ts
Ġrel ent
rup ting
ĠPlate au
p ical
ĠMon aco
ĠHer oes
ĠSyl via
ĠCatholic ism
ĠPolytechn ic
Ġqu artet
Ġv icious
Ġinter ception
ĠCh ong
Ġun released
Ġf its
ĠPers ia
ĠS ens
Ġpione ered
Ġdrunk en
ĠFle mish
Ġt apes
ĠCour ts
ĠKil k
Ġdep ict
ograph ies
Ġclim ax
Ġsemif inal
ĠC hern
ĠK ost
ke f
iss on
un ner
Ġbl oss
ĠfaÃ§ ade
Ġimpr int
ĠC in
Ġappe aling
Ġsp lend
Ġcart ridge
Ġcaut iously
ĠHol iday
Ġpl edged
Ġb iod
ĠP ig
ĠW ey
ou k
Ġhook ed
Ġastr onaut
Ġtur bo
ĠRah man
Ġexch anges
ĠBav arian
ib us
Ġar ter
S und
ĠS ieg
ĠSer ena
Ġmar ijuana
Ġrem inder
ĠHaw th
Ġpolic eman
ĠVers ion
H ouse
Ġmark ers
Ġclos es
Ġtempor al
it ably
Ġf ont
Ġst aggered
ĠVaugh an
Ġculmin ating
ĠT A
Ġex ting
Ġmon itors
ĠF L
Ġk ar
Ġafore mentioned
Ġpack ing
Ġresp ir
j et
im ated
ĠGab e
Ġfam ed
Î ·
Ġ11 4
V ol
Ġpet als
Ġassum ptions
Ġn oun
Ġsl ap
Ġconc eded
Ġins ists
oper ation
Ġunf inished
ĠS asha
Ġsm irk
so ever
ĠTaiwan ese
Ġb ub
ing es
Ġsubsc rib
Ġref res
ĠW elfare
Ġgrun ted
Ġsign atures
Ġinequ ality
Ġhaul ed
ĠP ok
ĠDav en
ons on
ĠB olshev
Ġinc arnation
M aster
Ġmoment arily
Sat urday
i oc
Ġd ictionary
Ġhero ic
Ġpione ers
c ost
Ðµ Ð»
Ġbl iss
196 5
Ġcost ly
B ay
ĠLah ore
Ġtheir s
ĠSt ad
Ġconf using
ĠSt ream
Ġp igs
ĠCre ation
Ġoverth row
Ġmouth s
Ġrel inqu
ĠDev i
ĠE gg
do ors
ith a
Ġl enses
rd u
Ġgo at
Ġproduct ivity
ĠSw ord
Ġint ently
ar g
Ġwond ers
Ġrepl ica
Ġb ip
Ġrespond s
ow ay
D B
Ġrighteous ness
Ġup held
Ġt uition
Ġ( #
Ġ180 2
oll ar
Ġy anked
ĠMil o
Ġepid emic
up ta
S H
ĠGo a
are a
ograph ically
ov sk
ĠPr as
Ġprinc es
in ement
Ġeven ings
ic acy
Ġt asted
Ġhun ted
l v
ĠHav ana
ĠC ic
Ġsubstr ate
ĠM ish
her ical
ĠH imal
ĠEd mond
ĠHar ley
Ġtake over
Ġheir s
Ġreason ably
ĠAr row
ident ified
disc iplinary
ĠGood man
Ġst ing
Ġillustr ation
Ġdem ographic
Ġsh ine
ĠCros by
Ġearn ings
ĠIsa iah
ĠTheres a
M other
Ġintens ified
Ġg aps
est ablish
Is rael
Ġrel iability
Ġlower ing
ĠBow ie
ev a
Ġl ag
G I
Ġsuff rage
Ġf ederation
ow ell
Âł in
and e
Ġsh one
Ġ idi
cl er
ĠChev rolet
Ġun used
ĠLik ewise
ar as
Ġsn atched
Ġconver ting
Ġun seen
on ut
ul am
ĠKath leen
ĠFow ler
Ġgu ild
Ġt rench
Ġqual ifications
Ġorigin ates
Ġa usp
ĠM illion
ĠC het
Ġmill ennium
Ġwait ress
Ġtur ret
ĠOkin awa
Wh atever
Ġ179 2
Ġrel ies
ĠSh iv
Ġtrust ee
ĠMans field
Ġl att
Ġy awn
ĠVander bilt
an ey
ĠGen oa
ĠN es
ĠL ough
out ed
ĠRes ort
196 6
ĠStr uct
Ġdiffer ing
ĠAngel o
ĠSher idan
ĠStep hens
oc ating
ar b
ĠNam ibia
ĠK ier
Ġt ighter
Ġpack aging
pur pose
Ġtherap e
ĠRain bow
ĠCert ificate
Ġopen ings
ĠW ise
Âłb illion
ich o
ĠQu ant
X T
ĠBre nda
Ġvalid ity
Ġcow ard
-+-+-+-+ -+-+-+-+
ĠVen etian
M ax
ult on
Ġcub ic
ĠC ars
g ars
Ġkill ings
ĠN K
ĠNa omi
Ġad s
Ġend ure
ĠX II
b id
G R
w ere
Ġbo iler
ĠTal bot
Ġborn e
Ġsimpl er
am el
ĠN OT
ĠB ury
ator ium
Ġvac ancy
ĠVal le
Mar ie
Ġtrump et
Ġconstitu ent
Ġdef ences
uc c
ĠH ap
ĠB old
Ġf eder
Ġfl ung
ĠEisenh ower
fic i
che t
Ġh ij
ady s
hold ing
ĠCr ane
Ġdistract ion
ĠHallow een
Ġactiv ism
r ace
Ġsanct ions
ĠDark ness
C at
ĠD ane
Ġprot oc
Ġgre ed
ĠEl aine
Ġmedal ist
y g
Ġrece ivers
Ġenjoy ment
Ġpoison ing
Ġfreel ance
ĠMart ÃŃ
ĠFre ud
ĠMon k
Ġcan yon
Ġde gradation
ĠA CC
Ġstro ked
Ġmin iseries
w i
Ġgl oom
Ġassass inated
ĠÅ Į
Ġp oker
ĠKar achi
Ġt ile
ĠNag ar
Ġconcess ion
iv ial
ĠH itch
Ġun pleasant
ĠElect rical
Ġscen arios
Ġadministr ators
ĠBox ing
ÂłM Hz
S on
ĠR F
st atic
IN E
ĠB Y
ening rad
ĠRap id
ĠLex ington
ĠG ina
Ġcomm uter
ĠLim erick
ĠMir iam
ĠØ§ ÙĦ
rick en
ĠBerk shire
ĠMer cer
Ġlat itude
Ġar ises
fl oor
ĠMir ror
Ġso aked
agon ists
ĠY un
ĠG C
ĠCons id
Ġunf amiliar
Ġbar red
ach a
ĠCast ile
ĠPÃ© rez
ĠL ark
D em
D ark
ĠM oy
ĠSam my
Ġhind wings
Ġdenomin ations
Ġtrou t
ĠGodd ess
W estern
Ġth rob
ĠAct ually
Ġalumin ium
ar led
Ġtim eline
Ġlic enses
c asters
ĠJub ilee
het ics
Ġcommun es
ĠDe leg
ĠY or
ĠCap t
Ġqu otes
Ġrecruit ment
Ġang ular
Ġrac ist
ar ro
ĠA ug
ĠKh or
con f
Ġdepart ing
F uck
ĠN T
ĠY az
ĠBeir ut
as o
eg u
ĠZ Ã¼
ĠH aus
ĠCoast al
ĠBr am
Ġl ords
Ġsanction ed
ĠCor rect
I rish
ĠD illon
Ġexpect ation
Ġadvert ised
ĠNik ki
Ġlog ging
Ġd ess
me ga
Ġprem iership
oth ic
Ġsong writing
Ġin active
Ġdisc ount
Ġspecific ations
unct ional
Ġsacrific es
ĠE sk
Ġunder gone
Ġretail ers
ĠAss am
Ġtut or
Ġsh ades
ĠSh ri
Ã©t ico
Lou is
Ġfor ged
Ġcl ips
Ġlabor atories
Ġkick s
Ġbuild s
l Ã©
ries thood
Ġgoss ip
Ġpick up
ĠH of
ĠLaure l
ĠHe ar
Ġtit ular
Ġfor ts
Ġsur real
Ġch ancel
Ġpet roleum
ĠFort unately
Ġr ains
br ates
Ġpost season
g t
ĠRes istance
Ġball ots
ĠHy per
Ġconfron ts
Ġrenew al
Ġ179 6
ĠBos nian
Ġfor wards
Ġoff set
ĠBe er
T imes
t ake
pl er
F inal
[...]
