{"[UNK]":0,"[SEP]":1,"[CLS]":2,"[PAD]":3,"[MASK]":4,"!":5,"\"":6,"#":7,"$":8,"%":9,"&":10,"'":11,"(":12,")":13,"*":14,"+":15,",":16,"-":17,".":18,"/":19,"0":20,"1":21,"2":22,"3":23,"4":24,"5":25,"6":26,"7":27,"8":28,"9":29,":":30,";":31,"<":32,"=":33,">":34,"?":35,"@":36,"A":37,"B":38,"C":39,"D":40,"E":41,"F":42,"G":43,"H":44,"I":45,"J":46,"K":47,"L":48,"M":49,"N":50,"O":51,"P":52,"Q":53,"R":54,"S":55,"T":56,"U":57,"V":58,"W":59,"X":60,"Y":61,"Z":62,"[":63,"\\":64,"]":65,"^":66,"_":67,"`":68,"a":69,"b":70,"c":71,"d":72,"e":73,"f":74,"g":75,"h":76,"i":77,"j":78,"k":79,"l":80,"m":81,"n":82,"o":83,"p":84,"q":85,"r":86,"s":87,"t":88,"u":89,"v":90,"w":91,"x":92,"y":93,"z":94,"{":95,"|":96,"}":97,"~":98,"¡":99,"¢":100,"£":101,"¤":102,"¥":103,"¦":104,"§":105,"¨":106,"©":107,"ª":108,"«":109,"¬":110,"®":111,"¯":112,"°":113,"±":114,"²":115,"³":116,"´":117,"µ":118,"¶":119,"·":120,"¸":121,"¹":122,"º":123,"»":124,"¼":125,"½":126,"¾":127,"¿":128,"À":129,"Á":130,"Â":131,"Ã":132,"Ä":133,"Å":134,"Æ":135,"Ç":136,"È":137,"É":138,"Ê":139,"Ë":140,"Ì":141,"Í":142,"Î":143,"Ï":144,"Ð":145,"Ñ":146,"Ò":147,"Ó":148,"Ô":149,"Õ":150,"Ö":151,"×":152,"Ø":153,"Ù":154,"Ú":155,"Û":156,"Ü":157,"Ý":158,"Þ":159,"ß":160,"à":161,"á":162,"â":163,"ã":164,"ä":165,"å":166,"æ":167,"ç":168,"è":169,"é":170,"ê":171,"ë":172,"ì":173,"í":174,"î":175,"ï":176,"ð":177,"ñ":178,"ò":179,"ó":180,"ô":181,"õ":182,"ö":183,"÷":184,"ø":185,"ù":186,"ú":187,"û":188,"ü":189,"ý":190,"þ":191,"ÿ":192,"Ā":193,"ā":194,"Ă":195,"ă":196,"Ą":197,"ą":198,"Ć":199,"ć":200,"Ĉ":201,"ĉ":202,"Ċ":203,"ċ":204,"Č":205,"č":206,"Ď":207,"ď":208,"Đ":209,"đ":210,"Ē":211,"ē":212,"Ĕ":213,"ĕ":214,"Ė":215,"ė":216,"Ę":217,"ę":218,"Ě":219,"ě":220,"Ĝ":221,"ĝ":222,"Ğ":223,"ğ":224,"Ġ":225,"ġ":226,"Ģ":227,"ģ":228,"Ĥ":229,"ĥ":230,"Ħ":231,"ħ":232,"Ĩ":233,"ĩ":234,"Ī":235,"ī":236,"Ĭ":237,"ĭ":238,"Į":239,"į":240,"İ":241,"ı":242,"Ĳ":243,"ĳ":244,"Ĵ":245,"ĵ":246,"Ķ":247,"ķ":248,"ĸ":249,"Ĺ":250,"ĺ":251,"Ļ":252,"ļ":253,"Ľ":254,"ľ":255,"Ŀ":256,"ŀ":257,"Ł":258,"ł":259,"Ń":260,"Ġt":261,"he":262,"Ġa":263,"in":264,"Ġthe":265,"er":266,"on":267,"re":268,"Ġs":269,"Ġw":270,"Ġo":271,"ed":272,"nd":273,"at":274,"is":275,"or":276,"en":277,"it":278,"Ġf":279,"Ġc":280,"Ġb":281,"an":282,"ar":283,"Ġof":284,"es":285,"Ġin":286,"al":287,"ing":288,"ou":289,"as":290,"Ġand":291,"Ġp":292,"Ġto":293,"Ġm":294,"Ġh":295,"ic":296,"Ġd":297,"le":298,"ion":299,"om":300,"ĠT":301,"âĢ":302,"ĠS":303,"il":304,"Ġth":305,"ĠI":306,"ĠA":307,"ent":308,"Ġl":309,"el":310,"st":311,"Ġre":312,"ro":313,"ĠC":314,"Ġn":315,"ad":316,"Ġwas":317,"am":318,"Ġhe":319,"ac":320,"Ġe":321,"Ġ1":322,"Ġg":323,"ol":324,"ĠM":325,"et":326,"id":327,"Ġon":328,"ly":329,"ot":330,"ut":331,"ĠThe":332,"ĠH":333,"ur":334,"im":335,"ow":336,"ec":337,"Ġfor":338,"ĠB":339,"iv":340,"ir":341,"ig":342,"Ġis":343,"ay":344,"Ġ\"":345,"us":346,"Ġas":347,"Ġst":348,"ith":349,"ter":350,"ation":351,"Ġbe":352,"ĠP":353,"ver":354,"Ġwith":355,"ch":356,"Ġ2":357,"un":358,"Ġthat":359,"em":360,"Ġwh":361,"ĠD":362,"ĠR":363,"ce":364,"Ġal":365,"ul":366,"and":367,"ĠW":368,"Ġat":369,"ĠF":370,"ĠL":371,"Ġan":372,"Ġit":373,"Ġ(":374,"Ġhis":375,"Ġy":376,"av":377,"ĠG":378,"her":379,"ers":380,"ct":381,"Ġ19":382,"th":383,"os":384,"Ġfr":385,"ĠN":386,"Ġby":387,"ag":388,"ain":389,"ld":390,"Ġr":391,"ĠJ":392,"Ġcon":393,"ist":394,"ĠâĢ":395,"âĢĻ":396,"um":397,"od":398,"'s":399,"ĠE":400,"Ġ20":401,"if":402,"est":403,"Ġfrom":404,"ill":405,"op":406,"ap":407,"igh":408,"Ġcom":409,"ri":410,"ĠO":411,"ak":412,"ore":413,"ab":414,"Ġpro":415,"up":416,"Ġv":417,"oc":418,"ĠIn":419,"art":420,"ĠâĢľ":421,"all":422,"âĢĿ":423,"Ġyou":424,"ew":425,"ard":426,"ate":427,"ity":428,"ant":429,"res":430,"Ġse":431,"Ġher":432,"se":433,"Ġor":434,"gh":435,"ess":436,"ud":437,"Ġde":438,"ies":439,"Ġare":440,"ĠHe":441,"ber":442,"qu":443,"Ġk":444,"ere":445,"ort":446,"ĠK":447,"Ġhad":448,"Ġsh":449,"Ġch":450,"Ġex":451,"ip":452,"ich":453,"rou":454,"ear":455,"ight":456,"Ġwere":457,"Ġle":458,"ould":459,"Ġpl":460,"ell":461,"ive":462,"ated":463,"our":464,"ust":465,"ave":466,"ĠU":467,"ge":468,"Ġnot":469,"ack":470,"ov":471,"ok":472,"ong":473,"ian":474,"ub":475,"ia":476,"ast":477,"ect":478,"ame":479,"Ġsp":480,"Ġtr":481,"red":482,"ĠSt":483,"nt":484,"ally":485,"ment":486,"ep":487,"out":488,"ie":489,"ary":490,"ĠCh":491,"Ġ201":492,"ost":493,"Ġshe":494,"ome":495,"ine":496,"Ġbut":497,"Ġwhe":498,"Ġwhich":499,"Ġwor":500,"ĠIt":501,"uc":502,"Ġhave":503,"Ġun":504,"ther":505,"Ġj":506,"ous":507,"ure":508,"Ġme":509,"ish":510,"Ġint":511,"ide":512,"Ġab":513,"pp":514,"ĠV":515,"so":516,"Ġcl":517,"hed":518,"ial":519,"Ġus":520,"Ġthis":521,"Ġcomp":522,"og":523,"ions":524,"ord":525,"ue":526,"ra":527,"own":528,"Ġhim":529,"Ġall":530,"Ġup":531,"Ġout":532,"Ġtheir":533,"00":534,"Ġgo":535,"Ġone":536,"irst":537,"Ġhas":538,"ke":539,"ry":540,"ff":541,"age":542,"ĠTh":543,"ice":544,"ass":545,"mer":546,"cl":547,"Ġar":548,"fter":549,"Ġwho":550,"Ġalso":551,"Ġthey":552,"ime":553,"one":554,"ire":555,"iz":556,"ace":557,"ound":558,"und":559,"ind":560,"Ġwe":561,"Ġ200":562,"Ġkn":563,"ond":564,"Ġcont":565,"Ġfirst":566,"are":567,"ans":568,"ook":569,"Ġtw":570,".âĢĿ":571,"Ġag":572,"per":573,"ign":574,"Ġdo":575,"Ġman":576,"act":577,"ach":578,"erv":579,"ical":580,"ater":581,"Ġad":582,"Ġne":583,"Ġsa":584,"ough":585,"ang":586,"Ġbeen":587,"Ġro":588,"pl":589,"Ġits":590,"ĠY":591,"te":592,"Ġmy":593,"Ġpart":594,"ree":595,"Ġwould":596,"wn":597,"rit":598,"ric":599,"ence":600,"ount":601,"ember":602,"Ġen":603,"ll":604,"Ġres":605,"Ġover":606,"Ġinto":607,"Ġ18":608,"Ġac":609,"ib":610,"Ġpr":611,"pt":612,"Ġoff":613,"Ġbec":614,"ĠUn":615,"ile":616,"Ġother":617,"Ġapp":618,"Ġte":619,"ance":620,"Ġso":621,"Ġcan":622,"ult":623,"ug":624,"ĠShe":625,"Ġyear":626,"ade":627,"ition":628,"ark":629,"orm":630,"port":631,"ake":632,"Ġtwo":633,"Ġsc":634,"oll":635,"orn":636,"ations":637,"\",":638,"ely":639,"ens":640,"old":641,"Ġper":642,"Ġthem":643,"urn":644,"uch":645,"lect":646,"Ġtime":647,"ild":648,"Ġev":649,"way":650,"Ġplay":651,"Ġ3":652,"Ġwork":653,"Ġim":654,"Ġdis":655,"clud":656,"oin":657,"uct":658,"ose":659,"),":660,"ail":661,"ng":662,"ood":663,"amp":664,"ory":665,"ool":666,"Ġrec":667,"ted":668,"able":669,"Ġwhen":670,"ied":671,"ite":672,"Ġafter":673,"Ġabout":674,"land":675,"ick":676,"ational":677,"ike":678,"rough":679,"ress":680,"ath":681,"Ġmore":682,"ings":683,"Ġthere":684,"very":685,"ward":686,"man":687,"we":688,"ates":689,"Ġinclud":690,"tern":691,"fer":692,"oy":693,"uring":694,"ĠAs":695,"iss":696,"ents":697,"Ġund":698,"\".":699,").":700,"round":701,"ts":702,"Ġdes":703,"ĠOn":704,"ve":705,"ĠAr":706,"Ġsaid":707,"ase":708,"Ġback":709,"ited":710,"Ġcomm":711,"anc":712,"ased":713,"ors":714,"Ġqu":715,"Ġagain":716,"ons":717,"end":718,"ubl":719,"Ġnew":720,".\"":721,"ob":722,"Ġsome":723,"ious":724,"Ġpre":725,"Ġthen":726,"Ġdid":727,"Ġunder":728,"les":729,"Ġcould":730,"Ġ199":731,"aw":732,"ĠAl":733,"Ġonly":734,"ft":735,"Ġfe":736,"fore":737,"chool":738,"hip":739,"Ġgr":740,"Ġfl":741,"ered":742,"aus":743,"ĠMar":744,"âĢĵ":745,"Ġco":746,"gan":747,"Ġbet":748,"Ġbl":749,"Ġpe":750,"oth":751,"Ġact":752,"ank":753,"vel":754,"Ġwhere":755,"Ġsec":756,"ily":757,"Ġwill":758,"form":759,"Ġthrough":760,"ah":761,"Ġany":762,"ivers":763,"Ġ4":764,"Ġloc":765,"reat":766,"Ġno":767,"Ġserv":768,"Ġwhat":769,"Ġsm":770,"pen":771,"ĠLe":772,"air":773,"elf":774,"ink":775,"hn":776,"ren":777,"Ġlike":778,"Ġfin":779,"led":780,"als":781,"Ġbu":782,"Ġform":783,"ĠThis":784,"Ġrem":785,"ollow":786,"Ġcons":787,"ont":788,"The":789,"Ġmade":790,"Ġthan":791,"ason":792,"ished":793,"ĠNew":794,"pe":795,"Ġyears":796,"outh":797,"ock":798,"ife":799,"io":800,"other":801,"ey":802,"Ġatt":803,"au":804,"ĠCom":805,"Ġbefore":806,"ince":807,"cess":808,"ople":809,"Ġear":810,"rib":811,"tle":812,"hen":813,"Ġret":814,"enc":815,"Ġmost":816,"Ġam":817,"?âĢĿ":818,"Ġlook":819,"Ġjust":820,"ting":821,"Ġreg":822,"Ġdec":823,"Ġmov":824,"meric":825,"Ġind":826,"ĠFr":827,"Ġsup":828,"Ġfound":829,"Ġ5":830,"ouse":831,"ween":832,"Ġif":833,"ilm":834,"Ġinter":835,"Ġ198":836,"Ġrel":837,"ĠĠ":838,"Ġbr":839,"Ġass":840,"Ġfam":841,"ork":842,"ather":843,"oun":844,"hes":845,"ix":846,"ĠRe":847,"ating":848,"Ġstud":849,"Ġdown":850,"br":851,"az":852,"Ġfollow":853,"ident":854,",âĢĿ":855,"hing":856,"Ġcall":857,"Ġknow":858,"Ġbetween":859,"ton":860,"Ġdr":861,"Ġend":862,"Ġstr":863,"Ġcol":864,"ann":865,"ĠAmeric":866,"pr":867,"ĠSh":868,"Ġthree":869,"Ġyour":870,"ual":871,"ener":872,"Ġsub":873,"ict":874,"ped":875,"ular":876,"gr":877,"ik":878,"Ġpubl":879,"ever":880,"Ġprod":881,"Ġpeople":882,"Ġbeing":883,"Ġget":884,"Ġwell":885,"Ġteam":886,"Ġday":887,"Ġent":888,"hy":889,"orth":890,"Ġhand":891,"Ġcent":892,"Ġduring":893,"ral":894,"iel":895,"inn":896,"Ġsuch":897,"olog":898,"ision":899,"ics":900,"ros":901,"ement":902,"str":903,"Ġhead":904,"Âł":905,"irect":906,"oot":907,"ause":908,"ĠJo":909,"uary":910,"Ġ6":911,"Ġ197":912,"Ġused":913,"ific":914,"ĠAn":915,"row":916,"Ġspec":917,"ĠThey":918,"ful":919,"ived":920,"alk":921,"oss":922,"any":923,"19":924,"Ġsy":925,"Ġnow":926,"Ġlater":927,"Ġpres":928,"Ġsecond":929,"Ġpol":930,"Ġcar":931,"Ġdist":932,"Ġrele":933,"iet":934,"vern":935,"Ġnum":936,"Ġlong":937,"Ġfilm":938,"ities":939,"ier":940,"ise":941,"ten":942,"ty":943,"ative":944,"Ġown":945,"Ġthough":946,"Ġhow":947,"Ġsur":948,"ject":949,"ared":950,"ower":951,"roup":952,"Ġwhile":953,"ale":954,"ters":955,"ames":956,"Ġset":957,"Ġinv":958,"iversity":959,"aj":960,"Ġsl":961,"Ġinc":962,"Ġmay":963,"Ġmany":964,"ĠZ":965,"Ġaround":966,"Ġunt":967,"..":968,"son":969,"Ġstart":970,"Ġdef":971,"ĠWh":972,"Ġagainst":973,"ĠAt":974,"Ġpop":975,"tain":976,"Ġschool":977,"'t":978,"erm":979,"cc":980,"Ġway":981,"Ġsee":982,"Ġem":983,"Ġlar":984,"Ġbro":985,"Ġbecame":986,"Ġwant":987,"ĠInd":988,"Ġelect":989,"Ġ196":990,"aking":991,"Ġknown":992,"Ġacc":993,"vers":994,"omet":995,"Ġmus":996,"Ġprov":997,"der":998,"ball":999,"Ġopen":1000,"Ġuntil":1001,"Ġgu":1002,"Ġbel":1003,"Ġboth":1004,"Ġexp":1005,"ried":1006,"iver":1007,"ull":1008,"Ġfour":1009,"ĠBr":1010,"ern":1011,"ines":1012,"ĠHis":1013,"Ġright":1014,"Ġseason":1015,"Ġtrans":1016,"ph":1017,"ĠUnited":1018,"ĠCol":1019,"velop":1020,"ĠAfter":1021,"its":1022,"self":1023,"ĠâĢĵ":1024,"Ġdirect":1025,"Ġser":1026,"Ġadd":1027,"ept":1028,"emb":1029,"Ġshow":1030,"ually":1031,"ury":1032,"ove":1033,"Ġdif":1034,"ĠCl":1035,"ional":1036,"ley":1037,"ĠPro":1038,"Ġeven":1039,"Ġlead":1040,"ired":1041,"Ġ7":1042,"Ġevery":1043,"ven":1044,"ures":1045,"ĠAnd":1046,"ex":1047,"Ġed":1048,"ĠIs":1049,"enn":1050,"ĠThere":1051,"Ġmin":1052,"ounc":1053,"ĠSc":1054,"ĠUniversity":1055,"ober":1056,"Ġcount":1057,"ized":1058,"ield":1059,"ars":1060,"ins":1061,"uck":1062,"ek":1063,"Ġhigh":1064,"Ġchar":1065,"ina":1066,"Ġsign":1067,"Ã©":1068,"Ġfamily":1069,"Ġrecord":1070,"ross":1071,"iew":1072,"Ġname":1073,"Ġmet":1074,"urned":1075,"ists":1076,"Ġsame":1077,"Ġcre":1078,"Ġrep":1079,"ĠAmerican":1080,"Ġart":1081,"ange":1082,"Ġsing":1083,"Ġthese":1084,"erson":1085,"Ġ194":1086,"Ġwrit":1087,"Ġtook":1088,"bum":1089,"Ġob":1090,"urch":1091,"Ġincluding":1092,"iam":1093,"Ġstill":1094,"Ġmat":1095,"cept":1096,"ĠFor":1097,"Ġneed":1098,"Ġins":1099,"Ġsay":1100,"ĠMay":1101,"get":1102,"ible":1103,"Ġask":1104,"ĠEng":1105,"ĠJohn":1106,"Ġcap":1107,"ĠWe":1108,"Ġgroup":1109,"arm":1110,"Ġmon":1111,"Ġmar":1112,"ĠSp":1113,"imes":1114,"iving":1115,"Ġrun":1116,"Ġ8":1117,"ved":1118,"uction":1119,"ained":1120,"Ġmain":1121,"Ġhel":1122,"Ġlit":1123,"amed":1124,"Ġ17":1125,"stem":1126,"une":1127,"osed":1128,"ĠQ":1129,"igin":1130,"Ġsever":1131,"Ġmed":1132,"ism":1133,"Ġcontin":1134,"Ġlife":1135,"co":1136,"ĠDe":1137,"augh":1138,"arn":1139,"ple":1140,"Ġey":1141,"ives":1142,"Ġcalled":1143,"rict":1144,"ĠTr":1145,"ised":1146,"Ġbecause":1147,"Ġnumber":1148,"sh":1149,"Ġbuild":1150,"Ġ195":1151,"uth":1152,"Ġest":1153,"Ġdevelop":1154,"Ġalbum":1155,"ĠHow":1156,"000":1157,"Ġcomple":1158,"Ġchild":1159,"ural":1160,"xt":1161,"Ġplace":1162,"Ġ-":1163,"Ġeach":1164,"ash":1165,"arl":1166,"Ġ9":1167,"ĠGr":1168,"ague":1169,"Ġleft":1170,"stit":1171,"Ġwon":1172,"ird":1173,"ax":1174,"uss":1175,"Ġmod":1176,"Ġmake":1177,"Ġcur":1178,"Ġwom":1179,"ĠJan":1180,"orld":1181,"Ġmuch":1182,"Ġ10":1183,"Ġdon":1184,"aving":1185,"Ġsmall":1186,"vernment":1187,"Ġworld":1188,"Ġbegan":1189,"ĠComm":1190,"Ġcr":1191,"Ġpass":1192,"ĠAll":1193,"Ġpoin":1194,"inc":1195,"Ġrece":1196,"els":1197,"Ġoper":1198,"ister":1199,"ution":1200,"Ġour":1201,"Ġarea":1202,"ody":1203,"Ġold":1204,"Ġvery":1205,"ĠCon":1206,"Ġph":1207,"ided":1208,"Ġnear":1209,"Ġresp":1210,"Ġuse":1211,"ĠâĢĺ":1212,"ger":1213,"ble":1214,"ĠPr":1215,"ĠYou":1216,"Ġlast":1217,"ene":1218,"rap":1219,"Ġhome":1220,"ĠAd":1221,"ady":1222,"ient":1223,"Ġplayed":1224,"Ġgl":1225,"Ġair":1226,"Ġgener":1227,"my":1228,"Ġhouse":1229,"ued":1230,"the":1231,"Ġthink":1232,"ĠBl":1233,"Ġshould":1234,"by":1235,"Ġsince":1236,"Ġseveral":1237,"ĠStates":1238,"erman":1239,"ĠBe":1240,"Ġdep":1241,"Ġsong":1242,"Ġcare":1243,"rist":1244,"Ġ'":1245,"Ġreleased":1246,"ret":1247,"ute":1248,"Ġoffic":1249,"ulation":1250,"Ġbook":1251,"ĠWorld":1252,"Ġorigin":1253,"Ġann":1254,"Ġsomet":1255,"ues":1256,"20":1257,"ourn":1258,"Ġ15":1259,"Ġdiffer":1260,"ains":1261,"ants":1262,"ck":1263,"ility":1264,"Ġ16":1265,"Ġsystem":1266,"to":1267,"ured":1268,"Ġthose":1269,"ially":1270,"Ġalong":1271,"Ġhist":1272,"ĠAust":1273,"Ġsim":1274,"Ġgood":1275,"aced":1276,"Ġcity":1277,"hat":1278,"ged":1279,"uro":1280,"Ġdesign":1281,"ĠNational":1282,"Ġbre":1283,"Ġvar":1284,"Ġbo":1285,"Ġsuc":1286,"Ġanother":1287,"ĠJu":1288,"ched":1289,"Ġdidn":1290,"Ġseries":1291,"Ġaway":1292,"wards":1293,"Ġperform":1294,"Ġimp":1295,"ĠOr":1296,"Ġtake":1297,"Ġland":1298,"ĠEd":1299,"ness":1300,"ĠCount":1301,"Ġheld":1302,"gram":1303,"vent":1304,"Ġcame":1305,"Ġcour":1306,"Ġeff":1307,"ĠBrit":1308,"Ġearly":1309,"Ġfollowing":1310,"ital":1311,"ai":1312,"ling":1313,"Ġtown":1314,"ĠBut":1315,"Ġ193":1316,"Ġgame":1317,"ane":1318,"ission":1319,"rop":1320,"ior":1321,"fl":1322,"Ġgoing":1323,"Ġmusic":1324,"Ġnever":1325,"ajor":1326,"Ġprom":1327,"Ġfeat":1328,"rent":1329,"Ġstate":1330,"Ġreal":1331,"ilt":1332,"uced":1333,"Ġhere":1334,"Ġpublic":1335,"ĠSe":1336,"ying":1337,"fess":1338,"ĠSchool":1339,"ately":1340,"ugust":1341,"Ġfew":1342,"ĠPh":1343,"ĠNov":1344,"ĠCan":1345,"tend":1346,"ĠWar":1347,"ĠHer":1348,"Ġbus":1349,"por":1350,"Ġjoin":1351,"med":1352,"ĠDec":1353,"uff":1354,"Ġrest":1355,"ĠWhen":1356,"oci":1357,"ĠSouth":1358,"ets":1359,"Ġperson":1360,"Ġorgan":1361,"Ġpartic":1362,"ĠAugust":1363,"Ġwent":1364,"eptember":1365,"ron":1366,"day":1367,"ently":1368,"lish":1369,"ium":1370,"Ġocc":1371,"Ġ12":1372,"Ġside":1373,"ages":1374,"Ġfoot":1375,"Ġcommun":1376,"Ġtoo":1377,"ments":1378,"ience":1379,"âĢĶ":1380,"Ġeyes":1381,"Ġsw":1382,"ĠPl":1383,"ne":1384,"iness":1385,"ĠOct":1386,"hern":1387,"ĠGerman":1388,"ĠSeptember":1389,"Ġche":1390,"ĠFe":1391,"Ġsupport":1392,"Ġsk":1393,"ĠGe":1394,"ĠMarch":1395,"ĠJanuary":1396,"ĠYork":1397,"Ġfind":1398,"ĠJune":1399,"Ġstand":1400,"ically":1401,"Ġgovernment":1402,"Ġformer":1403,"Ġclass":1404,"ternational":1405,"Ġel":1406,"arch":1407,"lege":1408,"app":1409,"Ġmen":1410,"Ġref":1411,"ung":1412,"ĠOctober":1413,"Ġbeh":1414,"Ġlet":1415,"rew":1416,"aining":1417,"Ġpos":1418,"ales":1419,"ĠCent":1420,"ĠJuly":1421,"Ġresult":1422,"oor":1423,",\"":1424,"ology":1425,"pril":1426,"ored":1427,"ampions":1428,"Ġhum":1429,"Ġlist":1430,"Ġvill":1431,"ony":1432,"ĠChrist":1433,"thing":1434,"ĠEuro":1435,"Ġdet":1436,"ering":1437,"ection":1438,"Ġprogram":1439,"Ġred":1440,"Ġwater":1441,"ices":1442,"Ġla":1443,"Ġthought":1444,"reen":1445,"be":1446,"Ġhelp":1447,"Ġband":1448,"Ġasked":1449,"Ġroom":1450,"akes":1451,"Ġconc":1452,"Ġnext":1453,"Ġext":1454,"Ġgot":1455,"ĠAm":1456,"Ġlooked":1457,"ĠApril":1458,"embers":1459,"ĠWill":1460,"gest":1461,"iven":1462,"elt":1463,"ĠHowever":1464,"eng":1465,"ats":1466,"Ġlocated":1467,"Ġlarge":1468,"ĠNovember":1469,"ected":1470,"Ġappear":1471,"arr":1472,"18":1473,"ides":1474,"let":1475,"Ġwithin":1476,"Ġcompet":1477,"Ġline":1478,"iend":1479,"Ġage":1480,"Ġappro":1481,"Ġdesc":1482,"lev":1483,"Ġsuccess":1484,"ians":1485,"side":1486,"resent":1487,"Ġsit":1488,"ĠMus":1489,"ined":1490,"Ġbelie":1491,"ĠCounty":1492,"Ġcompany":1493,"ae":1494,"ĠDecember":1495,"ĠNorth":1496,"though":1497,"Ġlocal":1498,"ott":1499,"Ġpopulation":1500,"ract":1501,"Ġpolit":1502,"ison":1503,"Ġrepl":1504,"Ġtit":1505,"ner":1506,"Ġmajor":1507,"Ġlittle":1508,"Ġfriend":1509,"com":1510,"Ġcontro":1511,"ces":1512,"Ġnamed":1513,"Ġfather":1514,"Ġpower":1515,"Ġdifferent":1516,"ĠGod":1517,"Ġstation":1518,"ator":1519,"mp":1520,"Ġdeath":1521,"Ġstarted":1522,"ms":1523,"Ġtop":1524,"ival":1525,"min":1526,"Ġbest":1527,"ards":1528,"aster":1529,"Ġevent":1530,"You":1531,"Ġ11":1532,"Ġleg":1533,"Ġ.":1534,"Ġface":1535,"echn":1536,"yl":1537,"Ġinst":1538,"ham":1539,"Ġspe":1540,"alf":1541,"ified":1542,"idd":1543,"irl":1544,"illion":1545,"Ġclub":1546,"Ġkill":1547,"ĠAustral":1548,"Ġexpl":1549,"Ġallow":1550,"ster":1551,"ĠAss":1552,"Ġ$":1553,"Ġconsid":1554,"que":1555,"Ġcome":1556,"Ġsix":1557,"gy":1558,"Ġborn":1559,"Ġmil":1560,"Ġreceived":1561,"ert":1562,"Ġ14":1563,"con":1564,"Ġsingle":1565,"Ġmembers":1566,"aim":1567,"ĠCity":1568,"ĠCo":1569,"Ġmember":1570,"Ġestab":1571,"ĠBritish":1572,"eter":1573,"Ġshort":1574,"Ġlaw":1575,"ves":1576,"Ġfive":1577,"Ġsoc":1578,"Ġdoes":1579,"atch":1580,"view":1581,"Ġeng":1582,"ĠEurope":1583,"Ġvis":1584,"Ġdem":1585,"Ġ13":1586,"Ġposs":1587,"Ġword":1588,"Ġput":1589,"Ġterm":1590,"Ġ2010":1591,"Ġlight":1592,"Ġreport":1593,"Ġsomething":1594,"Ġserved":1595,"Ġtell":1596,"rod":1597,"ize":1598,"reet":1599,"Ġmoved":1600,"Ġmark":1601,"bruary":1602,"Ġarr":1603,"ways":1604,"Ġprot":1605,"vious":1606,"ask":1607,"ĠKing":1608,"Ġcond":1609,"Ġfact":1610,"Ġrequ":1611,"ĠGu":1612,"Ġwithout":1613,"Ġbeg":1614,"Ġchildren":1615,"Ġty":1616,"Ġexper":1617,"ense":1618,"ĠCar":1619,"iety":1620,"less":1621,"eep":1622,"Ġcharac":1623,"ĠUS":1624,"ampionship":1625,"Ġbuilt":1626,"Ġgreat":1627,"Ġfore":1628,"Ġfeel":1629,"Ġbuilding":1630,"born":1631,"Ġpresent":1632,"ached":1633,"ording":1634,"me":1635,"ĠFebruary":1636,"Ġrefer":1637,"ively":1638,"ature":1639,"Ġopp":1640,"Ġnight":1641,"Ġadv":1642,"ĠEl":1643,"sp":1644,"Ġyoung":1645,"Ġ192":1646,"alth":1647,"Ġcle":1648,"aces":1649,"Ġcamp":1650,"Ġwalk":1651,"Ġbody":1652,"ries":1653,"Ġcor":1654,"atic":1655,"Ġbased":1656,"ĠBro":1657,"ĠCal":1658,"ĠPol":1659,"oice":1660,"att":1661,"ĠState":1662,"âĢ¦":1663,"Ġdied":1664,"Ġav":1665,"Ġstop":1666,"Ġ2011":1667,"aged":1668,"ograp":1669,"Ġseem":1670,"Ġes":1671,"aly":1672,"ĠMan":1673,"Ġmust":1674,"Ġhimself":1675,"Ġnorth":1676,"itions":1677,"Ġson":1678,"Ġdisc":1679,"inning":1680,"Ġpain":1681,"Ġfinal":1682,"ech":1683,"Ġdue":1684,"ĠAb":1685,"Ġinclude":1686,"aff":1687,"Ġwar":1688,"ille":1689,"omin":1690,"Ġdoor":1691,"ĠLeague":1692,"Ġ2012":1693,"ention":1694,"ream":1695,"Ġprofess":1696,"iod":1697,"ĠDuring":1698,"Ġimport":1699,"ĠWith":1700,"ĠAf":1701,"ĠDr":1702,"ĠGeor":1703,"Ġconf":1704,"bo":1705,"Ġcurrent":1706,"Ġpat":1707,"ĠNo":1708,"ĠĠĠĠ":1709,"ĠGo":1710,"ĠWest":1711,"ĠCanad":1712,"here":1713,"Ġvillage":1714,"ances":1715,"ĠII":1716,"ably":1717,"Ġdescrib":1718,"ĠFl":1719,"Ġcentury":1720,"uthor":1721,"Ġweek":1722,"Ġspecies":1723,"Ġdiv":1724,"Ġnational":1725,"Ġdeb":1726,"Ġsaw":1727,"Ġthird":1728,"ency":1729,"umb":1730,"ode":1731,"ĠRo":1732,"Ġpar":1733,"ĠOne":1734,"rench":1735,"Ġmonth":1736,"ĠMc":1737,"Ġ(\"":1738,"Ġval":1739,"Ġoften":1740,"Ġvers":1741,"ĠRep":1742,"Ġled":1743,"Ġhaving":1744,"ality":1745,"Ġfootball":1746,"Ġ2013":1747,"yn":1748,"Ġ2014":1749,"Ġwomen":1750,"Ġ&":1751,"ences":1752,"Ġincre":1753,"ĠMin":1754,"Ġturned":1755,"Ġpost":1756,"sc":1757,"uit":1758,"Ġpublished":1759,"ana":1760,"aken":1761,"Ġrepresent":1762,"ĠEx":1763,"ublic":1764,"Ġhold":1765,"idge":1766,"Ġsouth":1767,"af":1768,"Ġbecome":1769,"Ġincluded":1770,"oman":1771,"Ġorder":1772,"ĠBy":1773,"ief":1774,"Ġcover":1775,"Ġturn":1776,"ches":1777,"aul":1778,"Ġ191":1779,"ĠBar":1780,"Ġ2009":1781,"ization":1782,"oon":1783,"Ġ2008":1784,"ĠIf":1785,"Ġattack":1786,"Ġship":1787,"ead":1788,"Ġlevel":1789,"most":1790,"Ġbusiness":1791,"par":1792,"ape":1793,"gether":1794,"Ġtogether":1795,"ĠDist":1796,"ĠSw":1797,"eth":1798,"Ġequ":1799,"Ġ2015":1800,"angu":1801,"Ġchang":1802,"ze":1803,"Ġlate":1804,"Ġfront":1805,"Ġamong":1806,"na":1807,"...":1808,"work":1809,"Ġgiven":1810,"ait":1811,"estern":1812,"err":1813,"arent":1814,"Ġiss":1815,"osp":1816,"Ġdel":1817,"Ġdays":1818,"ones":1819,"ouncil":1820,"Ġreturn":1821,"empt":1822,"Ġsold":1823,"ĠMy":1824,"attle":1825,"Ġtrad":1826,"ĠWilliam":1827,"ula":1828,"ama":1829,"ĠHigh":1830,"Ġsound":1831,"Ġappe":1832,"Ġperiod":1833,"Ġtimes":1834,"?\"":1835,"ither":1836,"ara":1837,"Ġ2016":1838,"Ġbehind":1839,"ĠEnglish":1840,"ope":1841,"artment":1842,"Ġmother":1843,"ĠDav":1844,"ald":1845,"Ġaff":1846,"ĠReg":1847,"ĠFrench":1848,"Ġmag":1849,"che":1850,"Ġcountry":1851,"Ġonce":1852,"Ġfelt":1853,"urs":1854,"Ġaddition":1855,"itary":1856,"Ġfull":1857,"Ġproject":1858,"eder":1859,"Ã¡":1860,"ese":1861,"Ġ2006":1862,"ery":1863,"uk":1864,"Ġacross":1865,"Ġcontinued":1866,"ced":1867,"ĠX":1868,"ĠThat":1869,"apan":1870,"Ġtold":1871,"Ġfun":1872,"Ġep":1873,"Ġsol":1874,"ows":1875,"Ġhard":1876,"Ġ2007":1877,"urg":1878,"mit":1879,"Ġ25":1880,"Ġannounc":1881,"Ġgave":1882,"ĠPart":1883,"Ġhalf":1884,"Ġread":1885,"ning":1886,"ps":1887,"Ġkeep":1888,"of":1889,"Ġtalk":1890,"ata":1891,"Ġnon":1892,"urther":1893,"ee":1894,"Ġknew":1895,"Ġsent":1896,"ĠHar":1897,"Ġconstr":1898,"Ġtot":1899,"Ġcrit":1900,"raw":1901,"ertain":1902,"Ġmom":1903,"Ġfre":1904,"raft":1905,"ole":1906,"Ġwin":1907,"Ġport":1908,"ĠPar":1909,"ĠPark":1910,"Ġeduc":1911,"Ġcareer":1912,"Ġide":1913,"Ġopened":1914,"Ġmeet":1915,"ĠSy":1916,"ĠPres":1917,"stand":1918,"ĠRuss":1919,"Ġpoint":1920,"Ġ[":1921,"Ġinvol":1922,"ĠCollege":1923,"Ġcollect":1924,"Ġservice":1925,"!âĢĿ":1926,"ondon":1927,"ories":1928,"irc":1929,"udd":1930,"Ġothers":1931,"Ġeffect":1932,"ĠSec":1933,"ases":1934,"Ġreturned":1935,"ĠAng":1936,"Ġ2017":1937,"Ġblack":1938,"ours":1939,"Ġever":1940,"Ġthings":1941,"ev":1942,"Ġground":1943,"Ġfield":1944,"ilar":1945,"Ġworked":1946,"line":1947,"Ġ190":1948,"Ġwind":1949,"Ġstat":1950,"Ġoriginal":1951,"rick":1952,"Ġinterest":1953,"Ġgirl":1954,"ĠBo":1955,"Ġ30":1956,"used":1957,"Ġmight":1958,"ĠTe":1959,"ument":1960,"Ġlove":1961,"ĠJapan":1962,"Ġbrother":1963,"ford":1964,"Ġra":1965,"lished":1966,"Ġlost":1967,"Ġhistory":1968,"ising":1969,"Ġseen":1970,"10":1971,"ĠRiver":1972,"ploy":1973,"Ġprocess":1974,"Ġprevious":1975,"Ġrad":1976,"Ġtrack":1977,"avy":1978,"Ġtri":1979,"ĠLondon":1980,"ĠCor":1981,"Ġeas":1982,"ĠAfric":1983,"ĠDistrict":1984,"Ġauthor":1985,"Ġinform":1986,"Ġprop":1987,"Ġmean":1988,"sw":1989,"Ġfac":1990,"ummer":1991,"Ġsat":1992,"Ġmaking":1993,"ĠMe":1994,"yle":1995,"Ġtechn":1996,"ays":1997,"Ġless":1998,"Ġwanted":1999,"ribut":2000,"ino":2001,"Ġmillion":2002,"Ġgrad":2003,"ament":2004,"ĠThese":2005,"oney":2006,"adem":2007,"ler":2008,"Ġalways":2009,"Ġreally":2010,"Ġenough":2011,"Ġsil":2012,"ĠComp":2013,"Ġ2018":2014,"Ġhuman":2015,"reg":2016,"Ġcommon":2017,"Ġmind":2018,"Ġroad":2019,"Ġlo":2020,"ots":2021,"iled":2022,"Ġusing":2023,"Ġstory":2024,"Ġround":2025,"hel":2026,"unic":2027,"Ġspecial":2028,"Ġcharacter":2029,"Ġcontrol":2030,"Ġgrow":2031,"\")":2032,"ction":2033,"Ġfar":2034,"istr":2035,"ges":2036,"Ġgames":2037,"Ġrole":2038,"amb":2039,"ote":2040,"Ġclaim":2041,"Ġhowever":2042,"inal":2043,"ĠMed":2044,"rest":2045,"Ġtitle":2046,"Ġactiv":2047,"Ġsn":2048,"ĠAcc":2049,"Ġimportant":2050,"ef":2051,"Ġtem":2052,"Ġvarious":2053,"oke":2054,"hys":2055,"Ġposition":2056,"ivid":2057,"ĠSo":2058,"Ġestablished":2059,"cent":2060,"ĠHouse":2061,"aughter":2062,"Ġfem":2063,"epend":2064,"ogn":2065,"Ġquest":2066,"conom":2067,"Ġhands":2068,"Ġmarried":2069,"What":2070,"iber":2071,"Ġpo":2072,"Ġcreated":2073,"ĠMich":2074,"ĠSoc":2075,"ĠEm":2076,"Ġdistrict":2077,"aps":2078,"Ġinit":2079,"Ġable":2080,"rote":2081,"Ġsqu":2082,"bs":2083,"Ġgen":2084,"ush":2085,"ĠGl":2086,"Ġ24":2087,"Ġ189":2088,"Ġliving":2089,"ĠPhil":2090,"Ġpract":2091,"Ġtre":2092,"Ġrese":2093,"Ġlangu":2094,"Ġfire":2095,"aut":2096,"Ġbetter":2097,"Ġcult":2098,"Ġdest":2099,"levision":2100,"Ġpast":2101,"Ġjoined":2102,"lex":2103,"ĠChampionship":2104,"Ġwoman":2105,"Ġstudents":2106,"Ġfall":2107,"Ġtotal":2108,"Ġannounced":2109,"Ġview":2110,"ready":2111,"ĠIr":2112,"Ġlim":2113,"Ġcommunity":2114,"eneral":2115,"ĠAir":2116,"Ġinfl":2117,"Ġlive":2118,"It":2119,"iding":2120,"Ġalmost":2121,"alt":2122,"Ġstep":2123,"Ġaward":2124,"bed":2125,"Ġattempt":2126,"ĠSan":2127,"atter":2128,"ressed":2129,"rown":2130,"Ġquick":2131,"lin":2132,"Ġarch":2133,"ĠFrom":2134,"abor":2135,"ĠTw":2136,"Ġappeared":2137,"Ġworking":2138,"ecut":2139,"Ġhap":2140,"ander":2141,"Ġgive":2142,"Ġchurch":2143,"Ġappoin":2144,"ĠSup":2145,"ĠTo":2146,"ript":2147,"Ġgeneral":2148,"Ġlow":2149,"Ġhig":2150,"ĠRes":2151,"uel":2152,"Ġfree":2153,"Ġclose":2154,"ĠSer":2155,"Ġattend":2156,"Ġvoice":2157,"ination":2158,"ĠEngland":2159,"Ġwritten":2160,"ociation":2161,"Ġwife":2162,"ĠCup":2163,"ĠPer":2164,"Ġcase":2165,"ĠPe":2166,"Ġsure":2167,"ma":2168,"Ġleast":2169,"ĠLa":2170,"Ġfurther":2171,"Ġ,":2172,"Ġalready":2173,"iron":2174,"ened":2175,"Ġpri":2176,"Ġdefe":2177,"ĠDiv":2178,"sel":2179,"aper":2180,"Ġcaus":2181,"Ġwasn":2182,"Ġproduced":2183,"cast":2184,"Ġplan":2185,"Ġdevelopment":2186,"Ġtaken":2187,"Ġconn":2188,"Ġproper":2189,"Ġhappen":2190,"Ġplayer":2191,"Ġ21":2192,"ha":2193,"ĠDep":2194,"ĠEast":2195,"Ġwrote":2196,"Ġoffice":2197,"Ġdark":2198,"Ġmanag":2199,"Ġproble":2200,"for":2201,"Ġhistor":2202,"ops":2203,"ample":2204,"ĠInternational":2205,"ping":2206,"Ġstrong":2207,"Ġrock":2208,"Ġcou":2209,"go":2210,"Ġclos":2211,"Ġsimilar":2212,"ĠJames":2213,"ĠChurch":2214,"hold":2215,"Ġfollowed":2216,"Ġdescribed":2217,"acy":2218,"utes":2219,"Ġprim":2220,"head":2221,"Ġsoon":2222,"off":2223,"aring":2224,"Ġhost":2225,"sequ":2226,"Ġbas":2227,"ĠIndian":2228,"aves":2229,"ĠNe":2230,"ĠSome":2231,"isc":2232,"Ġinvest":2233,"Ġbig":2234,"Ġwall":2235,"ivil":2236,"Ã³":2237,"orts":2238,"Ġfell":2239,"Ġindivid":2240,"Ġten":2241,"ĠChar":2242,"Ġ0":2243,"ĠSm":2244,"Ġrail":2245,"ĠAg":2246,"Ġtest":2247,"Ġinf":2248,"Ġexist":2249,"oyal":2250,"ius":2251,"dom":2252,"iddle":2253,"Ġpopular":2254,"Ġfight":2255,"Ġmot":2256,"Ġ2005":2257,"Ġconsidered":2258,"Ġdebut":2259,"int":2260,"Ġmer":2261,"ship":2262,"Ġwhite":2263,"Ġ2019":2264,"Ġpolitical":2265,"Ġant":2266,"Ġworks":2267,"uce":2268,"iff":2269,"Ġheart":2270,"Ġparticular":2271,"Ġ188":2272,"Ġident":2273,"lands":2274,"idence":2275,"ĠAc":2276,"ĠRec":2277,"Ġbar":2278,"Ġparty":2279,"Ġtrav":2280,"Ġsug":2281,"ica":2282,"orthern":2283,"reek":2284,"Ġupon":2285,"50":2286,"Ġcomb":2287,"Ġmatch":2288,"omb":2289,"ĠPresident":2290,"ills":2291,"Ġpriv":2292,"Ġhon":2293,"itor":2294,"ĠEn":2295,"Ġreached":2296,"Ġintrod":2297,"iment":2298,"Ġfail":2299,"ministr":2300,"Ġanything":2301,"Ġboy":2302,"ael":2303,"airs":2304,"Ġaver":2305,"bor":2306,"eck":2307,"Ġmilitary":2308,"key":2309,"ĠAccording":2310,"ĠPaul":2311,"ĠMr":2312,"outhern":2313,"olution":2314,"Ġvol":2315,"Ġ22":2316,"17":2317,"Ġthing":2318,"Ġsite":2319,"ĠThom":2320,"rought":2321,"hic":2322,"Ġord":2323,"Ġlearn":2324,"Ġ2000":2325,"Ġcross":2326,"Ġdone":2327,"ĠCouncil":2328,"ĠWhat":2329,"Ġele":2330,"ĠDes":2331,"12":2332,"lic":2333,"Ġdev":2334,"anch":2335,"Ġcourse":2336,"Ġengine":2337,"ĠArt":2338,"Ġelection":2339,"Ġ100":2340,"Ġeither":2341,"Ġtowards":2342,"ox":2343,"ĠWhile":2344,"Ġvide":2345,"ĠAct":2346,"sk":2347,"ĠIndia":2348,"ĠRoman":2349,"Ġrecogn":2350,"ĠGeorge":2351,"Ġproduction":2352,"Ġsocial":2353,"Ġbroad":2354,"Ġofficial":2355,"Ġversion":2356,"oul":2357,"Ġstay":2358,"Ġmid":2359,"ĠRober":2360,"era":2361,"Ġwhy":2362,"ĠQu":2363,"Ġbed":2364,"ĠStreet":2365,"Ġfoc":2366,"Ġparticip":2367,"lo":2368,"Ġentire":2369,"ĠSch":2370,"Ġrelations":2371,"iec":2372,"ring":2373,"Th":2374,"ucted":2375,"ĠJack":2376,"iforn":2377,"Ġtelevision":2378,"Ġepis":2379,"ĠAustralia":2380,"ĠSam":2381,"etwork":2382,"iol":2383,"Ġmoment":2384,"Ġ23":2385,"anks":2386,"ĠArmy":2387,"ĠDavid":2388,"Ġcoll":2389,"Ġhit":2390,"Ġnothing":2391,"Ġsuff":2392,"ĠMor":2393,"ming":2394,"ades":2395,"Ġ2004":2396,"ĠEuropean":2397,"Ġ186":2398,"ocr":2399,"Ġregion":2400,"Ġmult":2401,"ĠDan":2402,"itive":2403,"ids":2404,"ule":2405,"Ġdeep":2406,"Ġindust":2407,"ney":2408,"Ġinflu":2409,"rey":2410,"ili":2411,"ended":2412,"Ġkind":2413,"ought":2414,"Ġinside":2415,"ĠVal":2416,"Ġarm":2417,"ett":2418,"ifornia":2419,"Ġdou":2420,"Ġfig":2421,"ĠGeneral":2422,"Ġresearch":2423,"Ġste":2424,"ĠMon":2425,"Ġmiss":2426,"stitute":2427,"Ġce":2428,"Ġvict":2429,"Ġexample":2430,"Ġchange":2431,"ĠAmerica":2432,"Ġmonths":2433,"aching":2434,"ĠRich":2435,"nder":2436,"Ġdam":2437,"Ġoutside":2438,"Ġlooking":2439,"wh":2440,"cle":2441,"ĠRepublic":2442,"Ġfinished":2443,"16":2444,"ĠFrance":2445,"pite":2446,"Ġabove":2447,"ĠJos":2448,"hib":2449,"ico":2450,"ological":2451,"Ġcast":2452,"ĠQue":2453,"Ġeconom":2454,"Ġpur":2455,"aid":2456,"ĠCalifornia":2457,"St":2458,"Ġve":2459,"Ġalthough":2460,"aint":2461,"Ġdecided":2462,"unicip":2463,"Ġplaying":2464,"field":2465,"ĠNot":2466,"read":2467,"ĠCr":2468,"ĠHol":2469,"Ġagre":2470,"rem":2471,"eum":2472,"Ġbrought":2473,"ĠThen":2474,"Ġinternational":2475,"Ġwords":2476,"Ġavail":2477,"ĠBel":2478,"Ġselect":2479,"Ġformed":2480,"Ġmem":2481,"ĠCour":2482,"over":2483,"ude":2484,"Ġap":2485,"year":2486,"band":2487,"ĠBer":2488,"Ġstruct":2489,"Ġlik":2490,"ords":2491,"ÃŃ":2492,"Ġheard":2493,"ĠParty":2494,"Ã¼":2495,"Ġdaughter":2496,"ply":2497,"We":2498,"Ġtou":2499,"ashing":2500,"Ġcirc":2501,"15":2502,"Ġaut":2503,"Ġfund":2504,"ibr":2505,"Ġeight":2506,"Ġhous":2507,"Ġeast":2508,"Ġfounded":2509,"200":2510,"Ġmater":2511,"now":2512,"Ġemploy":2513,"oted":2514,"ville":2515,"tt":2516,"Ġrecorded":2517,"Ġenc":2518,"unk":2519,"Ġinformation":2520,"urb":2521,"Ġprofessional":2522,"Ġtaking":2523,"itch":2524,"de":2525,"aught":2526,"ĠLou":2527,"Ġ187":2528,"fully":2529,"Ġareas":2530,"Ġ<":2531,"ishing":2532,"Ġtradition":2533,"medi":2534,"imately":2535,"Ġtyp":2536,"Ġhy":2537,"Ġdisco":2538,"Ġunderstand":2539,"ĠPort":2540,"ĠMary":2541,"ference":2542,"ceed":2543,"Ġbecom":2544,"ĠMal":2545,"ĠAnt":2546,"Ġphys":2547,"Ġtour":2548,"Ġmoney":2549,"Ġleave":2550,"itte":2551,"Ġsepar":2552,"iers":2553,"roy":2554,"Ġgradu":2555,"Ġwest":2556,"Ġ26":2557,"Ġsuggest":2558,"ari":2559,"Ġprob":2560,"Ġdeveloped":2561,"Ġclear":2562,"Ġsigned":2563,"irt":2564,"ĠDivision":2565,"ĠPat":2566,"Ġren":2567,"Ġansw":2568,"Ġjourn":2569,"ĠDon":2570,"Ġdeg":2571,"Ġ28":2572,"Ġproduct":2573,"Ġparent":2574,"Ġrelease":2575,"Ġaccept":2576,"ression":2577,"oved":2578,"ĠPal":2579,"elling":2580,"pect":2581,"Ġevents":2582,"Ġpresident":2583,"Ġstre":2584,"gin":2585,"Ġcost":2586,"ware":2587,"ĠCanada":2588,"cer":2589,"Ġaverage":2590,"Ġnov":2591,"Ġbreak":2592,"Ġ27":2593,"Ġcertain":2594,"Ġpul":2595,"aign":2596,"Ġrout":2597,"Ġmove":2598,"ift":2599,"ĠAlex":2600,"Ġcut":2601,"Ġyet":2602,"Ġremained":2603,"Ġappointed":2604,"Ġmount":2605,"Ġpay":2606,"Ġanim":2607,"Ġrather":2608,"ĠJust":2609,"Ġsitu":2610,"Ġreported":2611,"ys":2612,"Ġcommand":2613,"Ġtried":2614,"Ġcouldn":2615,"Ġelected":2616,"Ġpark":2617,"Ġpoints":2618,"Ġrev":2619,"ensive":2620,"Ġz":2621,"ements":2622,"Ġcontract":2623,"van":2624,"Ġcell":2625,"ĠJe":2626,"lymp":2627,"atural":2628,"Ġcreat":2629,"isted":2630,"Ġrul":2631,"Ġfood":2632,"ĠHen":2633,"Ġreview":2634,"odd":2635,"oph":2636,"Ġlanguage":2637,"Ġavailable":2638,"Ġsignific":2639,"Ġpossible":2640,"Ġkilled":2641,"Ġrace":2642,"Ġhor":2643,"Ġbase":2644,"Ġran":2645,"Ġadded":2646,"Ġinstr":2647,"Ġple":2648,"Ġsomeone":2649,"istic":2650,"BC":2651,"ips":2652,"ators":2653,"Ġsle":2654,"Ġtrying":2655,"Ġblood":2656,"Ġpress":2657,"uz":2658,"uf":2659,"ĠRed":2660,"Ġformula":2661,"erous":2662,"Ġmodern":2663,"Ġgun":2664,"ĠDo":2665,"Ġstood":2666,"Ġslow":2667,"Ġearl":2668,"__":2669,"selves":2670,"ij":2671,"ĠMil":2672,"Ġpick":2673,"ĠOlymp":2674,"olic":2675,"ique":2676,"Ġteams":2677,"No":2678,"ises":2679,"Ġdoing":2680,"raz":2681,"Ġrelig":2682,"ĠAssociation":2683,"ential":2684,"ĠHall":2685,"anced":2686,"hers":2687,"orning":2688,"Ġvideo":2689,"13":2690,"Ġ2003":2691,"unt":2692,"aur":2693,"ensus":2694,"Ġfloor":2695,"Ġdeal":2696,"ospital":2697,"ago":2698,"han":2699,"Ġsour":2700,"ĠDem":2701,"Ġbur":2702,"Ġ1990":2703,"fic":2704,"ĠUnion":2705,"ights":2706,"acing":2707,"ĠRoyal":2708,"ership":2709,"play":2710,"ĠTom":2711,"ump":2712,"14":2713,"Ġquickly":2714,"Ġproduc":2715,"Ġwait":2716,"hem":2717,"wood":2718,"Ġlaun":2719,"ĠMo":2720,"Ġtable":2721,"men":2722,"Ġservices":2723,"Ġfav":2724,"rup":2725,"Ġfeet":2726,"chie":2727,"Ġdro":2728,"Ġsurv":2729,"Ġmaterial":2730,"Ġindepend":2731,"Ġclosed":2732,"ĠNor":2733,"Ġwood":2734,"ĠMag":2735,"ĠAlthough":2736,"ĠMart":2737,"Ġdead":2738,"ks":2739,"Ġminutes":2740,"bert":2741,"ĠSen":2742,"ĠCap":2743,"not":2744,"asing":2745,"aled":2746,"ification":2747,"enced":2748,"ipp":2749,"igned":2750,"Ġeducation":2751,"Ġsays":2752,"ny":2753,"Ġesc":2754,"sy":2755,"Ġplaced":2756,"ĠSte":2757,"ĠGermany":2758,"val":2759,"uture":2760,"Ġdirector":2761,"Ġneeded":2762,"ĠÐ":2763,"Ġseven":2764,"ĠRoad":2765,"Ã¶":2766,"Ġexc":2767,"Ġmarket":2768,"Ġinstead":2769,"oud":2770,"ilities":2771,"Ġcoming":2772,"Ġregular":2773,"Ġrespons":2774,"Ġphot":2775,"rian":2776,"Ġpolice":2777,"Ġjob":2778,".âĢĻ":2779,"Ġinvolved":2780,"Ġimpro":2781,"Ġlot":2782,"Ġseemed":2783,".,":2784,"ĠFranc":2785,"Ġthroughout":2786,"ston":2787,"Ġstri":2788,"irit":2789,"Ġ2002":2790,"Ġspace":2791,"ittee":2792,"Ġeventually":2793,"Ġill":2794,"iction":2795,"tion":2796,"ĠFirst":2797,"elled":2798,"itect":2799,"30":2800,"omen":2801,"Ġbit":2802,"Ġidea":2803,"Ġsaf":2804,"time":2805,"ĠAustralian":2806,"Ġreason":2807,"Ġwhole":2808,"ĠMark":2809,"ĠOff":2810,"ĠSince":2811,"Ġlab":2812,"Ġcop":2813,"estival":2814,"ĠThomas":2815,"Ġstyle":2816,"ĠAward":2817,"Ġadministr":2818,"Ġbelieve":2819,"'m":2820,"Ġstudy":2821,"pec":2822,"ĠSim":2823,"urt":2824,"ging":2825,"Ġusually":2826,"Ġhair":2827,"Ġ1980":2828,"ĠBlack":2829,"Ġfinally":2830,"Ġpot":2831,"Ġsubject":2832,"ĠRobert":2833,"Ġ2001":2834,"Ġleading":2835,"Ġbad":2836,"ability":2837,"ilies":2838,"Ġcal":2839,"Ġsex":2840,"Ġtraining":2841,"Ġ29":2842,"igr":2843,"ĠChristian":2844,"aker":2845,"hod":2846,"ĠCourt":2847,"Ġacqu":2848,"Ġquestion":2849,"arliam":2850,"ya":2851,"room":2852,"Ġtoday":2853,"Ġfeatures":2854,"Ġaccess":2855,"Ġcampaign":2856,"Ġself":2857,"Ġperformed":2858,"Ġhealth":2859,"ĠHist":2860,"ĠMichael":2861,"Ġrespect":2862,"Ġdoc":2863,"Ġmeans":2864,"ĠSl":2865,"ĠAngel":2866,"Ġwid":2867,"Ġdesigned":2868,"Ġbring":2869,"ĠCompany":2870,"back":2871,"arter":2872,"ears":2873,"Ġrunning":2874,"ray":2875,"cy":2876,"aven":2877,"Ġforce":2878,"Ġtreat":2879,"ĠJew":2880,"arliament":2881,"Ġchanged":2882,"Ġhot":2883,"ĠMad":2884,"Ġcompleted":2885,"Ġcurrently":2886,"ĠPri":2887,"eal":2888,"Ġitself":2889,"ĠMex":2890,"ĠChina":2891,"Ġver":2892,"iqu":2893,"Ġeverything":2894,"Ġobs":2895,"ength":2896,"asons":2897,"ĠJes":2898,"ĠLord":2899,"Ġsoft":2900,"yr":2901,"Ġsongs":2902,"ĠMount":2903,"Ġconcern":2904,"viron":2905,"Ġassoci":2906,"urity":2907,"Ġarg":2908,"Ġgold":2909,"ned":2910,"Ġbooks":2911,"ateg":2912,"ashington":2913,"11":2914,"Ġfriends":2915,"Ġprivate":2916,"hood":2917,"ĠMiss":2918,"Ġwat":2919,"ĠIsland":2920,"Ġhours":2921,"Ġhousehold":2922,"Ġaccom":2923,"Ġgrand":2924,"iting":2925,"Ġstage":2926,"west":2927,"Ġsignificant":2928,"Ġlonger":2929,"Ġter":2930,"ĠLaw":2931,"isl":2932,"ederal":2933,"Ġwatch":2934,"Ġkey":2935,"Ġreve":2936,"Ġmass":2937,"inese":2938,"Ġdraw":2939,"ĠCentral":2940,"Ġconstruction":2941,"Ġarms":2942,"Ġforces":2943,"CA":2944,"ctor":2945,"Ġleague":2946,"Ġjud":2947,"Ġhapp":2948,"Ġfif":2949,"Ġradio":2950,"Ġgroups":2951,"Ġcourt":2952,"Ġrelationship":2953,"irm":2954,"Ġcapt":2955,"Ġpassed":2956,"ena":2957,"ĠEar":2958,"stant":2959,"pecially":2960,"ĠStud":2961,"ĠOther":2962,"Ġviol":2963,"atory":2964,"face":2965,"ving":2966,"Ġ50":2967,"Ġlargest":2968,"Ġremember":2969,"Ġliter":2970,"Ġqual":2971,"illed":2972,"leg":2973,"itz":2974,"fort":2975,"apt":2976,"ecutive":2977,"ĠCharles":2978,"Ġincludes":2979,"Ġdi":2980,"Ġwalked":2981,"Ġinj":2982,"ume":2983,"ademy":2984,"Ġaud":2985,"Ġplayers":2986,"Ġplant":2987,"Ġgoal":2988,"Ġcand":2989,"ecess":2990,"Ġsus":2991,"ĠBay":2992,"Ġassist":2993,"ĠTown":2994,"Ġpiec":2995,"incip":2996,"azine":2997,"Ġobject":2998,"Ġspent":2999,"Ġmorning":3000,"enty":3001,"ounter":3002,"Ġmunicip":3003,"ĠIts":3004,"Ġhom":3005,"ires":3006,"ands":3007,"ris":3008,"Ġlay":3009,"Ġcenter":3010,"Ġstated":3011,"olf":3012,"Ġ1970":3013,"Ġseat":3014,"stitut":3015,"ournament":3016,"ĠDepartment":3017,"Ġprobably":3018,"Ġdecl":3019,"ĠChap":3020,"aries":3021,"Ġprovided":3022,"Ġoriginally":3023,"ky":3024,"Ġimmedi":3025,"Ġball":3026,"ĠWashington":3027,"ĠClub":3028,"=\"":3029,"burg":3030,"Ġcoach":3031,"Ġoccur":3032,"osition":3033,"ores":3034,"ĠCenter":3035,"Ġgetting":3036,"ĠFrank":3037,"Ġexcept":3038,"berg":3039,"ĠGrand":3040,"Ġdirected":3041,"ĠRail":3042,"arily":3043,"pped":3044,"like":3045,"ĠTV":3046,"Ġelse":3047,"tr":3048,"ĠCath":3049,"Ġang":3050,"icy":3051,"gress":3052,"ergy":3053,"erve":3054,"Ġking":3055,"mb":3056,"irth":3057,"Ġsaying":3058,"Ġwond":3059,"Ġfuture":3060,"Ġachie":3061,"iles":3062,"alian":3063,"Ġboard":3064,"Ġschools":3065,"ĠSal":3066,"anish":3067,"inner":3068,"ĠUK":3069,"het":3070,"uter":3071,"Ġherself":3072,"Ġallowed":3073,"--":3074,"Ġchair":3075,"Ġrank":3076,"Ġsize":3077,"Ġpers":3078,"ida":3079,"Ġcollege":3080,"Ġnetwork":3081,"Ġextend":3082,"ĠGroup":3083,"Ġloss":3084,"Ġcountries":3085,"km":3086,"Ġcivil":3087,"Ġtravel":3088,"Ġforward":3089,"Ġconv":3090,"Ġfeatured":3091,"Ġriver":3092,"Ġ()":3093,"Ġplann":3094,"Ġmur":3095,"Ġparents":3096,"Ġbeginning":3097,"imate":3098,"atives":3099,"Ġshot":3100,"Ġreplaced":3101,"oring":3102,"ĠâĢĶ":3103,"ĠVir":3104,"craft":3105,"ĠGreat":3106,"Ġespecially":3107,"Ġbene":3108,"ani":3109,"ĠFin":3110,"ĠTur":3111,"Ch":3112,"Ġthemselves":3113,"arian":3114,"ĠPeter":3115,"Ġaccount":3116,"Ġabs":3117,"ugg":3118,"ĠChinese":3119,"Ġrange":3120,"ĠCong":3121,"osing":3122,"agon":3123,"mm":3124,"Ġperformance":3125,"Ġtoward":3126,"ĠMont":3127,"rel":3128,"Ġstates":3129,"ĠVict":3130,"Ġneg":3131,"Ġfa":3132,"Ġ1999":3133,"ĠNow":3134,"ĠÃ":3135,"anded":3136,"Ġblock":3137,"Ġ*":3138,"ala":3139,"icated":3140,"Ġwhose":3141,"ĠWestern":3142,"ĠTwo":3143,"ĠInstitute":3144,"Ġneigh":3145,"Ġmodel":3146,"Ġspecific":3147,"Ġdiffic":3148,"Ġkept":3149,"ĠLouis":3150,"Ġreb":3151,"Ġepisode":3152,"Ġdifficult":3153,"merc":3154,"ĠProv":3155,"hest":3156,"ĠMost":3157,"Ġfemale":3158,"Ġpulled":3159,"Ġbelow":3160,"mar":3161,"Ġmix":3162,"Ġhus":3163,"ĠScott":3164,"Ġfarm":3165,"vironment":3166,"Ġsurround":3167,"Ġcy":3168,"oid":3169,"Ġalone":3170,"Ġprovide":3171,"ĠCam":3172,"Ġwr":3173,"Ġtype":3174,"Ġtransfer":3175,"Ġsubsequ":3176,"Ġopt":3177,"Ġregard":3178,"rael":3179,"Ð°":3180,"Ġshows":3181,"ĠPet":3182,"eph":3183,"ending":3184,"ĠMac":3185,"Ġbi":3186,"Ġawarded":3187,"Ġdeterm":3188,"Ġcompan":3189,"Ġpersonal":3190,"Ġaction":3191,"ĠTex":3192,"'re":3193,"Ġleaving":3194,"Ġmeas":3195,"ĠWhite":3196,"Ġentered":3197,"Ġhear":3198,"Ġsem":3199,"Ġimm":3200,"Ġdegree":3201,"ĠBen":3202,"Ġlived":3203,"odes":3204,"ĠHenry":3205,"Ġwide":3206,"ĠMer":3207,"Ġraised":3208,"ĠSociety":3209,"Ġcentral":3210,"vernor":3211,"ĠMat":3212,"asc":3213,"ushed":3214,"ĠWil":3215,"Ġmatter":3216,"Ġdiscover":3217,"Ġparts":3218,"Ġnovel":3219,"Ġmouth":3220,"Ġdestroy":3221,"fect":3222,"Ġbattle":3223,"Ġhop":3224,"Ġactually":3225,"Ġended":3226,"ples":3227,"Ġpurch":3228,"rom":3229,"'d":3230,"iation":3231,"ĠServ":3232,"Ġfourth":3233,"Ġpred":3234,"Ġwriting":3235,"ĠSing":3236,"Ġstar":3237,"Ġsometimes":3238,"Ġanc":3239,"ams":3240,"use":3241,"ka":3242,"ground":3243,"ĠRussian":3244,"owers":3245,"Ġcorn":3246,"undred":3247,"Ġfamilies":3248,"Ġcompetition":3249,"ĠMusic":3250,"ĠAfrican":3251,"Ġcapital":3252,"Ġarchitect":3253,"ĠJapanese":3254,"usion":3255,"roll":3256,"Ġder":3257,"astern":3258,"ĠMet":3259,"Ġearlier":3260,"ĠLat":3261,"Ġ1998":3262,"Ġhusband":3263,"action":3264,"Ġartic":3265,"ĠCanadian":3266,"Ġonto":3267,"Ġapprox":3268,"Ġ1960":3269,"ĠMinister":3270,"Ġtry":3271,"Ġcat":3272,"Ġfocus":3273,"Ġlower":3274,"Ġtrue":3275,"board":3276,"rief":3277,"ipped":3278,"Ġnatural":3279,"Ġmess":3280,"uke":3281,"Ġrights":3282,"Ġtax":3283,"Ġsuccessful":3284,"ux":3285,"ĠAcademy":3286,"He":3287,"ĠRichard":3288,"add":3289,"Ġsen":3290,"ĠMel":3291,"ĠGreen":3292,"Ġmethod":3293,"Ġintroduced":3294,"Ġoccup":3295,"aine":3296,"Ġ40":3297,"ibility":3298,"Ġnorm":3299,"hi":3300,"Ġnews":3301,"Ġwhom":3302,"ician":3303,"Ġbank":3304,"annel":3305,"ĠCons":3306,"fit":3307,"Ġsecret":3308,"Ġattention":3309,"gen":3310,"udden":3311,"ĠRad":3312,"Ġmovement":3313,"ĠItalian":3314,"ano":3315,"Ġsett":3316,"Ġ185":3317,"Ġlif":3318,"ĠLake":3319,"rd":3320,"Ġpurp":3321,"Ġstopped":3322,"Ġbox":3323,"ĠHam":3324,"istry":3325,"Ġfing":3326,"ĠDemocr":3327,"aded":3328,"Ġprison":3329,"Ġspeak":3330,"mon":3331,"ĠCont":3332,"oint":3333,"Ġhappened":3334,"Ġthreat":3335,"atre":3336,"ĠIsrael":3337,"lim":3338,"Ġmakes":3339,"ĠGold":3340,"right":3341,"Ġ184":3342,"Ġolder":3343,"uge":3344,"ĠFoot":3345,"Ġteac":3346,"lying":3347,"order":3348,"alled":3349,"Ġsister":3350,"Ġmaintain":3351,"Ġsummer":3352,"ĠVictor":3353,"Ġmiddle":3354,"ishop":3355,"iced":3356,"Ġ1996":3357,"Ġdata":3358,"kn":3359,"unity":3360,"Ġbuildings":3361,"rol":3362,"Ġ31":3363,"Ġcritic":3364,"ĠPenn":3365,"Ġlength":3366,"ĠAfrica":3367,"Ġenergy":3368,"ĠSpanish":3369,"ellow":3370,"Ġinvestig":3371,"ĠTor":3372,"ites":3373,"idae":3374,"Ġden":3375,"uty":3376,"Ġsection":3377,"Ġsupp":3378,"Ġeye":3379,"Ġsuper":3380,"mercial":3381,"Ġfrequ":3382,"Ġdiscuss":3383,"well":3384,"aval":3385,"That":3386,"Ġbeaut":3387,"ria":3388,"Ġbreath":3389,"Ġattended":3390,"ĠFrancis":3391,"ension":3392,"Ġisland":3393,"ĠApp":3394,"Ġemer":3395,"ify":3396,"iling":3397,"Ġcontribut":3398,"ĠVirgin":3399,"oo":3400,"Ġaircraft":3401,"inct":3402,"Ġ1997":3403,"Ġmention":3404,"Ġhigher":3405,"Ġmeeting":3406,"Ġweeks":3407,"uals":3408,"ona":3409,"199":3410,"riage":3411,"Ġlack":3412,"eg":3413,"ously":3414,"Ġfle":3415,"Ġ#":3416,"olk":3417,"ĠDay":3418,"Ġexperience":3419,"abit":3420,"Ġarmy":3421,"25":3422,"Ġsurpr":3423,"ĠSmith":3424,"izing":3425,"Ġvalue":3426,"Ġlives":3427,"ibrary":3428,"ĠChe":3429,"Ġaccording":3430,"ests":3431,"Yes":3432,"Ġcandid":3433,"ees":3434,"ening":3435,"Ġopening":3436,"Ġexam":3437,"asket":3438,"ography":3439,"oper":3440,"road":3441,"Ġscored":3442,"Ġproblem":3443,"ĠRob":3444,"asion":3445,"Ġforced":3446,"Ġcouple":3447,"Ġsea":3448,"NA":3449,"Ġhall":3450,"sych":3451,"ĠMany":3452,"Ġleader":3453,"Ġcred":3454,"Ġrequired":3455,"edy":3456,"Ġindividual":3457,"shire":3458,"ada":3459,"ector":3460,"Ġdisp":3461,"joy":3462,"ĠKingdom":3463,"Ġprem":3464,"stitution":3465,"Ġvia":3466,"Ġcomplete":3467,"Ġgone":3468,"Ġmedia":3469,"Ġ:":3470,"ledge":3471,"Ġsleep":3472,"ios":3473,"Ġtouch":3474,"Ġprincip":3475,"Ġactive":3476,"Ġbroadcast":3477,"idents":3478,"ĠSir":3479,"erved":3480,"bl":3481,"Ġcomplex":3482,"lebr":3483,"ails":3484,"ĠHill":3485,"reland":3486,"ĠÂ":3487,"ĠFollow":3488,"ura":3489,"onstr":3490,"ĠCarol":3491,"Ġruns":3492,"oviet":3493,"Ġmyself":3494,"unn":3495,"ĠParis":3496,"ĠCamp":3497,"Ġquite":3498,"ĠTheir":3499,"ini":3500,"Ġnearly":3501,"Ġnorthern":3502,"Ġstudio":3503,"Ġtakes":3504,"Ġarrived":3505,"ustom":3506,"In":3507,"Ġconsider":3508,"Ġpreviously":3509,"Ġcoast":3510,"ki":3511,"ĠOl":3512,"Ġfilms":3513,"Ġsch":3514,"istan":3515,"Ġlisted":3516,"Ġer":3517,"Ġsense":3518,"Ġsouthern":3519,"Ġsens":3520,"ĠDirect":3521,"ĠCatholic":3522,"Ġpath":3523,"Ġforest":3524,"pan":3525,"Ġestablish":3526,"Ġdate":3527,"ĠSar":3528,"Ġhelped":3529,"Ġstaff":3530,"Äģ":3531,"Ġtro":3532,"Ġpractice":3533,"Ġtransl":3534,"ĠSecond":3535,"Ġ1995":3536,"Ġhundred":3537,"Ġvisit":3538,"Ġwinning":3539,"iences":3540,"ufact":3541,"Ġcaused":3542,"ĠTexas":3543,"Ġsmiled":3544,"ken":3545,"Ġsystems":3546,"Ġdecision":3547,"ita":3548,"een":3549,"Ġheavy":3550,"!\"":3551,"Ġorganization":3552,"Ġnomin":3553,"ĠSant":3554,"ĠFilm":3555,"Ġintern":3556,"Ġsmile":3557,"Ġlink":3558,"Ġstructure":3559,"ils":3560,"Ġ1992":3561,"II":3562,"lam":3563,"Ġexhib":3564,"Ġblue":3565,"'ll":3566,"ĠKh":3567,"Ġapproximately":3568,"Ġ1994":3569,"Ġdefeated":3570,"ĠCarl":3571,"Ġunits":3572,"Ġmoving":3573,"Ġoffered":3574,"haps":3575,"teen":3576,"And":3577,"embly":3578,"Ġmission":3579,"Ġcensus":3580,"ĠInter":3581,"Ġproperty":3582,"cher":3583,"Ġroll":3584,"ĠArch":3585,"ym":3586,"Ġvot":3587,"Ġindustry":3588,"Ġcarry":3589,"Ġscient":3590,"Ġsun":3591,"Ġdivision":3592,"antic":3593,"Ġtar":3594,"Ġowned":3595,"Ġthus":3596,"Ġdocument":3597,"itation":3598,"ĠGreek":3599,"\"),":3600,"ĠFollowing":3601,"Ġplat":3602,"ĠDel":3603,"Ġbecoming":3604,"ĠJesus":3605,"Ġinn":3606,"ental":3607,"ightly":3608,"Ġstudied":3609,"Ġbirth":3610,"ĠMuseum":3611,"aud":3612,"Ġtrain":3613,"umn":3614,"ĠEv":3615,"Ġdig":3616,"oses":3617,"Ġchart":3618,"Ġet":3619,"isk":3620,"Ġstra":3621,"ĠKore":3622,"rial":3623,"ĠFore":3624,"iful":3625,"otion":3626,"ĠCommission":3627,"Ġcomes":3628,"SA":3629,"known":3630,"mitted":3631,"ĠRock":3632,"Ġdoesn":3633,"Ġanaly":3634,"ĠStr":3635,"inary":3636,"Ġanyone":3637,"Ġcovered":3638,"Ġnoted":3639,"Ġrepresented":3640,"Ġfinanc":3641,"Ġimmediately":3642,"Ġpaper":3643,"erry":3644,"ĠFootball":3645,"pro":3646,"iant":3647,"ĠJim":3648,"Ġchampionship":3649,"ĠTrans":3650,"ĠOh":3651,"Ġamount":3652,"aked":3653,"Ġpen":3654,"za":3655,"onse":3656,"porary":3657,"bers":3658,"Ġenjoy":3659,"Ġjournal":3660,"Ġful":3661,"Ġstudent":3662,"Ġprimary":3663,"oe":3664,"Ġeveryone":3665,"Ġplays":3666,"Ġcarried":3667,"Ġvehic":3668,"ĠBur":3669,"Ġbrief":3670,"ota":3671,"ĠSoviet":3672,"Ġrailway":3673,"more":3674,"Ġscreen":3675,"Ġtournament":3676,"Ġmultip":3677,"Ġgenerally":3678,"Ġremain":3679,"allen":3680,"ider":3681,"Ġcreate":3682,"based":3683,"Ġevidence":3684,"Ġpoor":3685,"aved":3686,"ĠGovernment":3687,"Ġbelieved":3688,"Ġartist":3689,"Ġmanaged":3690,"Ġfast":3691,"ĠEr":3692,"ĠRev":3693,"Ġhighest":3694,"ĠBest":3695,"Ġtraditional":3696,"Ġnodd":3697,"ĠChic":3698,"Ġsettle":3699,"ĠAnn":3700,"Ġwhether":3701,"ĠIm":3702,"itar":3703,"Ġspeed":3704,"aped":3705,"Ġweap":3706,"Ġstreet":3707,"Ġappearance":3708,"Ġinsp":3709,"Ġroute":3710,"abb":3711,"Ġglass":3712,"Ġissues":3713,"Ġcommercial":3714,"ares":3715,"Ġlocation":3716,"Ġmach":3717,"Ġwear":3718,"ulated":3719,"ĠFlor":3720,"Ġnecess":3721,"ĠCast":3722,"Ġgas":3723,"Ġterms":3724,"Ġdoub":3725,"Ġmeant":3726,"Ġtow":3727,"Ġstandard":3728,"Ġprior":3729,"itiz":3730,"Ġbelong":3731,"ĠLos":3732,"Ġthr":3733,"ĠLit":3734,"Ġtransport":3735,"Ġfeeling":3736,"ĠGre":3737,"Ġcelebr":3738,"kay":3739,"Ġsusp":3740,"ado":3741,"ining":3742,"ĠBet":3743,"Ġgreen":3744,"Ġmostly":3745,"Ġ1993":3746,"omm":3747,"lit":3748,"ĠBu":3749,"ĠSwed":3750,"Ġcheck":3751,"Ġwrong":3752,"Ġcannot":3753,"anda":3754,"Ġpercent":3755,"Ġenvironment":3756,"Ġswe":3757,"Ġspirit":3758,"Ġ1991":3759,"utch":3760,"Ġnewsp":3761,"Ġadop":3762,"Ġstudies":3763,"Ġcollection":3764,"Ġgiving":3765,"Ġrelated":3766,"Ġready":3767,"oma":3768,"orial":3769,"ĠCommittee":3770,"Ġge":3771,"Ġens":3772,"Ġtext":3773,"40":3774,"Ġcomplet":3775,"Ġindependent":3776,"ien":3777,"ĠAtl":3778,"ĠZeal":3779,"Ġattract":3780,"Ġnumerous":3781,"Ġsudden":3782,"light":3783,"heast":3784,"Ġsum":3785,"ĠOld":3786,"ĠIreland":3787,"Ġdrink":3788,"see":3789,"ella":3790,"ĠMa":3791,"ola":3792,"Ġofficer":3793,"oral":3794,"Âłkm":3795,"Ġwouldn":3796,"Ġmagazine":3797,"Ġsurface":3798,"Ġconcept":3799,"Ġphone":3800,"Ġstraight":3801,"vey":3802,"ether":3803,"Ġlines":3804,"uments":3805,"Ġcause":3806,"Ġhospital":3807,"ĠKn":3808,"Ġprotect":3809,"ĠSuper":3810,"Ġmanufact":3811,"Ġdirection":3812,"60":3813,"apped":3814,"Ġincreased":3815,"Ġpict":3816,"ems":3817,"Ġnature":3818,"la":3819,"orpor":3820,"Ã¤":3821,"Ġnames":3822,"Ġbound":3823,"Ġfear":3824,"reme":3825,"ĠZealand":3826,"Ġoperations":3827,"Ġapplic":3828,"Ġserious":3829,"ĠLuc":3830,"Ðµ":3831,"ĠBrown":3832,"house":3833,"ĠSaint":3834,"ĠCongress":3835,"ĠBill":3836,"Ġstarting":3837,"Ġpack":3838,"Ġindic":3839,"Ġcompanies":3840,"inet":3841,"den":3842,"Oh":3843,"echan":3844,"Ġ1950":3845,"ĠJoseph":3846,"Ġstanding":3847,"och":3848,"Ġhope":3849,"ĠFort":3850,"Ġmeaning":3851,"mark":3852,"Ġchanges":3853,"Ġproblems":3854,"adium":3855,"lor":3856,"Ġterrit":3857,"Ġearth":3858,"ĠUnder":3859,"ĠJul":3860,"Ġresponse":3861,"ero":3862,"ĠEarth":3863,"ĠChapter":3864,"Ġremains":3865,"Ġ\"\"":3866,"chen":3867,"Ġscience":3868,"Ġsimply":3869,"Ġincome":3870,"Ġcompletely":3871,"Ġago":3872,"vert":3873,"Ġcounty":3874,"iring":3875,"itude":3876,"ĠRecords":3877,"Ġ=":3878,"venue":3879,"Ġfailed":3880,"ĠFestival":3881,"Ġlaunched":3882,"Ġtrib":3883,"Ġnodded":3884,"Ġreligious":3885,"Ġfort":3886,"ĠPac":3887,"Ġinterview":3888,"unch":3889,"Ġprevent":3890,"Ġspread":3891,"Ġcontains":3892,"Ġmale":3893,"sis":3894,"igan":3895,"ĠLater":3896,"ĠWomen":3897,"Ġissue":3898,"Ġparticularly":3899,"Ġvictory":3900,"Ġgrant":3901,"Ġlog":3902,"asketball":3903,"ĠForce":3904,"ĠGeorg":3905,"ss":3906,"Ġlikely":3907,"ylvan":3908,"Ġshall":3909,"ĠPlay":3910,"'ve":3911,"ua":3912,"Ð¾":3913,"imin":3914,"Ġcontinue":3915,"ecause":3916,"Ġobtain":3917,"ĠArab":3918,"ĠOf":3919,"isions":3920,"Ġmajority":3921,"Ġlarger":3922,"Ġshoot":3923,"ĠEduc":3924,"ĠAngeles":3925,"Ġshare":3926,"Ġminor":3927,"erem":3928,"Ġop":3929,"Ġsenior":3930,"Don":3931,"ĠĠĠĠĠĠĠĠ":3932,"ĠEven":3933,"ograph":3934,"ta":3935,"Ġcho":3936,"ĠNavy":3937,"Ġtrade":3938,"aph":3939,"Ġcommission":3940,"Ġcharacters":3941,"ĠScot":3942,"ĠChicago":3943,"Well":3944,"ĠSun":3945,"Ġreach":3946,"Ġmedical":3947,"Ġfigure":3948,"Ġshown":3949,"ĠBoard":3950,"Ġadditional":3951,"Ġassociated":3952,"ga":3953,"ĠMexico":3954,"Ġlegal":3955,"ĠAre":3956,"ĠMill":3957,"Ġgrew":3958,"Ġpeace":3959,"80":3960,"ban":3961,"Ġdirectly":3962,"ĠMore":3963,"aches":3964,"Ġimag":3965,"Ġvoc":3966,"Ġactivities":3967,"ER":3968,"ĠSat":3969,"cious":3970,"Ġresults":3971,"ĠSur":3972,"Ġlimited":3973,"ĠFound":3974,"riend":3975,"ading":3976,"Ġcentre":3977,"Ġterr":3978,"ĠHistor":3979,"Ġsal":3980,"Ġcold":3981,"Ġtarget":3982,"Ġemb":3983,"Ġsom":3984,"Ġmanager":3985,"Ġwestern":3986,"Ġconsist":3987,"Ġnine":3988,"Ġcrew":3989,"Ġwindow":3990,"uing":3991,"ribution":3992,"Ġ1989":3993,"umed":3994,"ĠSummer":3995,"ĠEmp":3996,"Ġfirm":3997,"ients":3998,"ustr":3999,"etic":4000,"Ġscore":4001,"ette":4002,"andon":4003,"Ġgoals":4004,"ĠUp":4005,"Ġselected":4006,"ĠArts":4007,"Ġschol":4008,"Ġwa":4009,"ĠVirginia":4010,"Ġstreng":4011,"ols":4012,"ĠSqu":4013,"change":4014,"Ġstone":4015,"ĠItaly":4016,"Ġdistance":4017,"Ġdream":4018,"Ġthinking":4019,"Ġsociety":4020,"Ġcustom":4021,"iÄ":4022,"down":4023,"Ġaw":4024,"Ġfamous":4025,"Ġcontact":4026,"Ġspot":4027,"Ġsend":4028,"Ġunit":4029,"TV":4030,"Ġrap":4031,"Ġadj":4032,"Ġexact":4033,"21":4034,"ylvania":4035,"Ġwriter":4036,"Ġi":4037,"ested":4038,"cript":4039,"aby":4040,"Ġtrou":4041,"Ġgre":4042,"\").":4043,"Ġtwenty":4044,"Ġtrust":4045,"ĠFred":4046,"iny":4047,"ĠBoth":4048,"anger":4049,"ĠParliament":4050,"Ġholding":4051,"Ġdom":4052,"Ġslowly":4053,"23":4054,"ste":4055,"ca":4056,"ables":4057,"ĠOlympics":4058,"Ġcry":4059,"ĠSk":4060,"va":4061,"Ġeconomic":4062,"aling":4063,"Ġ1988":4064,"Ġcaught":4065,"ĠMass":4066,"Ġconnect":4067,"oes":4068,"ronic":4069,"Ġdespite":4070,"Ġtruth":4071,"ĠOver":4072,"Ġthous":4073,"Ġquarter":4074,"ĠMic":4075,"ĠSil":4076,"Ġreflect":4077,"bur":4078,"arden":4079,"writ":4080,"ĠMur":4081,"Ġpan":4082,"Ġchap":4083,"cend":4084,"Ġremaining":4085,"Ġunivers":4086,"Ġspoke":4087,"Ġchief":4088,"ja":4089,"ĠCle":4090,"ĠAnother":4091,"Ġagreed":4092,"Ġretired":4093,"Ġenem":4094,"ĠEvery":4095,"Ġmusical":4096,"atively":4097,"iance":4098,"Ġmatches":4099,"Ġsquad":4100,"Ġfit":4101,"ĠDespite":4102,"Ġfeature":4103,"Ġclaimed":4104,"Ġmovie":4105,"Ġopport":4106,"24":4107,"Ġprograms":4108,"Ġannual":4109,"Ġpal":4110,"Ġculture":4111,"ĠWood":4112,"Ġcases":4113,"Ġplans":4114,"ĠMartin":4115,"Ġbow":4116,"Ġsearch":4117,"imb":4118,"Ġarrest":4119,"Ġnearby":4120,"Ġtree":4121,"ĠRos":4122,"Ġprep":4123,"Ġrate":4124,"Ġrepe":4125,"enth":4126,"aned":4127,"Ġincrease":4128,"ĠBob":4129,"Ġplaces":4130,"Ġtheory":4131,"rect":4132,"Ġforms":4133,"arrow":4134,"Ġded":4135,"ingu":4136,"orry":4137,"Ġpull":4138,"Ġmarriage":4139,"ĠCat":4140,"Ġsituation":4141,"Ġcounter":4142,"plement":4143,"Ġreplied":4144,"ibly":4145,"Ġartists":4146,"ĠHel":4147,"ĠOut":4148,"ĠHum":4149,"Ġsource":4150,"Ġsinger":4151,"Ġforeign":4152,"ĠJud":4153,"ĠLiber":4154,"ĠChampionships":4155,"Ġserving":4156,"inter":4157,"ĠDen":4158,"Ġfunction":4159,"aily":4160,"Ġnation":4161,"Ġcomment":4162,"Ġdrug":4163,"gl":4164,"Ġphil":4165,"Ġsupported":4166,"Ġdiscovered":4167,"So":4168,"Ġmaster":4169,"ricult":4170,"ĠPre":4171,"ĠCharl":4172,"Ġbridge":4173,"Ġtemper":4174,"Ġknowledge":4175,"Ġstrugg":4176,"Ġ183":4177,"Ġfine":4178,"Ġconvers":4179,"rie":4180,"ĠPeople":4181,"ĠBook":4182,"azz":4183,"How":4184,"ĠRussia":4185,"Ġinitially":4186,"Ġpresented":4187,"Ġoffer":4188,"ĠFlorida":4189,"FL":4190,"Ġseparate":4191,"ĠValley":4192,"Ġaltern":4193,"arters":4194,"ĠPenns":4195,"Ġdropped":4196,"Ġsecurity":4197,"ĠProfess":4198,"ervation":4199,"ĠChief":4200,"Ġdog":4201,"unior":4202,"Ġcomputer":4203,"arc":4204,"Ġquiet":4205,"à¤":4206,"Ġcorner":4207,"Ġkiss":4208,"ĠSecret":4209,"Ġstatus":4210,"earch":4211,"Ġsoldiers":4212,"rowd":4213,"Ġstories":4214,"22":4215,"ĠNorthern":4216,"iy":4217,"ounds":4218,"ĠQueen":4219,"Ġmanagement":4220,"ĠIran":4221,"ession":4222,"Ġfavor":4223,"ho":4224,"ĠIrish":4225,"Ġhouses":4226,"Ġcontr":4227,"Ġexpected":4228,"Ġ1987":4229,"Ġreferred":4230,"Ġuniversity":4231,"Ġrequire":4232,"ĠPennsylvania":4233,"ĠHot":4234,"Ġindividuals":4235,"ĠLeg":4236,"Ġwarm":4237,"**":4238,"Ġfinancial":4239,"ĠBraz":4240,"mission":4241,"Ġoperated":4242,"ĠBattle":4243,"irty":4244,"Ġdepart":4245,"illa":4246,"Ġpsych":4247,"Ġshowed":4248,"Ġanti":4249,"Ġscene":4250,"Ġwatched":4251,"eah":4252,"ĠStep":4253,"Ġserve":4254,"Ġchance":4255,"roat":4256,"Ġappears":4257,"bon":4258,"Ġgenus":4259,"eds":4260,"Ġbeat":4261,"Americ":4262,"Ġarrang":4263,"Ġpil":4264,"ĠWales":4265,"Ġpolicy":4266,"Ġrecent":4267,"Ġearned":4268,"ockey":4269,"Ġgirls":4270,"king":4271,"Ġdiss":4272,"ĠJac":4273,"ĠOper":4274,"Ġsquare":4275,"Ġphysical":4276,"Ġcompeted":4277,"ports":4278,"Ġcollabor":4279,"Ġhol":4280,"Ġcommunic":4281,"Ġuses":4282,"Ġplatform":4283,"rid":4284,"ĠBefore":4285,"Ġ1986":4286,"uries":4287,"Ġmetal":4288,"Ġcolor":4289,"ram":4290,"Ġbird":4291,"Ġanswer":4292,"ĠYear":4293,"astic":4294,"Ġtalking":4295,"Ġcitiz":4296,"Ġsequ":4297,"Ġcommit":4298,"ĠFre":4299,"Ġpromin":4300,"ĠBig":4301,"ĠGames":4302,"Ġshr":4303,"ĠHaw":4304,"Ġordered":4305,"Ġstore":4306,"ican":4307,"Ġtechnology":4308,"iger":4309,"Ġletter":4310,"ĠTim":4311,"Ġess":4312,"Ġmunicipality":4313,"Ġresponsible":4314,"ĠCD":4315,"Ġdisplay":4316,"mond":4317,"Ġvariety":4318,"Ġsports":4319,"Ġ1984":4320,"itt":4321,"ĠTechn":4322,"ampion":4323,"Ġnumbers":4324,"Ġir":4325,"obal":4326,"ĠRy":4327,"ias":4328,"Ġtroops":4329,"resh":4330,"Ġinfluence":4331,"Ġpresence":4332,"ault":4333,"Ġships":4334,"ĠProvince":4335,"ora":4336,"Ġancient":4337,"isation":4338,"Ġrespond":4339,"ĠBoy":4340,"Ġedition":4341,"Ġguitar":4342,"ĠSub":4343,"cel":4344,"Ġut":4345,"ĠBre":4346,"Ġtrees":4347,"ĠEll":4348,"Ġdouble":4349,"Ġfair":4350,"bre":4351,"Ġcolon":4352,"But":4353,"27":4354,"Ġaim":4355,"imum":4356,"aging":4357,"Ġmis":4358,"iana":4359,"ĠAp":4360,"Ġconfl":4361,"ĠSouthern":4362,"Al":4363,"Ġsucceed":4364,"ucle":4365,"ington":4366,"tered":4367,"Ġhour":4368,"Ġremoved":4369,"ĠEducation":4370,"Ġcomposed":4371,"ety":4372,"Ġcouncil":4373,"Ar":4374,"Ġsubsequently":4375,"Ġlic":4376,"FA":4377,"Ġfederal":4378,"Ġeditor":4379,"Ġbey":4380,"ĠWork":4381,"Ġperfect":4382,"ĠBrazil":4383,"Ġwild":4384,"Ġ1985":4385,"ellig":4386,"Ġguard":4387,"ĠMax":4388,"Ġshut":4389,"ĠColumb":4390,"Ġamb":4391,"book":4392,"onom":4393,"ancy":4394,"Ġwaiting":4395,"Ġmechan":4396,"Ġstars":4397,"ĠPublic":4398,"ĠJewish":4399,"Ġgrab":4400,"orrow":4401,"ao":4402,"Ġprovides":4403,"Ġpoet":4404,"ĠBus":4405,"ĠBank":4406,"Ġbeyond":4407,"Sh":4408,"Ġmut":4409,"illy":4410,"Ġability":4411,"ĠSol":4412,"onn":4413,"ĠKe":4414,"ĠDou":4415,"ĠEdward":4416,"set":4417,"ĠMcC":4418,"othing":4419,"Ġinte":4420,"ĠSpr":4421,"uan":4422,"ĠClass":4423,"BA":4424,"Ġoverall":4425,"Ġtracks":4426,"ĠTer":4427,"Ġuns":4428,"ror":4429,"ender":4430,"Ġmiles":4431,"Ġlies":4432,"ĠElect":4433,"Ġlatter":4434,"Ġsuit":4435,"Ġeastern":4436,"Ġappl":4437,"ĠPan":4438,"Ġpurs":4439,"ĠPacific":4440,"Ġbeautiful":4441,"Ġincreasing":4442,"cean":4443,"Ġneck":4444,"itan":4445,"ĠLand":4446,"ĠService":4447,"Ġdepartment":4448,"Ġlabel":4449,"col":4450,"enant":4451,"Ġentr":4452,"Ġshop":4453,"This":4454,"Ġconditions":4455,"ario":4456,"Ġoil":4457,"Ġgoes":4458,"70":4459,"?âĢĻ":4460,"ĠDaniel":4461,"ties":4462,"Ġneighbor":4463,"Ġmainly":4464,"Ġign":4465,"Ġextended":4466,"26":4467,"Ġcrowd":4468,"Ġcompos":4469,"Ġhonor":4470,"arp":4471,"Ġinh":4472,"Ġpurpose":4473,"Ġmultiple":4474,"Ġcard":4475,"Ġsoul":4476,"ĠIslam":4477,"Ġskin":4478,"put":4479,"cles":4480,"ĠScience":4481,"Ġseasons":4482,"ipl":4483,"Ġoperation":4484,"Ġconsists":4485,"ĠLee":4486,"Ġsched":4487,"Ġfix":4488,"Ġpartn":4489,"ali":4490,"ĠDis":4491,"Âłm":4492,"entr":4493,"Ġbes":4494,"Ġhadn":4495,"ĠEach":4496,"Ġdra":4497,"ĠSund":4498,"ĠSpain":4499,"Ġbott":4500,"Ð½":4501,"Ġstations":4502,"Ġsomew":4503,"urban":4504,"Ġdise":4505,"Ġacquired":4506,"Ġrevealed":4507,"ĠMod":4508,"Ġdomin":4509,"Ġmedal":4510,"wide":4511,"Ġ60":4512,"bury":4513,"Ġneeds":4514,"Ġult":4515,"Ġlevels":4516,"vention":4517,"ĠIll":4518,"Ġrecording":4519,"Ġestim":4520,"RA":4521,"Ġwebs":4522,"abeth":4523,"Ð¸":4524,"Ġlegisl":4525,"hol":4526,"Ġpositive":4527,"ĠMah":4528,"Ġproposed":4529,"Ġ1983":4530,"ez":4531,"ĠWal":4532,"Ġshook":4533,"ifying":4534,"Ã¨":4535,"29":4536,"Ġenter":4537,"Ġdrive":4538,"ati":4539,"Ġregional":4540,"Ġpiece":4541,"Ġcities":4542,"Ġbehav":4543,"Ġleaves":4544,"ĠTimes":4545,".)":4546,"ensity":4547,"Ġkit":4548,"Ġeth":4549,"ager":4550,"ira":4551,"ĠList":4552,"ocked":4553,"odies":4554,"Ġyouth":4555,"Ġvote":4556,"Ġnative":4557,"Ġsimple":4558,"Ġ1982":4559,"ĠEmpire":4560,"no":4561,"Ġwhis":4562,"icient":4563,"Ġsmaller":4564,"Ġplanned":4565,"Ġcam":4566,"28":4567,"Ġexpect":4568,"ĠLy":4569,"ĠAwards":4570,"Ġice":4571,"Ġbal":4572,"Ġmountain":4573,"ĠAlso":4574,"Ġahead":4575,"ĠAssembly":4576,"Ġsitting":4577,"vement":4578,"Ġgraduated":4579,"Ġpray":4580,"Ġrecords":4581,"ĠPak":4582,"Ġchest":4583,"Ġmurder":4584,"gypt":4585,"apers":4586,"Ġshoulder":4587,"Ġslightly":4588,"ĠBritain":4589,"ĠMos":4590,"Ã³n":4591,"Ġ65":4592,"edom":4593,"ĠMen":4594,"Ġtend":4595,"ĠDirector":4596,"ĠInc":4597,"gar":4598,"Ġdisapp":4599,"Ġdefin":4600,"Ġpra":4601,"Ġpaid":4602,"othes":4603,"Ġseems":4604,"Ġrain":4605,"isters":4606,"Ġrare":4607,"ext":4608,"Ġcharge":4609,"Ġdemonstr":4610,"Ġbroke":4611,"Ġones":4612,"Ġdance":4613,"Ġhappy":4614,"Ġcateg":4615,"Ġpun":4616,"igg":4617,"ĠConn":4618,"Ġrule":4619,"Ġcab":4620,"Ġhur":4621,"Ġ1930":4622,"ĠLet":4623,"198":4624,"Ġ1940":4625,"ĠSpec":4626,"ĠMu":4627,"Ġintegr":4628,"Ġacadem":4629,"Ġhighly":4630,"ailed":4631,"Ġcontem":4632,"ĠEliz":4633,"ĠCur":4634,"gu":4635,"Ġgrowing":4636,"Ġedge":4637,"ĠGal":4638,"Ġ1972":4639,"ĠDev":4640,"Ġ1979":4641,"ounded":4642,"ĠDef":4643,"Ġdie":4644,"rip":4645,"ĠPrince":4646,"elect":4647,"IS":4648,"Ġpotential":4649,"awn":4650,"Ġfilled":4651,"Ġnormal":4652,"ĠVol":4653,"Ġcapac":4654,"Ġintended":4655,"Is":4656,"ĠRam":4657,"Ġautom":4658,"ĠSand":4659,"Ġelements":4660,"Ġorganiz":4661,"Ġhistorical":4662,"</":4663,"AT":4664,"Ġbul":4665,"ĠLong":4666,"iated":4667,"Ġofficers":4668,"Ġsand":4669,"AS":4670,"atever":4671,"resp":4672,"zy":4673,"Ġeffort":4674,"ĠPoland":4675,"war":4676,"iÄĩ":4677,"ih":4678,"Ġlooks":4679,"Ġproducts":4680,"Ġtall":4681,"Ġhorse":4682,"Ġapproach":4683,"Ġweight":4684,"Ġways":4685,"peror":4686,"Ġwalls":4687,"Ã¢":4688,"Ġaccepted":4689,"Ġchem":4690,"enes":4691,"ĠGovernor":4692,"Ġlaws":4693,"agn":4694,"ĠOnce":4695,"Ġ1945":4696,"ĠAv":4697,"Ġborder":4698,"eed":4699,"Ġpit":4700,"Ġsilver":4701,"Ġdu":4702,"Ġfifth":4703,"Ġpromoted":4704,"claim":4705,"li":4706,"ĠResearch":4707,"mas":4708,"ĠMuslim":4709,"ĠTy":4710,"ĠRailway":4711,"Ġmentioned":4712,"Ġdoctor":4713,"Ġproduce":4714,"Ġpair":4715,"ersey":4716,"Ġconstructed":4717,"ĠEgypt":4718,"ĠBecause":4719,"ador":4720,"gent":4721,"Ġfaith":4722,"Ġdestroyed":4723,"ulations":4724,"Ġbegin":4725,"ĠCarolina":4726,"ĠTour":4727,"antly":4728,"Ġnewspaper":4729,"Ġencour":4730,"Ġ1976":4731,"Ġcaptain":4732,"ĠRay":4733,"Ġheav":4734,"Ġtherefore":4735,"onic":4736,"wan":4737,"Ġtraff":4738,"ĠDemocratic":4739,"ĠDutch":4740,"ĠMiddle":4741,"ĠWell":4742,"ĠStan":4743,"hr":4744,"Ġelev":4745,"Ġkick":4746,"ucky":4747,"Åį":4748,"Ġfully":4749,"ĠHy":4750,"ila":4751,"Ġrecently":4752,"osop":4753,"Ġnarrow":4754,"ĠBow":4755,"Ġmine":4756,"ĠBas":4757,"Ġinitial":4758,"ĠEastern":4759,"ĠLike":4760,"Ġcoin":4761,"ighter":4762,"ĠYoung":4763,"Ġ1974":4764,"Ġprofessor":4765,"Ġtaught":4766,"ĠJones":4767,"antry":4768,"mir":4769,"Ġclean":4770,"Ġcompl":4771,"Ġ1981":4772,"ĠLove":4773,"kin":4774,"Ġissued":4775,"Ġ1968":4776,"nam":4777,"Ġvan":4778,"Ġtask":4779,"Ġbag":4780,"come":4781,"Ġfellow":4782,"My":4783,"aze":4784,"Ġadult":4785,"ĠCaptain":4786,"oston":4787,"Ġcultural":4788,"ĠGood":4789,"ĠConference":4790,"ĠWhy":4791,"iate":4792,"ĠRadio":4793,"Ġprin":4794,"ĠDi":4795,"yard":4796,"Ġunc":4797,"Ġbasis":4798,"osen":4799,"ĠCreek":4800,"ĠMike":4801,"Ġtells":4802,"Ġconcentr":4803,"kr":4804,"ĠSocial":4805,"ieut":4806,"Ġconver":4807,"Ġflow":4808,"Ġwit":4809,"Ġwarn":4810,"ĠÂ£":4811,"Ġgrowth":4812,"ĠJon":4813,"Ġ1978":4814,"Ġguess":4815,"bridge":4816,"Ġfemales":4817,"ĠLatin":4818,"Ġupper":4819,"ĠMajor":4820,"Ġsu":4821,"Ġequip":4822,"Ġimage":4823,"ĠStar":4824,"Ġpolitician":4825,"Ġtransferred":4826,"AC":4827,"Ġgives":4828,"AR":4829,"Ġmist":4830,"Ġpet":4831,"Ġimpact":4832,"Ġsort":4833,"Ġincorpor":4834,"Ġ1975":4835,"Ġfollows":4836,"irmed":4837,"Ġsymb":4838,"Ġfighting":4839,"Ġquestions":4840,"Ġmemory":4841,"Ġ1920":4842,"ĠFour":4843,"Ġelections":4844,"win":4845,"Ġ45":4846,"ĠDar":4847,"achel":4848,"ES":4849,"Ġproducer":4850,"Ġefforts":4851,"Ġresidents":4852,"Ġ35":4853,"Ġpret":4854,"Ġflight":4855,"Ġcars":4856,"icted":4857,"Ġabandon":4858,"ĠLine":4859,");":4860,"Ġactivity":4861,"Ġprimarily":4862,"isher":4863,"edd":4864,"Ġcloser":4865,"ĠThree":4866,"Ġsuggested":4867,"poration":4868,"ources":4869,"gian":4870,"Ġpressure":4871,"ĠOpen":4872,"ansion":4873,"Ġnecessary":4874,"Ġeat":4875,"Ġfinish":4876,"ĠAsh":4877,"istics":4878,"Ġbasketball":4879,"anging":4880,"Ġrecognized":4881,"ented":4882,"Ġcondition":4883,"American":4884,"illing":4885,"umber":4886,"Ġpowerful":4887,"bour":4888,"clus":4889,"ĠIII":4890,"dd":4891,"ashed":4892,"Ġeffects":4893,"Ġring":4894,"ĠKr":4895,"obile":4896,"Ġ180":4897,"ĠStation":4898,"Ġconduct":4899,"Ġmaybe":4900,"rec":4901,"Ġbrown":4902,"Ġlegs":4903,"Ġelectric":4904,"ĠMem":4905,"ĠBul":4906,"Ġlaugh":4907,"Ġmuseum":4908,"ube":4909,"izes":4910,"ĠUr":4911,"ye":4912,"Ġmic":4913,"ĠVan":4914,"ugby":4915,"ĠAndrew":4916,"Ġrules":4917,"amily":4918,"ĠTre":4919,"Ġreading":4920,"Ġbatt":4921,"Ġappearances":4922,"Ġ1973":4923,"iest":4924,"ĠTem":4925,"erc":4926,"Ġchoice":4927,"ĠFrancisco":4928,"ked":4929,"ansas":4930,"Ġsuddenly":4931,"Ġalongside":4932,"\">":4933,"ĠWilliams":4934,"____":4935,"Ġhouseholds":4936,"Ġ1977":4937,"Ġsplit":4938,"ĠScotland":4939,"Do":4940,"Ġtreatment":4941,"Ġstrength":4942,"ĠAdd":4943,"Ġgreater":4944,"Ġrisk":4945,"Ġpicked":4946,"35":4947,"rier":4948,"iano":4949,"ĠKent":4950,"Ġtwice":4951,"Le":4952,"ela":4953,"stone":4954,"Ġhun":4955,"ato":4956,"ishes":4957,"Ġsettled":4958,"Ġdefeat":4959,"Ġprojects":4960,"Ġworth":4961,"Ġwithd":4962,"ĠJohnson":4963,"iot":4964,"uis":4965,"Ġquality":4966,"ĠHon":4967,"ĠCivil":4968,"ĠAz":4969,"idden":4970,"ÑĤ":4971,"awa":4972,"can":4973,"Ġdivided":4974,"Ġbomb":4975,"Ġsafe":4976,"Ġofficially":4977,"Ġfunct":4978,"ĠVer":4979,"Ġminute":4980,"Ġworkers":4981,"90":4982,"Ġaddress":4983,"unction":4984,"Ġ1971":4985,"Ġprec":4986,"Ġtypes":4987,"ulf":4988,"Ġchannel":4989,"agement":4990,"Ġaware":4991,"Ġbecomes":4992,"CC":4993,"ĠFoundation":4994,"Ġoccurred":4995,"Ġteacher":4996,"Ġraces":4997,"Ġstream":4998,"ĠLab":4999,"ĠElizabeth":5000,"Ġ1969":5001,"ĠCoast":5002,"ĠBoston":5003,"ĠOrder":5004,"If":5005,"Ġequipment":5006,"75":5007,"Ã§":5008,"ancing":5009,"ĠSea":5010,"ĠHu":5011,"oz":5012,"45":5013,"Ġagreement":5014,"ĠJoe":5015,"Ġforg":5016,"ieutenant":5017,"ĠTam":5018,"ĠJeff":5019,"Ġleaders":5020,"ĠPortug":5021,"ĠGall":5022,"Ġsides":5023,"iform":5024,"Ġreceive":5025,"class":5026,"ĠWind":5027,"Ġparticipated":5028,"acks":5029,"ĠSeries":5030,"ĠAsian":5031,"Ġsupposed":5032,"Ġprogress":5033,"iro":5034,"Ġcontroll":5035,"amber":5036,"Ġheaded":5037,"She":5038,"Ġheadqu":5039,"ĠKenn":5040,"oms":5041,"ĠJackson":5042,"Ġactor":5043,"Ġlips":5044,",âĢĻ":5045,"enger":5046,"stra":5047,"ĠTheatre":5048,"ĠCross":5049,"miss":5050,"Ġextra":5051,"Ġ/":5052,"Ġpurchased":5053,"Ġcontent":5054,"Ġarticle":5055,"yer":5056,"Ġath":5057,"Ġeasy":5058,"sen":5059,"Ġharm":5060,"Ġlosing":5061,"gn":5062,"Ġmedian":5063,"aka":5064,"Ġdamage":5065,"Ġprovince":5066,"Ġbranch":5067,"hens":5068,"burgh":5069,"orough":5070,"Ġmill":5071,"where":5072,"Ġprominent":5073,"Ġperhaps":5074,"adel":5075,"Ġbroken":5076,"ker":5077,"Ġcampus":5078,"Ġcandidate":5079,"ĠBroad":5080,"Ġ1967":5081,"mad":5082,"ributed":5083,"ĠNews":5084,"Ġdress":5085,"part":5086,"Ġescape":5087,"Ġdeclared":5088,"velopment":5089,"ĠDam":5090,"Ġpattern":5091,"Ġcapacity":5092,"Ġisn":5093,"Ġinterp":5094,"ĠCentre":5095,"Why":5096,"ĠLife":5097,"Ġfish":5098,"Ġwing":5099,"ĠTeam":5100,"Ġwebsite":5101,"stitu":5102,"Ġeasily":5103,"ĠBern":5104,".'":5105,"Ġthrow":5106,"ughed":5107,"Ġstorm":5108,"Ġnotable":5109,"Ġyounger":5110,"ĠBC":5111,"alle":5112,"Ġbrain":5113,"Ġparish":5114,"Ġrat":5115,"Ġevening":5116,"ĠSever":5117,"Ġcatch":5118,"Ġapparent":5119,"Ġfresh":5120,"body":5121,"gg":5122,"gend":5123,"Ġtele":5124,"ÅĤ":5125,"ĠPhilipp":5126,"Ġwalking":5127,"itled":5128,"ĠMichigan":5129,"Ġpretty":5130,"Ġstepped":5131,"Ġassigned":5132,"ĠRog":5133,"Ġlaughed":5134,"ĠÅ":5135,"Ġadministrative":5136,"ĠSecretary":5137,"Ġsuffered":5138,"Ġempt":5139,"Ġcontinues":5140,"ĠYour":5141,"eless":5142,"Ġsevent":5143,"Ġthick":5144,"Ġperman":5145,"Ġconducted":5146,"Ġburied":5147,"Ġfeed":5148,"ĠAsia":5149,"Ġguy":5150,"Ġgained":5151,"Ġowner":5152,"Ġgod":5153,"Ġhell":5154,"Ġacting":5155,"BS":5156,"Ġcompared":5157,"ĠOhio":5158,"Ġexpression":5159,"aya":5160,"Ġcaptured":5161,"greg":5162,"Ġhar":5163,"rich":5164,"ÑĢ":5165,"Ġsurrounding":5166,"ĠGar":5167,"ĠRome":5168,"orter":5169,"Ġimplement":5170,"Ġdistinct":5171,"isf":5172,"uous":5173,"Ġrac":5174,"Ġonline":5175,"encies":5176,"Ġseeing":5177,"Ġdedicated":5178,"An":5179,"ĠHarr":5180,"ĠAlexander":5181,"Ġbought":5182,"hered":5183,"istered":5184,"ocated":5185,"ĠSyd":5186,"olved":5187,"Ġresist":5188,"ĠCy":5189,"Ġprote":5190,"Ġsuppl":5191,"oured":5192,"Ġwrite":5193,"Ġvac":5194,"Ġnucle":5195,"Ġtim":5196,"option":5197,"alog":5198,"wise":5199,"uation":5200,"Ġ1964":5201,"ĠTop":5202,"Ġwatching":5203,"ses":5204,"Ġoffers":5205,"hester":5206,"Ġanimals":5207,"Ġboys":5208,"ĠHealth":5209,"Ġcitizens":5210,"ĠAlbert":5211,"ĠKen":5212,"ĠPost":5213,"ĠWall":5214,"Ġrob":5215,"with":5216,"rog":5217,"Ġspring":5218,"Ġcerem":5219,"ennis":5220,"ima":5221,"Ġestate":5222,"Ġ|":5223,"Ġrenamed":5224,"Ġseconds":5225,"Ġreform":5226,"Ġmagn":5227,"Ġchallen":5228,"Ġcreation":5229,"ordin":5230,"anna":5231,"ĠAvenue":5232,"Ġkitchen":5233,"33":5234,"Ġexactly":5235,"ĠPrem":5236,"ĠSystem":5237,"gely":5238,"ĠMid":5239,"ĠOx":5240,"ĠBal":5241,"Ġsave":5242,"stein":5243,"Ġsight":5244,"ĠOffice":5245,"Ġpaint":5246,"oration":5247,"Ġunable":5248,"ĠProt":5249,"Ġwonder":5250,"Ġconclud":5251,"Ġyellow":5252,"Ġyards":5253,"Ġassistant":5254,"ko":5255,"Ġinstitut":5256,"ĠSenate":5257,"Ġadopted":5258,"Ġfingers":5259,"ĠRepublican":5260,"inity":5261,"ivity":5262,"ĠLittle":5263,"thur":5264,"Ġrural":5265,"ĠHead":5266,"ĠProfessor":5267,"Ġmixed":5268,"mod":5269,"bec":5270,"Ġcommonly":5271,"ĠGeorgia":5272,"Ġenemy":5273,"Ġflat":5274,"Ġbrothers":5275,"ĠBBC":5276,"Ġjum":5277,"athan":5278,"ĠKar":5279,"Ġwhisper":5280,"Ġrefused":5281,"Ġaccident":5282,"Ġreject":5283,"oday":5284,"iday":5285,"ĠTay":5286,"amm":5287,"inem":5288,"Ġcup":5289,"pet":5290,"Ġavoid":5291,"ĠAth":5292,"Ġkid":5293,"Ġwidely":5294,"ĠEngine":5295,"ĠFar":5296,"Ġorganized":5297,"ĠEst":5298,"Ġchosen":5299,"ĠWater":5300,"IN":5301,"ĠInf":5302,"ava":5303,"Ġsexual":5304,"Ġhistoric":5305,"Ġplants":5306,"Ġhousing":5307,"ĠCorps":5308,"Ġrecomm":5309,"Ġnoticed":5310,"Ġcoff":5311,"Ġlabor":5312,"Ġmir":5313,"Ġfacilities":5314,"Ġsolo":5315,"ushing":5316,"Ġnob":5317,"Ġentrance":5318,"zen":5319,"Ġsettlement":5320,"aming":5321,"oh":5322,"asy":5323,"Ġpushed":5324,"Ġcool":5325,"ects":5326,"Ġrealized":5327,"pass":5328,"Ġ1965":5329,"bit":5330,"Ġsorry":5331,"stead":5332,"icine":5333,"ww":5334,"Ġrapid":5335,"ĠBlue":5336,"Ġgets":5337,"Ġbare":5338,"kins":5339,"ĠRout":5340,"ĠScottish":5341,"Ġadministration":5342,"ĠSydney":5343,"ais":5344,"ĠBorn":5345,"Ġfought":5346,"ĠMas":5347,"ashion":5348,"ĠJean":5349,"Ġthoughts":5350,"Ġrow":5351,"dro":5352,"Ġroof":5353,"Ġ80":5354,"Ġ1966":5355,"Ġvictim":5356,"ĠColumbia":5357,"Ġ1944":5358,"respond":5359,"Ġdyn":5360,"ĠLi":5361,"ĠHa":5362,"ĠHung":5363,"Ġactions":5364,"Ġcells":5365,"Ġcomfort":5366,"Ġnote":5367,"Ġmax":5368,"ĠMir":5369,"Ġconnected":5370,"Ġlargely":5371,"Ġlaid":5372,"aret":5373,"Ġpointed":5374,"Ġhuge":5375,"ĠDet":5376,"Ġcombined":5377,"ĠChris":5378,"onia":5379,"Ġagricult":5380,"ĠViet":5381,"Ġoperating":5382,"Ġsales":5383,"Ġexistence":5384,"friend":5385,"Ġterritory":5386,"Ġteaching":5387,"Ġbegins":5388,"itage":5389,"Ġhurt":5390,"ĠPolish":5391,"ĠMaster":5392,"Ġtraffic":5393,"rical":5394,"ĠVictoria":5395,"Ġmotor":5396,"ederation":5397,"Ġreality":5398,"Ġmachine":5399,"IA":5400,"Ġwinner":5401,"ĠAri":5402,"Ġyourself":5403,"ricket":5404,"ĠShow":5405,"Ġserves":5406,"Ġlibrary":5407,"Ġconstant":5408,"Ġdry":5409,"Ġtrial":5410,"Ġcorrect":5411,"ception":5412,"ĠMarc":5413,"rupt":5414,"ĠOnly":5415,"ĠHospital":5416,"unte":5417,"Ġoccasion":5418,"ester":5419,"Ġobvious":5420,"Ġvess":5421,"onents":5422,"ĠBrook":5423,"ĠUnivers":5424,"Ġvari":5425,"Ġsafety":5426,"ilding":5427,"Ġbodies":5428,"ĠOs":5429,"inals":5430,"Ġmotion":5431,"Ġexecutive":5432,"Ġwants":5433,"Ġsky":5434,"yal":5435,"There":5436,"AF":5437,"Ġnewly":5438,"Ġliber":5439,"ugged":5440,"Ġconference":5441,"Ġproceed":5442,"iga":5443,"Ġunique":5444,"Ġbaby":5445,"Ġbottom":5446,"nce":5447,"Ġrub":5448,"Ġroles":5449,"ĠGh":5450,"Ġacademic":5451,"Ġshared":5452,"Ġpieces":5453,"bu":5454,"Ġrestaur":5455,"Ġsemi":5456,"Ñģ":5457,"Ġsources":5458,"elly":5459,"Ġtypically":5460,"gal":5461,"ulpt":5462,"Ġlanguages":5463,"ĠCorn":5464,"Ġparties":5465,"ĠWay":5466,"elve":5467,"ĠSong":5468,"ĠHun":5469,"ĠRel":5470,"Ġsac":5471,"Ġformat":5472,"ĠMrs":5473,"Ġlearned":5474,"vis":5475,"Ġdrop":5476,"adu":5477,"arring":5478,"Ġestimated":5479,"Ġfeaturing":5480,"Ġstret":5481,"ĠCard":5482,"Ġdrama":5483,"Ġweapons":5484,"Ä±":5485,"Ġrespectively":5486,"Ġallowing":5487,"Ġble":5488,"Ġtransform":5489,"ĠBh":5490,"Ġscholars":5491,"Ġcontain":5492,"Ġdescend":5493,"Ã±":5494,"ĠChild":5495,"Ġconfirmed":5496,"emeter":5497,"ĠSher":5498,"Ġprof":5499,"Ġcommunities":5500,"Ġexpress":5501,"which":5502,"Ġreturning":5503,"CO":5504,"osite":5505,"Ġhumans":5506,"Ġhotel":5507,"Ġscientific":5508,"ĠBell":5509,"uly":5510,"Ġfocused":5511,"Ġexplained":5512,"Ġrose":5513,"Å¡":5514,"Ġflag":5515,"Ġstared":5516,"Ġleadership":5517,"Ġapart":5518,"Ġclubs":5519,"ĠField":5520,"ĠLady":5521,"Ġcritical":5522,"Ġera":5523,"Ġhabit":5524,"ulate":5525,"rics":5526,"Ġrough":5527,"ĠGuard":5528,"Ġretire":5529,"Ġresulted":5530,"ĠJersey":5531,"ĠHistoric":5532,"Ġunion":5533,"ĠSus":5534,"ĠCop":5535,"ĠHoly":5536,"ĠHor":5537,"elligence":5538,"dr":5539,"Ġreduced":5540,"inois":5541,"Ġgranted":5542,"vin":5543,"Ġturning":5544,"but":5545,"Ġopportunity":5546,"Ġidentified":5547,"ĠFederal":5548,"ione":5549,"ĠPen":5550,"ĠThrough":5551,"Ġboat":5552,"Ġauthority":5553,"Yeah":5554,"ĠUkr":5555,"amin":5556,"onent":5557,"ĠBang":5558,"Ġstock":5559,"ĠMot":5560,"Ġ70":5561,"perial":5562,"ourne":5563,"Ġlake":5564,"Ġiron":5565,"ĠOtt":5566,"Ġburn":5567,"197":5568,"ĠRaj":5569,"etts":5570,"Ġnor":5571,"Ġjoint":5572,"Ġpositions":5573,"Ġproviding":5574,"nes":5575,"eld":5576,"ternal":5577,"All":5578,"Ġpremi":5579,"Ġreviews":5580,"New":5581,"ĠUl":5582,"ĠKong":5583,"ingly":5584,"ĠMinn":5585,"Ġtitled":5586,"asty":5587,"Ġseats":5588,"ĠThough":5589,"ropical":5590,"Ġdisease":5591,"onto":5592,"Ġdeliver":5593,"Ġdaily":5594,"Ġsupply":5595,"Ġpartner":5596,"Ġheat":5597,"Ġindustrial":5598,"Ġsell":5599,"nic":5600,"Ġly":5601,"Ġtal":5602,"Ġcode":5603,"Ġpainting":5604,"ĠWild":5605,"Ġmarked":5606,"Ġreact":5607,"ĠProd":5608,"estic":5609,"Ġmales":5610,"ĠNick":5611,"Ġwinter":5612,"Ġsport":5613,"includ":5614,"Ġdial":5615,"Ġepisodes":5616,"Ġaspect":5617,"achus":5618,"Ġ...":5619,"Ġcalling":5620,"ĠAk":5621,"ĠJr":5622,"Ġmeasure":5623,"ba":5624,"AP":5625,"standing":5626,"ĠVill":5627,"Ġetc":5628,"Ġtrail":5629,"Ġtruck":5630,"Ġflood":5631,"Ġsetting":5632,"Ġexperiment":5633,"Ġreasons":5634,"ĠPrime":5635,"ĠJustice":5636,"owed":5637,"Ġnotes":5638,"Ġholds":5639,"ĠOffic":5640,"Ġexpanded":5641,"Ġclasses":5642,"Ġrot":5643,"Ġdriver":5644,"anding":5645,"Ġresident":5646,"Ġcorrespond":5647,"ĠBerlin":5648,"Ġpicture":5649,"Ġtrip":5650,"Ġcontrovers":5651,"Ġemot":5652,"ĠNic":5653,"Ġven":5654,"Ġtelling":5655,"Ġaudience":5656,"Ġ1962":5657,"ĠIllinois":5658,"Ġawards":5659,"under":5660,"ĠLew":5661,"Ġtemple":5662,"Ġ1963":5663,"ĠRoute":5664,"Ġconsum":5665,"Ġloud":5666,"ropol":5667,"ules":5668,"Ġdetermined":5669,"ĠIra":5670,"Ġlearning":5671,"aks":5672,"Ġclaims":5673,"Ġknows":5674,"ĠHong":5675,"ĠCorporation":5676,"Ġ1942":5677,"Ġsteps":5678,"Ġdang":5679,"ooking":5680,"lers":5681,"Ġshout":5682,"ĠNorm":5683,"ĠArgent":5684,"Ġweak":5685,"ĠBishop":5686,"Ġmessage":5687,"Ġwitness":5688,"ĠAmong":5689,"ĠTri":5690,"Ġ179":5691,"Ġalbums":5692,"ipe":5693,"Ġdigital":5694,"Ġpassing":5695,"Ġadvant":5696,"Ġ1948":5697,"iat":5698,"asure":5699,"Ġsect":5700,"Ġcolumn":5701,"ĠDevelopment":5702,"Ġtor":5703,"Ġsingles":5704,"ĠPop":5705,"Ġ(,":5706,"Ġapplied":5707,"ournal":5708,"Ġfigures":5709,"ĠFC":5710,"alls":5711,"ricts":5712,"Ġminister":5713,"Ġattacks":5714,"Ġcart":5715,"Ġfootballer":5716,"Ġmodels":5717,"Ġcoal":5718,"Ġphilosop":5719,"Ġcreating":5720,"500":5721,"real":5722,"Ġchampion":5723,"Ġallows":5724,"ching":5725,"lar":5726,"una":5727,"Ġ90":5728,"Ġbot":5729,"oir":5730,"ĠSpe":5731,"Ġattacked":5732,"Ġsons":5733,"Ġconstitu":5734,"ĠHind":5735,"Ġadvanced":5736,"ĠDuke":5737,"Ġcalls":5738,"ĠBrad":5739,"Ġanalysis":5740,"Ġtower":5741,"ĠAh":5742,"onna":5743,"Ġreports":5744,"Ġscr":5745,"Ġwealth":5746,"36":5747,"Ġhosted":5748,"Ġresulting":5749,"Ġinstrument":5750,"ĠWat":5751,"Ġopposite":5752,"hemat":5753,"ologist":5754,"Ġprotection":5755,"met":5756,"Ġimmigr":5757,"ĠLar":5758,"ĠWho":5759,"38":5760,"Ġscript":5761,"ĠQueens":5762,"ĠAdam":5763,"Ġdoll":5764,"Ġdepend":5765,"Ġdensity":5766,"Ġunknown":5767,"Ġspons":5768,"ĠCommon":5769,"ĠTime":5770,"Ġhero":5771,"Ġprefer":5772,"Ġpossess":5773,"Ġorganizations":5774,"ĠRod":5775,"196":5776,"Ġanimal":5777,"ĠKat":5778,"Ġprepar":5779,"Ġpoll":5780,"ads":5781,"Ġresc":5782,"MS":5783,"Ġexperi":5784,"Ġrise":5785,"ĠSeveral":5786,"emetery":5787,"ĠDun":5788,"Ġaffili":5789,"Ġsituated":5790,"âĢ¦âĢĿ":5791,"ĠCE":5792,"Ġtitles":5793,"ĠSa":5794,"Ġbill":5795,"Ġrear":5796,"anth":5797,"uctions":5798,"ĠPress":5799,"Ġcrime":5800,"inger":5801,"Ġgrabbed":5802,"Ġshape":5803,"avel":5804,"Ġcontest":5805,"ĠIslands":5806,"Ġ1941":5807,"ĠGi":5808,"Ġgovern":5809,"ĠExp":5810,"Ġwhatever":5811,"Ġlov":5812,"ĠVen":5813,"Ġfacility":5814,"vest":5815,"ĠSteve":5816,"Ġstayed":5817,"Ġurban":5818,"ropri":5819,"Ġalive":5820,"raham":5821,"ĠGreg":5822,"fr":5823,"achusetts":5824,"ĠMaybe":5825,"ĠOlympic":5826,"ĠBase":5827,"ĠMinistry":5828,"uh":5829,"Ġanswered":5830,"Ã¡n":5831,"ĠBridge":5832,"Ġbright":5833,"ĠEle":5834,"ĠArm":5835,"ĠBudd":5836,"47":5837,"iminal":5838,"Ġvehicle":5839,"oken":5840,"Ġloved":5841,"Ġ!":5842,"Ġmunicipal":5843,"Ġpromot":5844,"ĠRom":5845,"ĠOb":5846,"Ġideas":5847,"ĠCz":5848,"Ġturns":5849,"Ġ1946":5850,"Ġfaced":5851,"Ġformation":5852,"while":5853,"Ġextrem":5854,"ĠSupreme":5855,"Ġrid":5856,"Ġachieved":5857,"Ġinjury":5858,"Ġheight":5859,"water":5860,"Ġobtained":5861,"Ġliterature":5862,"Ġ36":5863,"ervative":5864,"Ġunderstanding":5865,"Ġpage":5866,"ĠPolice":5867,"ĠAirport":5868,"Ð»":5869,"Ġvotes":5870,"Ġ32":5871,"Ġempty":5872,"akh":5873,"ĠLight":5874,"Ġsucceeded":5875,"Ġimpl":5876,"They":5877,"ĠEp":5878,"urance":5879,"Ġ1961":5880,"Ġclothes":5881,"igade":5882,"rad":5883,"ĠKim":5884,"Ġalt":5885,"ĠEnter":5886,"ĠMassachusetts":5887,"elle":5888,"ĠHighway":5889,"Ġgro":5890,"Ġnominated":5891,"Ġrepeated":5892,"Ġattempted":5893,"Ġflo":5894,"akers":5895,"Ġrelatively":5896,"Ġwish":5897,"Ġ1943":5898,"Ġsoftware":5899,"Ġsculpt":5900,"ulty":5901,"how":5902,"ĠJer":5903,"bourne":5904,"Ġvisited":5905,"ĠSanta":5906,"imal":5907,"AN":5908,"Ġswim":5909,"ĠFer":5910,"Ġ1956":5911,"37":5912,"Ġbelief":5913,"Ġbat":5914,"Ġsites":5915,"adelph":5916,"uer":5917,"Ġcontemporary":5918,"Ġelement":5919,"inder":5920,"Ġvirt":5921,"ĠSpecial":5922,"39":5923,"ji":5924,"Ġrecover":5925,"Ġportion":5926,"ĠFair":5927,"Ġofficials":5928,"mann":5929,"Ġauthorities":5930,"ĠHuman":5931,"Ġreligion":5932,"Ġdoors":5933,"Ġfat":5934,"ĠWilson":5935,"Ġparliament":5936,"ĠBa":5937,"iner":5938,"Ġranked":5939,"itors":5940,"Ġspeech":5941,"ĠTurk":5942,"ĠHay":5943,"Ġletters":5944,"ĠKorea":5945,"enny":5946,"ĠIraq":5947,"Ġcas":5948,"Ġgrass":5949,"Ġplanet":5950,"Ġpros":5951,"Ġfields":5952,"ĠPakistan":5953,"ran":5954,"ifted":5955,"EC":5956,"alion":5957,"Ġcausing":5958,"Ġstuff":5959,"Ġdistribution":5960,"ĠAnton":5961,"ĠChristmas":5962,"rep":5963,"ĠColl":5964,"Ġexchange":5965,"orney":5966,"Ġplanning":5967,"urer":5968,"Ġjourney":5969,"ĠUs":5970,"Ġreaching":5971,"Ġpowers":5972,"Ġroyal":5973,"Ġsecondary":5974,"Ġguest":5975,"48":5976,"ĠArthur":5977,"ĠForest":5978,"Ġ1939":5979,"Ġbuy":5980,"Ġnone":5981,"Ġsubs":5982,"iliar":5983,"Ġorders":5984,"Ġdefined":5985,"law":5986,"Ġentirely":5987,"Ġscoring":5988,"Ġcastle":5989,"Ġagent":5990,"Ġbath":5991,"ĠToday":5992,"Ġwearing":5993,"ĠTaylor":5994,"ĠAtt":5995,"aug":5996,"lease":5997,"ĠBol":5998,"Ġ500":5999,"Ġprepared":6000,"Ġpossibly":6001,"Ġscale":6002,"onze":6003,"Ġspect":6004,"ĠRevolution":6005,"Ġexisting":6006,"adelphia":6007,"inth":6008,"gment":6009,"ĠJacob":6010,"ighth":6011,"Ġcoffee":6012,"Ġassociation":6013,"ĠLibrary":6014,"Ġbackground":6015,"Ġ1947":6016,"uled":6017,"Ġfuck":6018,"Ġprovinc":6019,"nel":6020,"ĠFle":6021,"ĠEnd":6022,"ĠNaz":6023,"ĠStadium":6024,"Ġopin":6025,"Ġcommittee":6026,"Ġperformances":6027,"ĠMaria":6028,"ova":6029,"esh":6030,"OR":6031,"sex":6032,"Ġconcert":6033,"Ġmaterials":6034,"eral":6035,"Ġaf":6036,"Ġcancer":6037,"ĠLoc":6038,"ĠForm":6039,"ĠMatt":6040,"Ã¸":6041,"Ġguns":6042,"sey":6043,"ĠColon":6044,"ĠMarsh":6045,"icks":6046,"raid":6047,"Ġcovers":6048,"Ġbasic":6049,"oty":6050,"ĠHistory":6051,"Ġarrested":6052,"Ġneighborhood":6053,"ĠOk":6054,"acement":6055,"ĠLim":6056,"Ġcommander":6057,"lyn":6058,"Ġfestival":6059,"ĠWalk":6060,"bro":6061,"Ġ44":6062,"ĠToronto":6063,"Ġinspired":6064,"rence":6065,"Ġresources":6066,"Ġsets":6067,"Ġheavily":6068,"Ġkilling":6069,"eke":6070,"Ġbud":6071,"Bl":6072,"ĠLind":6073,"usted":6074,"ĠCa":6075,"Ġ1958":6076,"ĠOnt":6077,"IT":6078,"Ġfrequently":6079,"Ġnort":6080,"Ġends":6081,"pton":6082,"phas":6083,"Ġheadquarters":6084,"ĠSom":6085,"wing":6086,"Ġeffective":6087,"ĠHere":6088,"bell":6089,"Ġmel":6090,"34":6091,"Ġnice":6092,"ĠNight":6093,"outheast":6094,"Ġconnection":6095,"Ġvalley":6096,"ĠGame":6097,"adow":6098,"Ġfans":6099,"Ġmissing":6100,"ĠHal":6101,"Ġmile":6102,"Ġ1959":6103,"uls":6104,"ĠFox":6105,"Ġbillion":6106,"Ġnotice":6107,"ru":6108,"Ġtheme":6109,"Ġprice":6110,"Ġinvited":6111,"aints":6112,"ĠProgram":6113,"Ġoldest":6114,"Ġstarts":6115,"rig":6116,"da":6117,"anny":6118,"Ġadvert":6119,"cont":6120,"irk":6121,"ĠCastle":6122,"Ġopposition":6123,"Ġcombat":6124,"eman":6125,"iously":6126,"Ġcomedy":6127,"Ġbrand":6128,"Ġtight":6129,"ĠSunday":6130,"Ġattempts":6131,"ĠSwedish":6132,"ĠEmperor":6133,"ĠNations":6134,"ON":6135,"ĠHome":6136,"ĠStephen":6137,"ĠMain":6138,"Ġdesignated":6139,"ĠNetwork":6140,"lan":6141,"Ġpolitics":6142,"Ġrich":6143,"Ġathlet":6144,"Ġalle":6145,"ĠUSA":6146,"ĠNether":6147,"ĠUN":6148,"Ġinterested":6149,"Ġversions":6150,"bel":6151,"Ġvent":6152,"ĠFather":6153,"ois":6154,"Ġpup":6155,"Ġbeside":6156,"Ġshortly":6157,"Ġjudge":6158,"osh":6159,"Ġevil":6160,"Ġconflict":6161,"wa":6162,"weight":6163,"Ġcalc":6164,"Ġsnow":6165,"Ġec":6166,"ienn":6167,"ĠTal":6168,"Ġtowns":6169,"ĠGab":6170,"ĠSimon":6171,"ĠEs":6172,"Ġsyn":6173,"ĠOur":6174,"Ġbaseball":6175,"ĠOxford":6176,"Ġregions":6177,"Ġvillages":6178,"ooth":6179,"rete":6180,"western":6181,"Ġflying":6182,"Ġsteel":6183,"Ġtrains":6184,"iques":6185,"ĠPhiladelphia":6186,"Ġoccupied":6187,"Ġhung":6188,"Ġdim":6189,"ii":6190,"ĠTra":6191,"Ġwindows":6192,"Ġ1957":6193,"ĠBand":6194,"ĠRon":6195,"ĠSomet":6196,"Ġactress":6197,"Ġabandoned":6198,"Ġworry":6199,"Ġentertain":6200,"Ġglobal":6201,"Ġreference":6202,"ĠOntario":6203,"Ġreceiving":6204,"Ġton":6205,"VD":6206,"ĠTest":6207,"omot":6208,"Ġairport":6209,"anta":6210,"ĠPers":6211,"Ġshel":6212,"iki":6213,"ĠAtlantic":6214,"ilton":6215,"Ġentry":6216,"ĠDor":6217,"Ġclearly":6218,"Ġtom":6219,"Ġsixth":6220,"Ġchose":6221,"Un":6222,"ader":6223,"Ġhighway":6224,"ĠÎ":6225,"ĠAff":6226,"ĠTony":6227,"Ġdetails":6228,"ĠFI":6229,"apping":6230,"ĠIndepend":6231,"Ġtwelve":6232,"ĠInt":6233,"Ġshowing":6234,"Ġending":6235,"ighed":6236,"Ġdoubt":6237,"Ġdriving":6238,"chestra":6239,"Ġfinding":6240,"Ġfly":6241,"49":6242,"anning":6243,"ĠGer":6244,"Ġplease":6245,"Ġillustr":6246,"Ġstrange":6247,"Ġgovernor":6248,"31":6249,"Ġdesk":6250,"ĠSab":6251,"Ġcolle":6252,"Ġfavour":6253,"MA":6254,"Ġentitled":6255,"Ġtrouble":6256,"Ġcircum":6257,"ĠAthlet":6258,"ĠConf":6259,"Ġcompr":6260,"ĠAut":6261,"Ġheads":6262,"Ġprincipal":6263,"ĠTownship":6264,"'.":6265,"Ġconversation":6266,"worth":6267,"ĠChair":6268,"idi":6269,"Ġsought":6270,"heim":6271,"ĠCommun":6272,"uts":6273,"Ġspend":6274,"ello":6275,"Ġwrap":6276,"ĠMov":6277,"Ġhill":6278,"Ġfreedom":6279,"div":6280,"Ġdefend":6281,"Ġcert":6282,"ĠAlf":6283,"agan":6284,"ĠJews":6285,"IC":6286,"ĠRepresent":6287,"Ġokay":6288,"Ġsilence":6289,"Ġmo":6290,"Ġpool":6291,"Ġdefense":6292,"Ġ1952":6293,"itzer":6294,"ĠPower":6295,"Ġmor":6296,"ĠBetween":6297,"Ġmethods":6298,"Ġkids":6299,"aste":6300,"Ġlands":6301,"ĠHarry":6302,"Ġnegot":6303,"Ġeconomy":6304,"ĠDie":6305,"Ġvon":6306,"ĠMarg":6307,"ĠRem":6308,"Ġsounds":6309,"Not":6310,"osa":6311,"46":6312,"ective":6313,"igen":6314,"Ġelimin":6315,"father":6316,"Ġstreets":6317,"Ġnegative":6318,"apes":6319,"ĠGirl":6320,"ĠTa":6321,"anz":6322,"Ġdifference":6323,"Ġclosely":6324,"à¦":6325,"Ġfinds":6326,"ĠSarah":6327,"uses":6328,"Ġcenturies":6329,"urname":6330,"Ġment":6331,"ĠHolly":6332,"Ġfounder":6333,"ĠSports":6334,"ras":6335,"Ġcontained":6336,"Ġcloud":6337,"ums":6338,"\";":6339,"Ġhors":6340,"ĠCub":6341,"Ġ1955":6342,"lets":6343,"Ġfashion":6344,"rah":6345,"ĠRose":6346,"Ġkil":6347,"ici":6348,"ĠAbout":6349,"zz":6350,"ĠEarl":6351,"ĠRegister":6352,"Ġcritics":6353,"Ġcopies":6354,"Ġrequest":6355,"Ġweather":6356,"55":6357,"Ġvehicles":6358,"century":6359,"Ġdistingu":6360,"Ġcontrast":6361,"bar":6362,"Ġsatisf":6363,"ĠRobin":6364,"ĠJane":6365,"Ġ1949":6366,"ĠBrother":6367,"ocks":6368,"Ġsick":6369,"Ġstatement":6370,"omer":6371,"100":6372,"rees":6373,"ĠBad":6374,"long":6375,"Ġuncle":6376,"Ġsweet":6377,"Ġarts":6378,"Ġspr":6379,"ĠBeach":6380,"ĠLeon":6381,"Ġtermin":6382,"Ġtick":6383,"Ġwooden":6384,"char":6385,"ĠDavis":6386,"Ġknowing":6387,"clusion":6388,"Ġdrew":6389,"Ġspeaking":6390,"Ġdrag":6391,"US":6392,"Ġdistricts":6393,"Ġnerv":6394,"Ġfuel":6395,"ivered":6396,"Ġsolid":6397,"Ġbehavior":6398,"Ġproved":6399,"Ã©e":6400,"Ġremark":6401,"Ġopposed":6402,"Ġconsisted":6403,"Ġchairman":6404,"Ġkeeping":6405,"Ġapproved":6406,"eller":6407,"32":6408,"ogue":6409,"Ġstands":6410,"uties":6411,"Ġperforming":6412,"Ġlect":6413,"Ġequal":6414,"Ġacts":6415,"Ġidentity":6416,"Ġâ":6417,"ographic":6418,"night":6419,"Ġox":6420,"Ġtheatre":6421,"outs":6422,"Ġ1954":6423,"Ġemployed":6424,"ĠSav":6425,"Ġaired":6426,"Ġvision":6427,"ĠAmericans":6428,"FC":6429,"urday":6430,"ĠGen":6431,"isa":6432,"Ġincident":6433,"OS":6434,"ĠAbb":6435,"Ġexplain":6436,"ĠNetherlands":6437,"ĠDue":6438,"Ġsubsequent":6439,"Ġreaction":6440,"eway":6441,"ĠSerb":6442,"Ġerr":6443,"umes":6444,"ĠIndust":6445,"ĠEric":6446,"Ġhyp":6447,"anned":6448,"Ġtone":6449,"ĠKal":6450,"Ġcheek":6451,"Ġlose":6452,"ĠRh":6453,"Ġemphas":6454,"rows":6455,"Ġpublication":6456,"ownt":6457,"Ġunf":6458,"ĠMountain":6459,"Ġsole":6460,"uzz":6461,"Ġpermanent":6462,"Ġgeneration":6463,"',":6464,"osis":6465,"ĠKorean":6466,"Ġexecut":6467,"Ġcarrying":6468,"Ġterror":6469,"Ġexerc":6470,"LA":6471,"Ġthousand":6472,"Ġdrawn":6473,"Ġconsult":6474,"Ġportray":6475,"ĠPo":6476,"ĠFire":6477,"urd":6478,"Ġoccas":6479,"life":6480,"Ġwave":6481,"Ġ2020":6482,"ns":6483,"Ġgain":6484,"Ġstom":6485,"ĠRegiment":6486,"Ġregarding":6487,"Ġskills":6488,"Ġ1953":6489,"osl":6490,"Ġracing":6491,"ennes":6492,"Ġpilot":6493,"ĠEconom":6494,"ption":6495,"Ġpromotion":6496,"verse":6497,"ĠPass":6498,"ĠPremier":6499,"Ġadvantage":6500,"also":6501,"ĠSon":6502,"Ġwings":6503,"Ġpolic":6504,"Ġbirds":6505,"ĠAnth":6506,"ĠSweden":6507,"Ġsust":6508,"ĠEth":6509,"uv":6510,"aria":6511,"Ġduty":6512,"Ġapartment":6513,"aga":6514,"ĠFurther":6515,"99":6516,"Ġextensive":6517,"ĠMun":6518,"ĠBusiness":6519,"ls":6520,"Ġemp":6521,"Ġviolence":6522,"Ġbass":6523,"Ġpock":6524,"ĠBor":6525,"ĠThus":6526,"Ġobserved":6527,"Ġfunding":6528,"Ġ64":6529,"place":6530,"Ġgrade":6531,"urches":6532,"Ġarticles":6533,"Ġwrest":6534,"Ġdesire":6535,"oln":6536,"onym":6537,"hedral":6538,"Ġdecor":6539,"Ġsurprise":6540,"ĠJay":6541,"Ġ38":6542,"Ġthirty":6543,"Ġimpr":6544,"Ġspiritual":6545,"Ġbriefly":6546,"May":6547,"Let":6548,"Ġinhabit":6549,"thew":6550,"ĠTechnology":6551,"Ġclim":6552,"ĠInstead":6553,"Ġultimately":6554,"Ġconsequ":6555,"ĠShort":6556,"andy":6557,"inners":6558,"Ġgall":6559,"ache":6560,"Ġtears":6561,"Ġrelief":6562,"ĠHan":6563,"Ġapplication":6564,"ĠColor":6565,"umin":6566,"Ġremembered":6567,"ĠCirc":6568,"Ġvo":6569,"Ġsurprised":6570,"Ġfleet":6571,"ĠCult":6572,"Ġfinger":6573,"Ġdipl":6574,"ĠCzech":6575,"Ġfailure":6576,"HL":6577,"Ġplot":6578,"Ġtrained":6579,"Ġlat":6580,"Ġ]":6581,"Ġstrike":6582,"ĠOrgan":6583,"ĠPhilip":6584,"Ġactual":6585,"Ġgreatest":6586,"%)":6587,"Ġstarring":6588,"ĠMexican":6589,"ĠBarn":6590,"noon":6591,"ĠFreder":6592,"after":6593,"gers":6594,"stream":6595,"otic":6596,"Ġdeveloping":6597,"Ġalternative":6598,"ĠCommunity":6599,"Ġmetres":6600,"ĠTurn":6601,"ĠBrian":6602,"Ġthrew":6603,"engers":6604,"Ġvocal":6605,"Ġsan":6606,"Ġcompar":6607,"Re":6608,"Ġdecades":6609,"ĠBir":6610,"ĠSix":6611,"Ġoffices":6612,"Ġbear":6613,"Ġmagic":6614,"ĠJam":6615,"illery":6616,"ĠMedia":6617,"Ġimportance":6618,"agh":6619,"ĠRoss":6620,"Ġtemperature":6621,"ika":6622,"Ġrooms":6623,"ĠAllah":6624,"aren":6625,"ĠFord":6626,"Ġ1951":6627,"oming":6628,"ouri":6629,"Are":6630,"ĠAny":6631,"ekend":6632,"Ġauth":6633,"ĠLo":6634,"Ġsilent":6635,"Ġrom":6636,"Ġcontaining":6637,"Ġinstitutions":6638,"Ġfold":6639,"Ġfur":6640,"ĠPier":6641,"Ġmort":6642,"ropolitan":6643,"Ġhomes":6644,"As":6645,"Ġgar":6646,"Ġclimate":6647,"Ġmigr":6648,"mouth":6649,"Ġotherwise":6650,"Ġengineering":6651,"ĠUpon":6652,"Ġsword":6653,"raf":6654,"Ġpropos":6655,"Ġnarr":6656,"ĠLewis":6657,"Ġdiam":6658,"Ġmaximum":6659,"ece":6660,"ĠArea":6661,"acked":6662,"anged":6663,"aun":6664,"Ġteeth":6665,"Ġtunn":6666,"ĠWel":6667,"Ġ34":6668,"Â°":6669,"Ġconverted":6670,"keep":6671,"Ġvolume":6672,"Ġobl":6673,"Ġexpansion":6674,"fall":6675,"ui":6676,"Ġ1918":6677,"ĠMP":6678,"ureau":6679,"Ġwel":6680,"adesh":6681,"ĠAddition":6682,"DS":6683,"know":6684,"Ġthroat":6685,"Ġvir":6686,"Ġappoint":6687,"anes":6688,"Ġfinishing":6689,"Ġretirement":6690,"Ġmanner":6691,"Ġgather":6692,"Ġstructures":6693,"boy":6694,"Ġsuccessfully":6695,"Ġaid":6696,"ĠEP":6697,"Ġwine":6698,"Ġformerly":6699,"Ġexpressed":6700,"Ġwaited":6701,"Ġrein":6702,"ĠBat":6703,"car":6704,"icked":6705,"Ġgarden":6706,"Ġitems":6707,"Ġguys":6708,"rell":6709,"ells":6710,"Ġbrick":6711,"Ġdinner":6712,"Ġconcerned":6713,"Ġarchitecture":6714,"Ġmap":6715,"ĠUt":6716,"rowned":6717,"Ġasking":6718,"ĠProject":6719,"Ġlaunch":6720,"asts":6721,"Ġwheel":6722,"Ġinvestigation":6723,"appe":6724,"Ġvolunte":6725,"Ġexperienced":6726,"Ġcommissioned":6727,"Ġlimit":6728,"owing":6729,"ĠDer":6730,"Ġmissed":6731,"Ġ33":6732,"Ġthank":6733,"ĠAdministr":6734,"Ġ1936":6735,"Ġpatients":6736,"cow":6737,"Ġtail":6738,"Ġformal":6739,"Ġoccurs":6740,"Ġsurname":6741,"Ġinternal":6742,"Ġwer":6743,"ĠHart":6744,"olec":6745,"claimed":6746,"sky":6747,"Ġengaged":6748,"ĠRegion":6749,"aki":6750,"Ġplate":6751,"eding":6752,"ĠJunior":6753,"mes":6754,"Ġasks":6755,"Ġuniform":6756,"Ġrefers":6757,"Ġquant":6758,"Ġbond":6759,"Ġaccompan":6760,"ivals":6761,"Ġafraid":6762,"oster":6763,"iments":6764,"Ġnose":6765,"Ġadvent":6766,"then":6767,"Ġ1938":6768,"ĠSpring":6769,"olly":6770,"ĠNat":6771,"ĠBible":6772,"Ġfamiliar":6773,"Ġpassenger":6774,"Ġ37":6775,"Ġhearing":6776,"ĠIntern":6777,"Ġhired":6778,"Ġcontributed":6779,"sm":6780,"Ġproperties":6781,"ĠGil":6782,"Ġfounding":6783,"Ġassumed":6784,"ĠIS":6785,"Ã£":6786,"Ġteen":6787,"ĠStone":6788,"ĠZh":6789,"tical":6790,"ĠOrigin":6791,"pson":6792,"EN":6793,"Â²":6794,"Ġfunds":6795,"Ġfunctions":6796,"Ġleads":6797,"44":6798,"Ġsignal":6799,"Ġnuclear":6800,"rob":6801,"stood":6802,"otten":6803,"Ġdomestic":6804,"abad":6805,"Ġstruck":6806,"alo":6807,"Ġwet":6808,"ĠJournal":6809,"organ":6810,"Ġadmitted":6811,"uccess":6812,"Ġhelping":6813,"Ġworldwide":6814,"ĠTen":6815,"ĠWhere":6816,"ruct":6817,"ĠTar":6818,"Sp":6819,"Ġwhispered":6820,"Ġsupporting":6821,"//":6822,"Ø§":6823,"ĠManc":6824,"Ġsinging":6825,"Ġegg":6826,"ĠRyan":6827,"ĠVo":6828,"Ġlocations":6829,"Ġadapt":6830,"CAA":6831,"Ġmulti":6832,"ossible":6833,"Ġfalling":6834,"Ġdismiss":6835,"Ġdocumentary":6836,"hetic":6837,"gency":6838,"iang":6839,"pping":6840,"Bill":6841,"ami":6842,"Ġshell":6843,"Ġthousands":6844,"Ġweapon":6845,"Ġceremony":6846,"ĠSee":6847,"Ġmyster":6848,"Ġexclus":6849,"Âłmm":6850,"ĠPit":6851,"Ġteach":6852,"Ġchain":6853,"ĠTrust":6854,"Ġextremely":6855,"ĠCommand":6856,"wich":6857,"Ġwaters":6858,"ĠIndones":6859,"Ġcollected":6860,"Ġleaned":6861,"ĠMedical":6862,"Ġur":6863,"Ġmaintained":6864,"Ġarmed":6865,"Can":6866,"For":6867,"ĠBarb":6868,"ĠHo":6869,"ĠBatt":6870,"Ġcore":6871,"attered":6872,"ĠAnna":6873,"Ġqualified":6874,"inned":6875,"Ġflu":6876,"Ġlegend":6877,"iah":6878,"Ġusual":6879,"ĠLt":6880,"pedition":6881,"ĠFederation":6882,"ĠBalt":6883,"ĠGro":6884,"Ġdangerous":6885,"aron":6886,"85":6887,"ĠGolden":6888,"esc":6889,"ĠKhan":6890,"ĠMatthew":6891,"pool":6892,"ĠBry":6893,"formation":6894,"Ġodd":6895,"Ġconvinc":6896,"Good":6897,"Ġimages":6898,"equ":6899,"ĠHim":6900,"Ġunus":6901,"Ġpurchase":6902,"Ġpasses":6903,"ĠSpirit":6904,"Ġmerch":6905,"Ġattached":6906,"enz":6907,"Ġwondered":6908,"writer":6909,"Ġderived":6910,"Ġtechnical":6911,"ĠNik":6912,"aska":6913,"hire":6914,"Ġdevice":6915,"incoln":6916,"Ġbudget":6917,"Ġargued":6918,"eline":6919,"Ġrepresenting":6920,"Ġride":6921,"Ġapproached":6922,"://":6923,"ĠLegisl":6924,"ĠâĢ¦":6925,"utation":6926,"Ġmayor":6927,"Ġcauses":6928,"Ġgrown":6929,"ĠSem":6930,"Ġsteam":6931,"acter":6932,"owa":6933,"Ġspecifically":6934,"Ġsurvived":6935,"ĠCas":6936,"ĠPrior":6937,"Ġhanded":6938,"ĠPrize":6939,"stances":6940,"Ġfoundation":6941,"Ġille":6942,"Ġreign":6943,"Ġ(;":6944,"Ġimprove":6945,"esota":6946,"ource":6947,"Ġtur":6948,"kes":6949,"ĠBab":6950,"Ġphase":6951,"Ġcycle":6952,"Ġscream":6953,"spec":6954,"Ġafternoon":6955,"AM":6956,"Ġtouchdown":6957,"Ġcrossed":6958,"Ġcycl":6959,"65":6960,"PS":6961,"Ġaged":6962,"Ġshoulders":6963,"Ġrival":6964,"Ġfired":6965,"ĠBall":6966,"host":6967,"Ġinfluenced":6968,"ĠSquad":6969,"Ġconcluded":6970,"Ġlandsc":6971,"achelor":6972,"inding":6973,"ĠMom":6974,"Ġrecognition":6975,"Ġsymbol":6976,"entle":6977,"owntown":6978,"Ãº":6979,"Ġdeploy":6980,"ecution":6981,"Ġdram":6982,"ĠMelbourne":6983,"Ġbronze":6984,"Ġclin":6985,"ĠDave":6986,"Ġ1937":6987,"Ġfolk":6988,"Ġneither":6989,"Ġbringing":6990,"Ġsurrounded":6991,"ĠGord":6992,"Ġlisten":6993,"Ġforth":6994,"Ġlyrics":6995,"ĠNap":6996,"ori":6997,"Ġstandards":6998,"Ġjoining":6999,"Ġchemical":7000,"Ġsad":7001,"state":7002,"ĠWhit":7003,"Ġcertainly":7004,"Ġsector":7005,"Ġbands":7006,"Ġinteract":7007,"Ġfal":7008,"apore":7009,"olished":7010,"ĠOcean":7011,"Ġemployees":7012,"Ġdecre":7013,"Ġcontrolled":7014,"Ġhat":7015,"Ġstadium":7016,"Ġlights":7017,"Ġagree":7018,"Ġadvance":7019,"Ġviews":7020,"Ġscheduled":7021,"Ġax":7022,"appeared":7023,"Ġ1919":7024,"ĠSlov":7025,"orders":7026,"Ġfiction":7027,"ĠMoscow":7028,"box":7029,"Ġchoose":7030,"wick":7031,"ĠVietnam":7032,"Ġid":7033,"abil":7034,"jan":7035,"ĠChannel":7036,"iable":7037,"itter":7038,"Ġestablishment":7039,"wegian":7040,"ĠWars":7041,"entially":7042,"ĠRick":7043,"eler":7044,"ĠSaturday":7045,"acent":7046,"Ġanyway":7047,"Ġgat":7048,"oked":7049,"Ġeducated":7050,"Ġinters":7051,"isms":7052,"Ġregarded":7053,"ĠHard":7054,"ĠBaron":7055,"Ġsurvey":7056,"ĠMinnesota":7057,"olt":7058,"acle":7059,"uration":7060,"Ġinjured":7061,"78":7062,"ĠBah":7063,"95":7064,"ucing":7065,"Be":7066,"ĠMiller":7067,"Ġalleged":7068,"ĠCountry":7069,"uits":7070,"ĠWeek":7071,"anches":7072,"66":7073,"TA":7074,"Ġpriest":7075,"atically":7076,"icide":7077,"Ġdrove":7078,"Ġcorpor":7079,"ĠJason":7080,"Ġvalues":7081,"ĠLincoln":7082,"Ġmental":7083,"isis":7084,"Ġglanced":7085,"ĠDVD":7086,"yo":7087,"Ġobjects":7088,"Ġliqu":7089,"ĠId":7090,"Ġlifted":7091,"forc":7092,"arsh":7093,"Ġban":7094,"ĠMilitary":7095,"onsin":7096,"ĠTemple":7097,"pur":7098,"ĠLes":7099,"ĠFree":7100,"roke":7101,"Ġdoct":7102,"Ġdescript":7103,"Ġthin":7104,"Ġ)":7105,"ĠClark":7106,"Ġpartnership":7107,"Ġhorses":7108,"ĠKansas":7109,"Ġcriminal":7110,"Ġ1917":7111,"rot":7112,"ĠRoy":7113,"Ġhoped":7114,"Ġtied":7115,"Ġcooper":7116,"ĠPope":7117,"Ġaccompl":7118,"Ġlie":7119,"ĠAli":7120,"aning":7121,"isconsin":7122,"Ġcalm":7123,"ĠCape":7124,"Ġeducational":7125,"Ġhaven":7126,"Ġbeach":7127,"Ġproducing":7128,"ĠWinter":7129,"Ġaffected":7130,"Ġstick":7131,"Ġkingdom":7132,"Ġframe":7133,"ĠWalter":7134,"Ġchallenge":7135,"Ġresponsibility":7136,"ĠTok":7137,"Ġcategory":7138,"Ġinstall":7139,"Ġenvironmental":7140,"ĠPatrick":7141,"wo":7142,"oli":7143,"hammad":7144,"%.":7145,"ocese":7146,"ĠMemorial":7147,"ordan":7148,"Ġassess":7149,"Ġpoetry":7150,"ĠCambridge":7151,"Ġscenes":7152,"Ġprofession":7153,"Ġru":7154,"ĠTH":7155,"Ġweekend":7156,"agues":7157,"Ġcommitted":7158,"Ġtra":7159,"Ġresigned":7160,"Ġpainted":7161,"pa":7162,"Ġpure":7163,"88":7164,"Ġincorporated":7165,"Ġdepth":7166,"Ġworse":7167,"Ġencounter":7168,"Ġinterests":7169,"Ġpoly":7170,"ĠKev":7171,"ĠFinally":7172,"Ġresemb":7173,"ĠMissouri":7174,"Ġstating":7175,"ennessee":7176,"Ġplane":7177,"leep":7178,"ĠAbd":7179,"ĠNative":7180,"Ġloan":7181,"Ġcosts":7182,"ĠAnne":7183,"ĠStat":7184,"Ġfruit":7185,"orage":7186,"Ġsomewhat":7187,"Ġinhabitants":7188,"ĠQueensland":7189,"Ġresponded":7190,"ĠJoh":7191,"Ġbeneath":7192,"ĠHou":7193,"hus":7194,"erts":7195,"Ġlying":7196,"Ġbenef":7197,"Ġroads":7198,"Ġregistered":7199,"Ġfixed":7200,"Ġdarkness":7201,"ĠFa":7202,"Ġcapable":7203,"Ġ300":7204,"olas":7205,"ench":7206,"ĠStock":7207,"Ġflowers":7208,"icit":7209,"Ġsale":7210,"Ġpromote":7211,"Ġstrateg":7212,"ĠLabor":7213,"Ġappropri":7214,"ĠCab":7215,"Ġmountains":7216,"Ġcharged":7217,"Ġdates":7218,"Ġworship":7219,"Ġ1914":7220,"Ġliterary":7221,"regon":7222,"Ġinterior":7223,"195":7224,"ĠWrit":7225,"Ġindependence":7226,"miral":7227,"ĠNich":7228,"eries":7229,"ĠTai":7230,"ĠPoint":7231,"Ġbarely":7232,"Ġjunior":7233,"Ġmassive":7234,"je":7235,"rophy":7236,"Ġseek":7237,"Ġbiggest":7238,"ĠWisconsin":7239,"aser":7240,"ogether":7241,"Ġrepresentative":7242,"Ġ1935":7243,"Ġhockey":7244,"Ġvice":7245,"track":7246,"ĠDoctor":7247,"ĠSecurity":7248,"istol":7249,"Ġabsol":7250,"ilst":7251,"ĠNorwegian":7252,"ĠNorway":7253,"Ġham":7254,"Ġvoted":7255,"Ġdelivered":7256,"Ġprogramme":7257,"==":7258,"Ġraise":7259,"Ġinstalled":7260,"uese":7261,"Ġrestaurant":7262,"Ġevolution":7263,"iley":7264,"ĠJosh":7265,"Ġintelligence":7266,"former":7267,"Ġassault":7268,"Ġhydro":7269,"ologies":7270,"Ġscre":7271,"ĠBack":7272,"Ġweb":7273,"ED":7274,"Sc":7275,"Ġcombination":7276,"ĠSingapore":7277,"Ġvisual":7278,"Ġstomach":7279,"Ġexplos":7280,"ĠFinn":7281,"don":7282,"Ġprotein":7283,"Ġdraft":7284,"Ġancest":7285,"ĠAle":7286,"Ġangry":7287,"Ġhide":7288,"Ġconscious":7289,"Ġhandle":7290,"Ġcandidates":7291,"Ġteachers":7292,"zona":7293,"Ġremov":7294,"42":7295,"Ġmerged":7296,"ĠBos":7297,"Ġknock":7298,"har":7299,"Ġsubstant":7300,"Ġaccur":7301,"Ġresistance":7302,"ĠBon":7303,"Ġselection":7304,"ĠManchester":7305,"ĠOt":7306,"ĠSum":7307,"ĠColorado":7308,"Ġshirt":7309,"Ġfeelings":7310,"Ġsighed":7311,"Ġimproved":7312,"ĠDomin":7313,"Ġtownship":7314,"going":7315,"ĠDown":7316,"Ġgrounds":7317,"ĠThose":7318,"ication":7319,"Ġarrival":7320,"SP":7321,"Ġengines":7322,"Ġtypical":7323,"edding":7324,"76":7325,"ĠAuthor":7326,"Ġdescribes":7327,"phone":7328,"iva":7329,"ĠPhilippines":7330,"ilation":7331,"ĠCass":7332,"ĠTurkey":7333,"Ġmoth":7334,"ĠMunicip":7335,"ĠTennessee":7336,"Ġdemand":7337,"Ġisol":7338,"usal":7339,"umbled":7340,"Ġ49":7341,"Ġhidden":7342,"Ġenjoyed":7343,"cover":7344,"Ġtries":7345,"igation":7346,"Ġconsecutive":7347,"Tr":7348,"ĠHans":7349,"Ġcous":7350,"ĠMalays":7351,"owered":7352,"Ġprogramming":7353,"ĠBes":7354,"Ġshooting":7355,"Ġopinion":7356,"ĠSciences":7357,"enses":7358,"Ġ1900":7359,"Ġselling":7360,"ĠStudies":7361,"Ġ1933":7362,"Ġparalle":7363,"Ġcomposer":7364,"agu":7365,"41":7366,"ĠNCAA":7367,"ĠLieutenant":7368,"Ġethnic":7369,"Ġinaug":7370,"ĠIndiana":7371,"ĠBureau":7372,"-+":7373,"ifer":7374,"Ġshock":7375,"Ġpaintings":7376,"Ġmathemat":7377,"tainment":7378,"gor":7379,"fast":7380,"Ġcomput":7381,"icians":7382,"uther":7383,"ET":7384,"Ġgang":7385,"iversary":7386,"rolled":7387,"Ġreduce":7388,"Ġrolled":7389,"ĠFinal":7390,"Ġiniti":7391,"Ġcovering":7392,"Ġcompete":7393,"âĢĿ.":7394,"Ġpapers":7395,"Ġanger":7396,"Ġruled":7397,"Ġoperate":7398,"ĠSri":7399,"ĠHoward":7400,"erb":7401,"ateur":7402,"Ġjournalist":7403,"ĠWolf":7404,"Ġ1929":7405,"Ġwilling":7406,"Ġcamera":7407,"Ġgoods":7408,"Ġpeak":7409,"86":7410,"Ã£o":7411,"ĠReal":7412,"point":7413,"ĠSamuel":7414,"atures":7415,"rible":7416,"Ġdivers":7417,"Ġproced":7418,"Ġdetermine":7419,"Ġ75":7420,"Ġsed":7421,"ito":7422,"Ġrevolution":7423,"ĠDid":7424,"Ġgraduate":7425,"Ġobserv":7426,"Who":7427,"vant":7428,"only":7429,"ĠNever":7430,"ĠOregon":7431,"Ġregularly":7432,"Ġfactory":7433,"Ġadvis":7434,"Ġliked":7435,"die":7436,"wen":7437,"ĠRa":7438,"Ġspoken":7439,"Ġclassical":7440,"Ġpatient":7441,"Ġseparated":7442,"fe":7443,"Billboard":7444,"Ġlanding":7445,"bing":7446,"cons":7447,"ĠRen":7448,"Ġca":7449,"ĠMcG":7450,"Ġsuperv":7451,"Ġimpossible":7452,"Ġunderstood":7453,"icts":7454,"aire":7455,"Ġagency":7456,"obe":7457,"ĠHur":7458,"omp":7459,"Ġped":7460,"Ġaccused":7461,"ĠPlan":7462,"aughters":7463,"ĠTs":7464,"Ġsuppor":7465,"Ġdiplom":7466,"Ġ150":7467,"ĠAM":7468,"Ġputting":7469,"ographer":7470,"Ġkilomet":7471,"lah":7472,"ĠLabour":7473,"Ġoffering":7474,"AA":7475,"ĠHell":7476,"Ġ1928":7477,"Ġadap":7478,"Ġexhibition":7479,"rim":7480,"azing":7481,"Ġcolour":7482,"cho":7483,"77":7484,"Ġphilosophy":7485,"Ġcredit":7486,"ĠLu":7487,"acher":7488,"Ġ1934":7489,"itely":7490,"gery":7491,"Ġtruly":7492,"Ġjur":7493,"Å«":7494,"Ġ400":7495,"oto":7496,"Ġmand":7497,"ĠIslamic":7498,"ti":7499,"Ġrebu":7500,"run":7501,"Ġstores":7502,"Ġreserv":7503,"Ġcommunication":7504,"Ġchurches":7505,"Ġwounded":7506,"ishment":7507,"Ġbedroom":7508,"Ġconsisting":7509,"ĠAustria":7510,"Ġacid":7511,"ĠWas":7512,"Ġpromise":7513,"Ġsomewhere":7514,"spe":7515,"Ġtechniques":7516,"ĠCensus":7517,"ghan":7518,"89":7519,"Ġoverl":7520,"do":7521,"Ġsequence":7522,"ĠTurkish":7523,"roud":7524,"ĠIV":7525,"Ġforget":7526,"Ġlawyer":7527,"ĠCharlie":7528,"Ġparticipate":7529,"Ġapparently":7530,"stitutional":7531,"okes":7532,"ĠCH":7533,"Ġapprec":7534,"ĠHeart":7535,"Ġoption":7536,"ĠNiger":7537,"ĠBurn":7538,"uster":7539,"Ð¾Ð":7540,"ublin":7541,"ĠVice":7542,"Ġpersonnel":7543,"ĠArizona":7544,"Ġtonight":7545,"Ġfrag":7546,"Ġcharges":7547,"Ġzone":7548,"ĠArk":7549,"Ġnick":7550,"ĠDad":7551,"Ġmarry":7552,"ĠPortuguese":7553,"hist":7554,"using":7555,"SR":7556,"Ġcricket":7557,"ĠMaryland":7558,"itzerland":7559,"Ġwins":7560,"Ġstaring":7561,"olis":7562,"ĠAgain":7563,"Ġ+":7564,"prod":7565,"Ġsin":7566,"Ġbatter":7567,"Ġcoordin":7568,"razy":7569,"mosp":7570,"La":7571,"ĠSel":7572,"Ġcourses":7573,"orship":7574,"Ġreserve":7575,"ensed":7576,"ĠAffairs":7577,"ĠLuke":7578,"Ġresidence":7579,"Ġmedium":7580,"Ġconstituency":7581,"Ġdelay":7582,"coming":7583,"Ġrent":7584,"Ġ39":7585,"Ġinvasion":7586,"Ġreplace":7587,"ĠRet":7588,"Ġdressed":7589,"Ġcapture":7590,"Ġsaved":7591,"Ġmoments":7592,"orted":7593,"Ġensure":7594,"Ġyes":7595,"Ġaccompanied":7596,"ĠKevin":7597,"ĠPlaces":7598,"exp":7599,"Ġchanging":7600,"aza":7601,"Ġsession":7602,"Ġconqu":7603,"anguage":7604,"heme":7605,"ĠStand":7606,"ĠPot":7607,"ĠAlan":7608,"Ġinner":7609,"ĠMean":7610,"Ġpraised":7611,"Ġveget":7612,"Ġfaces":7613,"Ġarranged":7614,"Ġexamples":7615,"Ġsecretary":7616,"Ġgaze":7617,"ĠNFL":7618,"Ġfan":7619,"ĠWeb":7620,"IV":7621,"Ġplayoff":7622,"ceived":7623,"ĠInit":7624,"Ġsynt":7625,"Ġ1910":7626,"Ġwriters":7627,"Ġundert":7628,"ategy":7629,"ĠMarine":7630,"Ġrefuge":7631,"anges":7632,"ĠÄ":7633,"Just":7634,"ĠBuilding":7635,"Ġdamaged":7636,"ogan":7637,"ellect":7638,"Ġwore":7639,"Ġdegrees":7640,"Ġremind":7641,"Ġrejected":7642,"Ġtank":7643,"Ġlady":7644,"ĠInfantry":7645,"ĠDal":7646,"Ġinterpret":7647,"Ġacknow":7648,"Ġinher":7649,"ĠMit":7650,"Ġdisappeared":7651,"ĠHamilton":7652,"Ġpurposes":7653,"Ġusers":7654,"ĠDougl":7655,"ensions":7656,"Where":7657,"Ġaccommod":7658,"Ġtong":7659,"ivalent":7660,"ĠWy":7661,"ture":7662,"ĠDick":7663,"ĠAud":7664,"Ġapplications":7665,"foot":7666,"Ġbusinesses":7667,"jo":7668,"ĠAD":7669,"Ġbenefit":7670,"Ġsections":7671,"Ġconfused":7672,"owned":7673,"Ġ1924":7674,"Ġintroduction":7675,"roc":7676,"Ġdistributed":7677,"ĠLow":7678,"pective":7679,"icip":7680,"alleng":7681,"Ġalco":7682,"abled":7683,"Ġlad":7684,"Ġsees":7685,"Ġdecade":7686,"asant":7687,"Ġsecure":7688,"Ġfacing":7689,"rait":7690,"Ġ1932":7691,"ĠKey":7692,"Ñĥ":7693,"Ġconvent":7694,"ĠAnderson":7695,"ĠSwitzerland":7696,"Ġgene":7697,"etime":7698,"Ġ48":7699,"Ġpersons":7700,"Ġgrey":7701,"ĠManagement":7702,"Ġpassengers":7703,"ĠSquare":7704,"ĠMorgan":7705,"Ġdivor":7706,"Ġtiny":7707,"aired":7708,"ĠGib":7709,"Ġearliest":7710,"Ġadjacent":7711,"BI":7712,"Ġrugby":7713,"Ġclimb":7714,"who":7715,"ĠHad":7716,"ĠStaff":7717,"Ġmad":7718,"Ġsolution":7719,"odge":7720,"Ġsuffering":7721,"Ġchapter":7722,"vard":7723,"Ġjustice":7724,"Ġduties":7725,"emic":7726,"Ġislands":7727,"Ġowners":7728,"Ġbranches":7729,"ikh":7730,"ski":7731,"Ġsurre":7732,"load":7733,"Ġdecide":7734,"Ġpale":7735,"ĠTel":7736,"wealth":7737,"ĠLiberal":7738,"Ġdocuments":7739,"ĠPrim":7740,"Ġfranch":7741,"ĠAllen":7742,"Ġpresidential":7743,"Ġupd":7744,"ĠInternet":7745,"ĠGrant":7746,"Ġseventh":7747,"dam":7748,"ĠForeign":7749,"Ġmolec":7750,"aduate":7751,"ĠAlb":7752,"ĠFamily":7753,"Ġdad":7754,"Äį":7755,"ĠFront":7756,"inch":7757,"Ġengineer":7758,"Ġlap":7759,"Ġ1922":7760,"odox":7761,"Ġgate":7762,"arest":7763,"Ġelectronic":7764,"Ex":7765,"Ġpaus":7766,"ĠDiego":7767,"ĠRural":7768,"Ġblank":7769,"Ġindeed":7770,"Ġsty":7771,"aro":7772,"ĠKarl":7773,"angel":7774,"Ġmurd":7775,"oly":7776,"ĠExecutive":7777,"ĠGordon":7778,"ĠNob":7779,"resents":7780,"Ġextension":7781,"ugs":7782,"asm":7783,"burn":7784,"pes":7785,"Wh":7786,"Ġpocket":7787,"TC":7788,"Ġexperiences":7789,"Ġnortheast":7790,"mont":7791,"ĠBeng":7792,"Ġprotected":7793,"erk":7794,"ĠRun":7795,"Ġfil":7796,"Ġadvoc":7797,"Ġgraph":7798,"Ġrif":7799,"ĠReview":7800,"Ġprize":7801,"Ġflew":7802,"ĠProp":7803,"RE":7804,"cing":7805,"ĠAnthony":7806,"ĠEarly":7807,"ques":7808,"Ġsigns":7809,"Ġopera":7810,"ĠHollywood":7811,"hyth":7812,"Ġ1927":7813,"encing":7814,"Ġblind":7815,"izz":7816,"Ġhundreds":7817,"Ġnoise":7818,"Ġagricultural":7819,"oles":7820,"ĠBilly":7821,"Ġexisted":7822,"Ġaspects":7823,"ĠNa":7824,"Ġcod":7825,"asp":7826,"Ġdiscip":7827,"43":7828,"ĠServices":7829,"Ä«":7830,"ĠBrigade":7831,"Ġsubjects":7832,"ige":7833,"Ġtropical":7834,"osure":7835,"Ġlanded":7836,"ĠSwiss":7837,"ĠKentucky":7838,"Ġ1931":7839,"ardens":7840,"ĠMedal":7841,"Ġlocomot":7842,"ĠJordan":7843,"Ġsharp":7844,"ĠBi":7845,"iders":7846,"fortun":7847,"verty":7848,"Ġreturns":7849,"dis":7850,"Ġdrawing":7851,"Ġsque":7852,"Ġfro":7853,"Ġ1921":7854,"Ġunless":7855,"Ġvisible":7856,"season":7857,"Ã¼r":7858,"Ġ1912":7859,"Ġdesigns":7860,"ĠLyn":7861,"ounced":7862,"ĠDur":7863,"atherine":7864,"Ġaffect":7865,"rupted":7866,"Ġprotest":7867,"angers":7868,"Cl":7869,"ĠSoon":7870,"Ġachieve":7871,"ĠHotel":7872,"Ġchildhood":7873,"oking":7874,"Ġhole":7875,"ĠBart":7876,"heastern":7877,"Ġdispl":7878,"upid":7879,"Ġmusicians":7880,"Ġphen":7881,"Ġfurn":7882,"Ġinteresting":7883,"ĠGreece":7884,"including":7885,"Ġanymore":7886,"Ġstairs":7887,"icial":7888,"ĠMagazine":7889,"Ġpregn":7890,"ĠOak":7891,"Ġcook":7892,"Ġhistorian":7893,"79":7894,"ÃŃa":7895,"ĠDark":7896,"ante":7897,"Ġtransition":7898,"Ġmobile":7899,"Ġbusy":7900,"Ġpiano":7901,"ĠEngineering":7902,"Ġtired":7903,"Ġfalls":7904,"ĠStill":7905,"Ġrepresents":7906,"agen":7907,"ĠCall":7908,"ĠPalest":7909,"Ġassistance":7910,"anton":7911,"Ġrenew":7912,"Ġfactors":7913,"Ġentering":7914,"Ġpoverty":7915,"roit":7916,"Ġexpert":7917,"ĠWin":7918,"Ġstudying":7919,"aux":7920,"Ġhits":7921,"ĠDu":7922,"Ġfant":7923,"ĠBuck":7924,"ĠFarm":7925,"ĠFM":7926,"ĠSky":7927,"ĠFive":7928,"ocol":7929,"ĠMember":7930,"ĠArmen":7931,"Ġmedicine":7932,"rum":7933,"Ġearn":7934,"Ġmyth":7935,"Ñĭ":7936,"Ġrecip":7937,"Ġthreatened":7938,"idel":7939,"Ġweren":7940,"Ġjumped":7941,"ĠJuan":7942,"lad":7943,"Ġpione":7944,"pir":7945,"Ġtomorrow":7946,"Ġcontext":7947,"Ġboot":7948,"Ġdeleg":7949,"Ġinstance":7950,"Ġconcrete":7951,"Ġcomic":7952,"Ġsevere":7953,"Ġcrossing":7954,"Ġsmooth":7955,"Ġcarefully":7956,"ĠTelevision":7957,"agg":7958,"rehens":7959,"ĠForces":7960,"ĠCroat":7961,"uma":7962,"Ġcards":7963,"Ġintent":7964,"ĠBowl":7965,"ĠKelly":7966,"Ġinvestment":7967,"Ġgathered":7968,"Ġwedding":7969,"iece":7970,"ĠKam":7971,"itated":7972,"ĠHug":7973,"Ġrelax":7974,"dale":7975,"Ġ1925":7976,"Ġdating":7977,"Okay":7978,"Ġworried":7979,"ĠTransport":7980,"Ġtheat":7981,"unct":7982,"andom":7983,"Ġbreaking":7984,"Ġcourts":7985,"Ġtie":7986,"abama":7987,"rene":7988,"Ġx":7989,"ieties":7990,"po":7991,"Ġpremiered":7992,"Ġseed":7993,"Ġutil":7994,"ĠWhe":7995,"Ġstages":7996,"ĠCommander":7997,"alia":7998,"iami":7999,"Ġhoping":8000,"DP":8001,"Ġsoil":8002,"ref":8003,"Ġsurvive":8004,"Man":8005,"onc":8006,"Ġjazz":8007,"Ġshore":8008,"Ġprompt":8009,"Ġthanks":8010,"ĠSilver":8011,"Ġ1915":8012,"ĠMargaret":8013,"Ġglad":8014,"ieval":8015,"ĠAustin":8016,"ĠHouston":8017,"Ġbegun":8018,"On":8019,"erted":8020,"ĠPap":8021,"Ġsam":8022,"Ġregiment":8023,"Ġbless":8024,"Ġrailroad":8025,"Ġtreated":8026,"Ġchalleng":8027,"Ġ1923":8028,"Ġexception":8029,"Now":8030,"ĠErn":8031,"inking":8032,"avia":8033,"Ġ1916":8034,"aver":8035,"Ġrising":8036,"Ġconcerns":8037,"Ġpor":8038,"ĠJimmy":8039,"east":8040,"athy":8041,"Ġoperates":8042,"stal":8043,"Ġmatters":8044,"ĠSenior":8045,"Ã³w":8046,"Ġrating":8047,"oom":8048,"ĠJake":8049,"otte":8050,"Ġatmosp":8051,"bal":8052,"acon":8053,"Ġrelative":8054,"uy":8055,"Ġgift":8056,"Ġuseful":8057,"Ġnorthwest":8058,"lay":8059,"level":8060,"Ġdemocr":8061,"ĠPrin":8062,"ĠMayor":8063,"ĠSin":8064,"ĠVis":8065,"ĠPhill":8066,"Ġunp":8067,"Ġ1926":8068,"ĠThird":8069,"Ġrequires":8070,"Ġabsor":8071,"ogen":8072,"Ġfill":8073,"case":8074,"Ġbeauty":8075,"ĠMeanwhile":8076,"uman":8077,"ĠDouglas":8078,"Ġspir":8079,"Ġcomposition":8080,"ĠNaval":8081,"ĠFrederick":8082,"hips":8083,"utt":8084,"Ġdifferences":8085,"rast":8086,"Ġcircle":8087,"Ġveter":8088,"lesh":8089,"Ġphotograph":8090,"Ġ42":8091,"ĠMississ":8092,"she":8093,"Ġuniverse":8094,"ĠSquadron":8095,"Ġrealize":8096,"ĠCommonwealth":8097,"ework":8098,"Ġrapidly":8099,"ĠPa":8100,"ruction":8101,"Ġcopy":8102,"ĠIsraeli":8103,"iac":8104,"Ġdebuted":8105,"ners":8106,"Ġgiant":8107,"ĠOfficer":8108,"ĠImperial":8109,"PA":8110,"ĠChildren":8111,"enh":8112,"ĠDean":8113,"Ġfactor":8114,"ippi":8115,"ĠFame":8116,"ĠRoger":8117,"Ġdaughters":8118,"ĠRoc":8119,"ĠJenn":8120,"Ġelder":8121,"Ġresign":8122,"Ġstress":8123,"pper":8124,"Ġunusual":8125,"Ġmoon":8126,"Ġfallen":8127,"ĠHockey":8128,"Ġsuggests":8129,"ĠInn":8130,"Ġguards":8131,"mph":8132,"itched":8133,"Ġmarine":8134,"amps":8135,"Ġbalance":8136,"ĠDNA":8137,"ibl":8138,"Ġrestored":8139,"ĠVar":8140,"Ġadding":8141,"Ġamongst":8142,"mate":8143,"ĠTrib":8144,"Ġpreced":8145,"stan":8146,"When":8147,"Ġplus":8148,"Ġcinem":8149,"ĠColonel":8150,"ĠSound":8151,"Ġdevices":8152,"ĠPear":8153,"Ġemerged":8154,"ĠAy":8155,"Ġdies":8156,"ĠAndre":8157,"Ġpictures":8158,"ĠEntertainment":8159,"rome":8160,"ĠSpace":8161,"Ġintention":8162,"ĠJohnny":8163,"bra":8164,"ĠMother":8165,"Ġvictims":8166,"ĠAlabama":8167,"Ġroughly":8168,"Ġdesper":8169,"ĠConnect":8170,"ifications":8171,"Ġtherap":8172,"Ġnations":8173,"ista":8174,"ĠVinc":8175,"acc":8176,"icious":8177,"ĠMond":8178,"Ġocean":8179,"ĠLaure":8180,"Ġvary":8181,"cell":8182,"Ġsignificantly":8183,"SC":8184,"ĠHills":8185,"Ġmovements":8186,"Ġmeasures":8187,"star":8188,"Hey":8189,"OM":8190,"Ġpressed":8191,"Ġenh":8192,"Ġsacr":8193,"Ġunl":8194,"ĠHarris":8195,"Ġjump":8196,"Ġretained":8197,"Ġgentle":8198,"Ġexcell":8199,"oria":8200,"ĠGram":8201,"Ġtack":8202,"Ġrum":8203,"ĠMess":8204,"ĠJess":8205,"Ġappearing":8206,"Ġresidential":8207,"Ġvast":8208,"ĠLive":8209,"gun":8210,"Ġsoldier":8211,"ilty":8212,"earing":8213,"Ġtranslated":8214,"Ġtunnel":8215,"ĠLanc":8216,"kh":8217,"Ġmeters":8218,"Ġfile":8219,"ĠBeck":8220,"ĠVillage":8221,"ĠFund":8222,"Ġuser":8223,"ĠRegional":8224,"Ġfalse":8225,"Ġflower":8226,"Ġdefensive":8227,"Ġpill":8228,"67":8229,"eland":8230,"uri":8231,"ĠMoore":8232,"Ġworst":8233,"Ġnotably":8234,"iter":8235,"rin":8236,"ĠBrun":8237,"ĠHoll":8238,"ĠBou":8239,"Ġcircumstances":8240,"Ġbanks":8241,"Ġindicated":8242,"tery":8243,"Ġinvolving":8244,"ĠRub":8245,"Ġinstitution":8246,"ĠEver":8247,"Star":8248,"related":8249,"Ġstorage":8250,"ĠSu":8251,"ĠCole":8252,"lahoma":8253,"Ġforming":8254,"Ġreputation":8255,"ĠNev":8256,"osm":8257,"Ġlinked":8258,"Ġpitch":8259,"that":8260,"ĠWithin":8261,"Ġassign":8262,"Ġprisoners":8263,"iveness":8264,"Ġracial":8265,"ĠClin":8266,"DA":8267,"ipping":8268,"ĠAC":8269,"Ġfriendly":8270,"Ġ55":8271,"pha":8272,"ĠBelg":8273,"Ġfishing":8274,"rons":8275,"vy":8276,"ĠRey":8277,"ardo":8278,"Ġchamber":8279,"Ġneighbour":8280,"):":8281,"mers":8282,"Ġrenov":8283,"Ġcrisis":8284,"ĠCare":8285,"68":8286,"Äĥ":8287,"rett":8288,"ĠCooper":8289,"Ġinnov":8290,"term":8291,"ĠTele":8292,"rix":8293,"Ġspending":8294,"thodox":8295,"vements":8296,"Ġcollaboration":8297,"ĠEag":8298,"Ġsatell":8299,"ĠYouth":8300,"ĠCost":8301,"oa":8302,"Or":8303,"ĠAdditionally":8304,"Ġaren":8305,"ĠLin":8306,"anne":8307,"Ġretail":8308,"Ġtalked":8309,"ĠStew":8310,"ĠIowa":8311,"urally":8312,"oen":8313,"Ġbishop":8314,"Ġcoat":8315,"á»":8316,"ĠGet":8317,"Ġpolicies":8318,"ĠMand":8319,"ulating":8320,"ĠMcK":8321,"ĠQuebec":8322,"elson":8323,"Ġtill":8324,"Ð°Ð":8325,"Ġfifteen":8326,"Ġaer":8327,"Ġemergency":8328,"found":8329,"Ġdescribe":8330,"hess":8331,"Ġdepos":8332,"Ġintellect":8333,"ĠLam":8334,"adi":8335,"Ġstarred":8336,"Ġcontinuing":8337,"insula":8338,"190":8339,"69":8340,"Ġpossibility":8341,"di":8342,"Ġnormally":8343,"ĠPrix":8344,"Ġroutes":8345,"64":8346,"Ġdowntown":8347,"des":8348,"Ġtemporary":8349,"Ġears":8350,"aware":8351,"ĠTournament":8352,"ĠDesign":8353,"Ġpractices":8354,"Ġquietly":8355,"Ġtesting":8356,"Ġpush":8357,"Ġdetail":8358,"Ġstruggle":8359,"Ġfool":8360,"ĠĠĠ":8361,"igenous":8362,"Ġburned":8363,"ĠEvent":8364,"ĠAntonio":8365,"Ġtools":8366,"ĠMiami":8367,"ĠHawai":8368,"rik":8369,"Ġclassic":8370,"Ġassass":8371,"Ġprove":8372,"Ġjobs":8373,"Ġmicro":8374,"Ġunsuccess":8375,"erg":8376,"hand":8377,"oyd":8378,"Ġlunch":8379,"ĠAfghan":8380,"Ġsupplies":8381,"Ġsufficient":8382,"ĠGerm":8383,"rently":8384,"Ġdrugs":8385,"Ġdust":8386,"ĠCommunist":8387,"hew":8388,"Ġpromised":8389,"uerto":8390,"Ġaside":8391,"Ġhonest":8392,"Ġrend":8393,"Ġimprison":8394,"ĠRoberts":8395,"Ġswitch":8396,"Ġeleven":8397,"Ġsmoke":8398,"ĠCEO":8399,"Ġvisitors":8400,"Ġacted":8401,"ĠModern":8402,"Ġauthors":8403,"Ġadvice":8404,"ĠShah":8405,"Ġshit":8406,"Ġstrongly":8407,"ĠAdministration":8408,"asters":8409,"bass":8410,"Ġcredited":8411,"87":8412,"Ġrates":8413,"ĠCre":8414,"ĠDanish":8415,"ivated":8416,"Ġtort":8417,"Ġcontributions":8418,"avalry":8419,"Ġstrategy":8420,"Ġappointment":8421,"Ġsail":8422,"Ġsounded":8423,"election":8424,"Ġhtt":8425,"ĠDublin":8426,"Ġdanger":8427,"Ġvocals":8428,"Ġtheater":8429,"cription":8430,"top":8431,"Ġtea":8432,"ĠKy":8433,"ancer":8434,"Ġpenal":8435,"Ġhang":8436,"Ġincreasingly":8437,"ĠLtd":8438,"uj":8439,"ĠChairman":8440,"Ġoccasionally":8441,"ĠUnt":8442,"ĠChile":8443,"Ġcousin":8444,"Ġtraveled":8445,"icut":8446,"ĠOklahoma":8447,"utions":8448,"Ġfavorite":8449,"ĠMountains":8450,"isp":8451,"acket":8452,"iller":8453,"arant":8454,"ĠAge":8455,"Ġpublishing":8456,"Ġcriticized":8457,"Ġwaste":8458,"Ġ1913":8459,"iped":8460,"ĠCommunic":8461,"Ġparallel":8462,"ĠPolit":8463,"Ġtongue":8464,"Ġ1911":8465,"Mar":8466,"Ġcash":8467,"issance":8468,"Ġlob":8469,"Ġsurf":8470,"Ġmusician":8471,"ĠDetroit":8472,"ĠPalace":8473,"Ġclothing":8474,"Ġdefeating":8475,"Ġpopularity":8476,"Ġclosing":8477,"Ġlocked":8478,"atus":8479,"tan":8480,"ĠConc":8481,"ĠKl":8482,"Ġflows":8483,"Ġapproval":8484,"hu":8485,"ĠHarvard":8486,"ĠArgentina":8487,"Ġmanage":8488,"Ġnickn":8489,"ĠCemetery":8490,"Ġpassage":8491,"ĠTreat":8492,"Ġshouted":8493,"Ġsoutheast":8494,"Ġscholar":8495,"lete":8496,"ĠRepresentatives":8497,"ĠDig":8498,"rac":8499,"Ġhes":8500,"uted":8501,"ĠSuch":8502,"unes":8503,"Ġscheme":8504,"Ġsmell":8505,"ĠAlexand":8506,"ĠFel":8507,"ewhere":8508,"uscript":8509,"Ã©s":8510,"ĠTro":8511,"ĠConstitution":8512,"Ġgently":8513,"Ġparking":8514,"ĠBan":8515,"Ġaccounts":8516,"ĠDall":8517,"bow":8518,"Ġfranchise":8519,"ribute":8520,"Ġmoves":8521,"door":8522,"ĠPict":8523,"ĠGallery":8524,"Ġwake":8525,"Ġnet":8526,"Ġwhilst":8527,"Ġtechnique":8528,"Ġequivalent":8529,"ĠRoll":8530,"Ġanniversary":8531,"ĠØ":8532,"Ġheading":8533,"Ġimmediate":8534,"borough":8535,"Ġcomplic":8536,"ĠBud":8537,"Ġcreature":8538,"ĠKennedy":8539,"Ġarchae":8540,"ĠMississippi":8541,"Ġeating":8542,"Ġforever":8543,"Ġnovels":8544,"ĠNA":8545,"ĠFal":8546,"ĠPuerto":8547,"Ġflash":8548,"Ġstupid":8549,"Ġmembership":8550,"Ġdebate":8551,"ĠWalker":8552,"Ġwinners":8553,"Ġchampions":8554,"RC":8555,"ĠMoon":8556,"Ġ1890":8557,"estyle":8558,"Ġfaster":8559,"Ġorganisation":8560,"ĠIan":8561,"Ġrescue":8562,"imens":8563,"ĠMaur":8564,"from":8565,"Ġsouthwest":8566,"Ġpulling":8567,"amental":8568,"Ġdiagn":8569,"Ġspell":8570,"Ġmining":8571,"eff":8572,"nold":8573,"ĠNag":8574,"Ġnaval":8575,"ĠCow":8576,"olph":8577,"rous":8578,"ruption":8579,"Ġfaculty":8580,"ĠSn":8581,"Ġhate":8582,"emen":8583,"Ġrocks":8584,"ĠCro":8585,"Ġdestruction":8586,"ĠAdv":8587,"Ġpric":8588,"Ġconsiderable":8589,"LL":8590,"ĠGrace":8591,"Ġexposed":8592,"ĠMarie":8593,"Ġloyal":8594,"ĠGulf":8595,"igious":8596,"called":8597,"Ġgender":8598,"Ġjoy":8599,"Ġcave":8600,"Ġfled":8601,"ĠAlbum":8602,"Ġvessel":8603,"icon":8604,"Ġcarbon":8605,"intend":8606,"Ġimpress":8607,"ĠEc":8608,"ĠDC":8609,"Ġblocks":8610,"ĠLawrence":8611,"Ġweekly":8612,"comm":8613,"Ġpainter":8614,"Ġtact":8615,"Ne":8616,"Ġrequirements":8617,"enez":8618,"ĠHand":8619,"ĠLouisiana":8620,"ĠIl":8621,"org":8622,"ĠGabri":8623,"ĠDeputy":8624,"Ġillegal":8625,"theless":8626,"ĠNY":8627,"cha":8628,"Ġhappens":8629,"ĠKings":8630,"Ġadapted":8631,"ĠRailroad":8632,"Ġreleg":8633,"ifts":8634,"bles":8635,"mother":8636,"ĠPed":8637,"ĠVienn":8638,"IP":8639,"Ġguilty":8640,"ĠTherefore":8641,"ĠDenmark":8642,"ĠBruce":8643,"Ġ1908":8644,"ĠDream":8645,"Ġfeels":8646,"grade":8647,"Ġlegislation":8648,"chell":8649,"tenance":8650,"TS":8651,"Ġliquid":8652,"ĠEdin":8653,"Ġownership":8654,"ĠReserve":8655,"ĠUC":8656,"opher":8657,"icing":8658,"ulous":8659,"Ġlasted":8660,"Ġremove":8661,"ĠFern":8662,"you":8663,"Ġmob":8664,"icate":8665,"ĠMichel":8666,"Ġunderground":8667,"ĠBaseball":8668,"Ġprocesses":8669,"Ġexha":8670,"Ġanth":8671,"Ġtranslation":8672,"Ġseeking":8673,"Ġdenied":8674,"ĠIsa":8675,"ĠTaiwan":8676,"Ġmilit":8677,"azed":8678,"ĠFriday":8679,"Ġdriven":8680,"Ġactors":8681,"Ġtouched":8682,"arner":8683,"Ġclassified":8684,"ĠExpress":8685,"Ġexists":8686,"Ġpanel":8687,"Ġwithdraw":8688,"Ġsomehow":8689,"Ġuniversities":8690,"Ġinnoc":8691,"ĠPhys":8692,"ando":8693,"ĠUnlike":8694,"Ġgrandfather":8695,"Ġfifty":8696,"Ġcolonial":8697,"orph":8698,"Ġshield":8699,"ĠBattalion":8700,"Ġopportun":8701,"ĠDonald":8702,"Ġmeat":8703,"62":8704,"Ġvisiting":8705,"Ġpaused":8706,"Ġprime":8707,"imore":8708,"ĠLank":8709,"Ġeval":8710,"ĠChart":8711,"tha":8712,"Ġaffairs":8713,"ĠCook":8714,"ĠAlban":8715,"ĠBeat":8716,"Ġsentence":8717,"Ġprovincial":8718,"ĠTob":8719,"amic":8720,"Ġappeal":8721,"eenth":8722,"Ġfault":8723,"ighters":8724,"Ġdollars":8725,"Ġinstruments":8726,"ĠHaving":8727,"El":8728,"Ġreplacement":8729,"ĠBelgium":8730,"Ġ--":8731,"ĠIron":8732,"Ġboss":8733,"imp":8734,"Ġattracted":8735,"orge":8736,"59":8737,"ĠDa":8738,"Ġcouples":8739,"ĠHamp":8740,"Ġclock":8741,"etr":8742,"Ġgreatly":8743,"Ġthrone":8744,"Ġfiled":8745,"Ġrecommend":8746,"Ġuncom":8747,"ĠHop":8748,"usalem":8749,"83":8750,"Ġrelationships":8751,"ĠRights":8752,"rastruct":8753,"Ġshift":8754,"Ġproposal":8755,"aman":8756,"Ġmeetings":8757,"ĠFil":8758,"mn":8759,"ĠPur":8760,"ĠYes":8761,"Ġphr":8762,"Ġeasier":8763,"ĠOttoman":8764,"Ġgest":8765,"mates":8766,"Ind":8767,"Ġcustomers":8768,"Ġdrinking":8769,"ĠAtlanta":8770,"Ġrefere":8771,"ĠRugby":8772,"hythm":8773,"Ġsuicide":8774,"hard":8775,"ĠKaz":8776,"ĠLiver":8777,"Ġneut":8778,"Ġformally":8779,"Ġstuck":8780,"Ġwrapped":8781,"Ġsir":8782,"ĠDisney":8783,"Ã¥":8784,"Ġavo":8785,"ĠMontreal":8786,"Ġdeclined":8787,"Ġoverse":8788,"Ġprint":8789,"Come":8790,"Ġvamp":8791,"Ġcrop":8792,"72":8793,"ribed":8794,"Ġsuccessor":8795,"ĠEdinburgh":8796,"ĠSet":8797,"Ġrounds":8798,"rm":8799,"ĠCarn":8800,"Ġpoem":8801,"yan":8802,"Ġburst":8803,"ci":8804,"icop":8805,"itals":8806,"Ġpron":8807,"vi":8808,"oned":8809,"Ġdeck":8810,"Ġplain":8811,"Ġ***":8812,"Ġfab":8813,"Ġmovies":8814,"Ġ(),":8815,"ucked":8816,"Ġjuris":8817,",'":8818,"Ġcomponents":8819,"ĠEner":8820,"ĠOd":8821,"sters":8822,"ĠIndependent":8823,"Ġcommanded":8824,"Ġcommune":8825,"Ġpassion":8826,"Ġdated":8827,"ĠCarter":8828,"Ġcriticism":8829,"inian":8830,"Ġastr":8831,"Ġ41":8832,"Ġdivisions":8833,"ĠTerrit":8834,"Ġgradually":8835,"Ġmeets":8836,"Ġlicense":8837,"fire":8838,"ĠBrazilian":8839,"Ġspark":8840,"ĠCrown":8841,"ĠUkraine":8842,"ĠPC":8843,"Ġtheore":8844,"à¸":8845,"Ġhappening":8846,"Ġcelebrated":8847,"oard":8848,"Ġtennis":8849,"Ġpublications":8850,"Ġcasual":8851,"Ġwarning":8852,"ĠAssoci":8853,"Ġconstruct":8854,"Ġfulf":8855,")\"":8856,"Ġlin":8857,"Ġshrugged":8858,"Ġburning":8859,"icking":8860,"ÅŁ":8861,"omy":8862,"ĠCollect":8863,"Ġdeputy":8864,"ĠKer":8865,"]]":8866,"Ġvessels":8867,"ĠLl":8868,"eling":8869,"Ġassemb":8870,"Ġmask":8871,"Ġrib":8872,"Ġmakeup":8873,"Ġbirthday":8874,"ĠGarden":8875,"ĠAlice":8876,"ĠPeace":8877,"Ġbehavi":8878,"Ġexplan":8879,"Ġtests":8880,"tic":8881,"sch":8882,"ĠWithout":8883,"Ġoffensive":8884,"ĠLang":8885,"ĠYet":8886,"Ph":8887,"Ġalcohol":8888,"ĠSingh":8889,"Ġslight":8890,"low":8891,"ahn":8892,"ĠFrey":8893,"Ġmanuscript":8894,"Ġappropriate":8895,"ĠConnecticut":8896,"profit":8897,"Ġhosts":8898,"Ġfrustr":8899,"ĠCamer":8900,"Ġabsence":8901,"Ġbeer":8902,"Ġforests":8903,"ĠTamil":8904,"ĠBush":8905,"Ġrecept":8906,"Ġagents":8907,"ĠSeattle":8908,"MP":8909,"Ġassembly":8910,"Ġupset":8911,"itable":8912,"Ġgolden":8913,"Ġlandscape":8914,"ĠRap":8915,"Ġfict":8916,"ĠRussell":8917,"ĠChristians":8918,"ĠPitts":8919,"ĠAlfred":8920,"Ġeld":8921,"Ġtorn":8922,"Ġflesh":8923,"ĠGene":8924,"ĠWelsh":8925,"Ġknife":8926,"pers":8927,"Ġguide":8928,"Ġprohib":8929,"ĠSi":8930,"Ġpages":8931,"Ġmonitor":8932,"Ġattorney":8933,"Ġwarri":8934,"Ġhorror":8935,"Ġverse":8936,"Ġninet":8937,"De":8938,"Ġlistening":8939,"Ġheritage":8940,"Ġoccupation":8941,"Ġmarkets":8942,"ĠKit":8943,"Ġpeaked":8944,"63":8945,"61":8946,"Ġeffectively":8947,"Ġprayer":8948,"otton":8949,"sea":8950,"ugh":8951,"ania":8952,"Ġknees":8953,"ĠOperation":8954,"84":8955,"Ġbeating":8956,"Ġextent":8957,"Ġsynd":8958,"Did":8959,"Ġhip":8960,"Ġexpedition":8961,"Ġdiscussion":8962,"vo":8963,"Ġcoastal":8964,"Ġdreams":8965,"ĠSR":8966,"ĠLane":8967,"town":8968,"Ġhonour":8969,"Ġnod":8970,"anted":8971,"reck":8972,"ymn":8973,"ĠRow":8974,"story":8975,"One":8976,"inations":8977,"Ġwaves":8978,"Ġbay":8979,"astery":8980,"Ġrelie":8981,"ĠHold":8982,"âĢĿ,":8983,"Ġdeeply":8984,"ĠTit":8985,"ĠOp":8986,"ounsel":8987,"Ġcoverage":8988,"Ġdefinition":8989,"ĠBull":8990,"ĠLas":8991,"Ġhoriz":8992,"Ġsending":8993,"III":8994,"ĠNon":8995,"Ġsquadron":8996,"ĠGary":8997,"Ġpalace":8998,"Ġaimed":8999,"ĠOrchestra":9000,"ĠJerusalem":9001,"orf":9002,"ĠPeters":9003,"rine":9004,"ĠAustrian":9005,"Ġrivers":9006,"ultane":9007,"ĠAgency":9008,"break":9009,"Ġgrave":9010,"anner":9011,"Ġnurs":9012,"09":9013,"Ġinfluential":9014,"Ġmirror":9015,"ST":9016,"Ġhal":9017,"ĠWard":9018,"ĠMach":9019,"ĠCampbell":9020,"Ġheaven":9021,"Ġbattles":9022,"ĠPrincess":9023,"Ġsurviving":9024,"Ġforty":9025,"olid":9026,"ĠJudge":9027,"ĠUntil":9028,"gressive":9029,"iture":9030,"Ġapply":9031,"Ġnav":9032,"Ġ47":9033,"essions":9034,"ĠSport":9035,"veland":9036,"ĠIb":9037,"Ġsisters":9038,"Ġstring":9039,"Ġinjuries":9040,"ĠAst":9041,"ĠVik":9042,"oni":9043,"Ġpleasure":9044,"Ġlosses":9045,"Ġencouraged":9046,"ogy":9047,"Ġbottle":9048,"Se":9049,"Ġanx":9050,"Ġ1880":9051,"vere":9052,"Ġreun":9053,"Ġsubmar":9054,"inction":9055,"Ġcrazy":9056,"ĠSud":9057,"brew":9058,"ĠFac":9059,"ĠRud":9060,"Go":9061,"leton":9062,"Ġ1905":9063,"Ġbenefits":9064,"Ġdepending":9065,"ĠMeth":9066,"Ġpermission":9067,"Ġbelonged":9068,"Ġ</":9069,"Ġlip":9070,"ĠTokyo":9071,"Ġsigning":9072,"ĠABC":9073,"Ġmedieval":9074,"hyl":9075,"Ġchuck":9076,"Ġentertainment":9077,"ĠMission":9078,"Ġcompetitions":9079,"Ġafterwards":9080,"olves":9081,"ĠFranklin":9082,"52":9083,"Ġmemories":9084,"ĠBeth":9085,"shaped":9086,"Ġoccasions":9087,"Ġemotional":9088,"Ġmode":9089,"Ġdynasty":9090,"Ġhanging":9091,"Ġdecisions":9092,"mina":9093,"prise":9094,"Ġschedule":9095,"ĠMorris":9096,"Ġreplacing":9097,"ĠSaf":9098,"cut":9099,"Ġconfess":9100,"Ġshifted":9101,"Ġmerely":9102,"emor":9103,"ĠAlong":9104,"ĠPerhaps":9105,"Ġplastic":9106,"rastructure":9107,"Ġpersonality":9108,"oded":9109,"ĠChen":9110,"57":9111,"oped":9112,"Ġnervous":9113,"Ġbathroom":9114,"Ġadmit":9115,"abilities":9116,"orus":9117,"81":9118,"Ã©t":9119,"Ġcharts":9120,"ĠDeath":9121,"Ġcommented":9122,"Ġ1906":9123,"Ġconvinced":9124,"Ġghost":9125,"elli":9126,"\":":9127,"oviÄĩ":9128,"ĠHonor":9129,"ĠAlliance":9130,"Ġvalid":9131,"Ġriding":9132,"ĠMuhammad":9133,"Ġdiscussed":9134,"ĠMack":9135,"ĠLocal":9136,"ĠYan":9137,"Ġtribe":9138,"ĠCleveland":9139,"ĠHit":9140,"struction":9141,"ĠLiverpool":9142,"Ġcrown":9143,"Ġrestrict":9144,"force":9145,"ĠUkrain":9146,"Ġwhereas":9147,"Ġrandom":9148,"Ġda":9149,"ĠHispan":9150,"ĠAdmiral":9151,"ĠLast":9152,"ĠPortugal":9153,"Ġidentify":9154,"Ġfest":9155,"Ġouter":9156,"uable":9157,"Ġinvolvement":9158,"ĠColomb":9159,"Ã«":9160,"ĠJohann":9161,"ĠMort":9162,"General":9163,"udes":9164,"ĠCher":9165,"Ġminimum":9166,"ĠVienna":9167,"Ġembr":9168,"lon":9169,"Your":9170,"ĠNav":9171,"Ġimagine":9172,"Ġdescription":9173,"Ġinformed":9174,"Ġlock":9175,"ĠThompson":9176,"Ġdiscovery":9177,"ĠFriend":9178,"ĠStewart":9179,"Ġexpensive":9180,"Ġcited":9181,"Ġkissed":9182,"ĠFA":9183,"ultan":9184,"itate":9185,"igs":9186,"rient":9187,"ĠBesides":9188,"ĠHeritage":9189,"mus":9190,"merce":9191,"Ġgrav":9192,"ĠSenator":9193,"Ġboats":9194,"atern":9195,"ĠAndy":9196,"Ġcrash":9197,"abs":9198,"Ġdemanded":9199,"arma":9200,"ĠStudios":9201,"Ġcompletion":9202,"Ġscientists":9203,"Ġmanif":9204,"iya":9205,"eded":9206,"Ġarc":9207,"Ġsymp":9208,"Ġreven":9209,"agger":9210,"Ġcrack":9211,"Ġdrunk":9212,"Ġsav":9213,"ĠMetropolitan":9214,"ĠChristopher":9215,"ĠAdams":9216,"En":9217,"82":9218,"ĠLegislative":9219,"Ġalleg":9220,"Ġ1907":9221,"Ġopportunities":9222,"Ġwound":9223,"seud":9224,"ĠAT":9225,"Ġmemorial":9226,"LC":9227,"Ġextreme":9228,"rets":9229,"ĠDefense":9230,"ĠNelson":9231,"Ġcolors":9232,"ĠJose":9233,"ĠMalaysia":9234,"ctic":9235,"Ġoutput":9236,"Ġacknowled":9237,"Ġcreative":9238,"OC":9239,"ĠYug":9240,"adows":9241,"Ġillness":9242,"Ġadults":9243,"atin":9244,"Ġfrequency":9245,"Ġexecuted":9246,"ĠVoiv":9247,"ĠKir":9248,"ĠMarshall":9249,"Ġleather":9250,"Ġstrict":9251,"ĠRight":9252,"Ġgraduating":9253,"Ġpink":9254,"ĠPas":9255,"Ġcir":9256,"Ġartistic":9257,"Ġyard":9258,"ĠIndonesia":9259,"Ġ43":9260,"Ġwars":9261,"ĠKu":9262,"Ġdeparture":9263,"Ġsurgery":9264,"Ġargument":9265,"master":9266,"Ġequipped":9267,"Ġsid":9268,"Ġsleeping":9269,"ĠUpper":9270,"ĠLower":9271,"Ġyield":9272,"Ġanywhere":9273,"Ġnegoti":9274,"appy":9275,"Ġdecline":9276,"iege":9277,"Ġ[[":9278,"Ġcircuit":9279,"Ġ1909":9280,"Ġinsurance":9281,"rov":9282,"Ġstable":9283,"Ġboundary":9284,"dy":9285,"Ġmal":9286,"Ġsmart":9287,"At":9288,"Ġdebt":9289,"Ġsimpl":9290,"ĠPubl":9291,"ĠBuff":9292,"ĠGlobal":9293,"avan":9294,"Ġqualifying":9295,"Ġannually":9296,"ials":9297,"chi":9298,"Ġroots":9299,"Ġeliminated":9300,"Ġmart":9301,"Ġmodified":9302,"Ġfilmed":9303,"Ġcow":9304,"inted":9305,"bishop":9306,"ĠâĢ¢":9307,"eps":9308,"cop":9309,"ĠShan":9310,"Ġnewspapers":9311,"Ġemotion":9312,"Ġ52":9313,"Ġcompeting":9314,"Ġswimming":9315,"ĠRio":9316,"PC":9317,"uated":9318,"Ġanch":9319,"hou":9320,"ĠJosÃ©":9321,"Ġlists":9322,"ographical":9323,"olo":9324,"angle":9325,"Ġguitarist":9326,"Ġescaped":9327,"ĠBarry":9328,"ĠSac":9329,"Ġtaste":9330,"Ġsuperior":9331,"Thank":9332,"Ġwire":9333,"Ġmanufacturing":9334,"mingham":9335,"Ġtip":9336,"Ġproport":9337,"aws":9338,"pat":9339,"ĠBangl":9340,"stance":9341,"bach":9342,"issa":9343,"Ġphenomen":9344,"Ġseriously":9345,"Ġcleared":9346,"ID":9347,"lines":9348,"ĠDallas":9349,"odeship":9350,"Ġproud":9351,"ĠMarket":9352,"ĠConvention":9353,"Ġrecommended":9354,"ĠMaj":9355,"Ġposted":9356,"Ġinqu":9357,"gro":9358,"ĠVe":9359,"Ġremainder":9360,"Pr":9361,"Ġmaintenance":9362,"Ġdying":9363,"74":9364,"Ġenthus":9365,"Ġshares":9366,"ĠLib":9367,"pled":9368,"Ġrecovered":9369,"Ġemotions":9370,"Ġcul":9371,"ĠBed":9372,"Ġcabinet":9373,"ĠBaltimore":9374,"ĠMuslims":9375,"Ġmonument":9376,"ĠKnight":9377,"Ġbon":9378,"Ġrecordings":9379,"53":9380,"Ġbom":9381,"aping":9382,"Ġwides":9383,"onder":9384,"ĠBrothers":9385,"Ġstatue":9386,"Ġblow":9387,"ideo":9388,"Ġsuspect":9389,"Ġmounted":9390,"Ġceiling":9391,"ĠCra":9392,"Ġartillery":9393,"71":9394,"Ġguests":9395,"Ġscrap":9396,"51":9397,"Ġexternal":9398,"ĠHend":9399,"-+-+":9400,"Ġbull":9401,"Ġtalent":9402,"Ġhunting":9403,"ogs":9404,"Am":9405,"Ġdesigner":9406,"Ġcollaps":9407,"Ġabuse":9408,"54":9409,"ĠBapt":9410,"ĠCer":9411,"Ġprinted":9412,"apolis":9413,"EA":9414,"ĠVoivodeship":9415,"Jo":9416,"Ġmoder":9417,"ugu":9418,"ifting":9419,"ĠCathedral":9420,"Ġwished":9421,"Ġcomfortable":9422,"ĠMicro":9423,"ayan":9424,"Then":9425,"wall":9426,"anean":9427,"Ġreco":9428,"graduate":9429,"Ġvic":9430,"gow":9431,"ĠNash":9432,"ĠHorn":9433,"estone":9434,"pent":9435,"geon":9436,"mo":9437,"fortunately":9438,"Ġjurisd":9439,"annels":9440,"Ġinvent":9441,"ĠNazi":9442,"SS":9443,"igible":9444,"oga":9445,"...\"":9446,"Ġmissions":9447,"ĠConservative":9448,"ĠRain":9449,"Ġviolent":9450,"Ġtoss":9451,"Ġyoungest":9452,"person":9453,"Ġshopping":9454,"Ġdistinguished":9455,"ĠNort":9456,"Ġpenalty":9457,"ĠOrthodox":9458,"lie":9459,"Ġbehalf":9460,"Ġreprod":9461,"Ġdear":9462,"Ġbelt":9463,"Ã´":9464,"Ġ1904":9465,"sed":9466,"stic":9467,"utely":9468,"ÃŃn":9469,"FM":9470,"%,":9471,"ĠHunter":9472,"Ġexcess":9473,"ĠEventually":9474,"ni":9475,"olen":9476,"Ġprinciples":9477,"Ġpatrol":9478,"leased":9479,"ĠHungarian":9480,"ĠNep":9481,"ĠJonathan":9482,"Ġexceed":9483,"pread":9484,"ĠRound":9485,"asha":9486,"Ġfemin":9487,"ĠChand":9488,"ĠCrit":9489,"Ġrecre":9490,"asa":9491,"keeper":9492,"orer":9493,"Ġexercise":9494,"Ġdeaths":9495,"fa":9496,"Ġwrites":9497,"ĠWright":9498,"Ġconclusion":9499,"ĠBenj":9500,"ĠImp":9501,"Ġenemies":9502,"Ġtex":9503,"ĠEnergy":9504,"Ġbreat":9505,"ovo":9506,"ĠSchools":9507,"ĠGraham":9508,"Ġindicate":9509,"ĠAld":9510,"ĠOriginally":9511,"----":9512,"ĠFleet":9513,"56":9514,"forcement":9515,"ashes":9516,"ĠCry":9517,"ibilities":9518,"ĠHungary":9519,"ĠConfeder":9520,"ĠKnow":9521,"ĠDh":9522,"ĠTower":9523,"ielder":9524,"Ġ51":9525,"ĠOpera":9526,"Ġrit":9527,"Ġeighth":9528,"Ġbench":9529,"teenth":9530,"Ġobviously":9531,"Ġviewed":9532,"Ġdisplayed":9533,"ĠInvest":9534,"Ġrarely":9535,"Ġamateur":9536,"ĠChamber":9537,"Ġbreakfast":9538,"ĠNorman":9539,"Ġlatest":9540,"Ġmedals":9541,"ivation":9542,"Ġ46":9543,"Ġpersu":9544,"idges":9545,"ĠÃī":9546,"Ġessential":9547,"OU":9548,"GB":9549,"ĠHope":9550,"Ġtrading":9551,"ĠAround":9552,"ĠEnvironment":9553,"Ġhabitat":9554,"isition":9555,"Ġgray":9556,"orous":9557,"eh":9558,"Ġemployment":9559,"ĠStanley":9560,"ĠDyn":9561,"ĠFried":9562,"ĠKo":9563,"Ġpod":9564,"Ġpossession":9565,"Ġinstruct":9566,"Ġfinals":9567,"Ġtent":9568,"Ġdetailed":9569,"emed":9570,"ĠSeb":9571,"ĠRand":9572,"ĠLith":9573,"ĠShortly":9574,"Ġcontroversial":9575,"Ġspaces":9576,"Ġgreet":9577,"Âłmillion":9578,"iration":9579,"ĠAuthority":9580,"ospel":9581,"arted":9582,"sec":9583,"Ġworn":9584,"Ġedited":9585,"acht":9586,"Ġbell":9587,"IM":9588,"umped":9589,"ologists":9590,"Ġafford":9591,"ĠHom":9592,"aments":9593,"onz":9594,"cient":9595,"ĠHindu":9596,"Ġsoundtrack":9597,"ĠDak":9598,"Ġcollections":9599,"ĠPun":9600,"tra":9601,"Ġcongreg":9602,"ivate":9603,"EL":9604,"ĠBirmingham":9605,"urse":9606,"Ġretreat":9607,"Ġsuspended":9608,"rat":9609,"Ġrig":9610,"ĠLiter":9611,"ĠGill":9612,"ĠAssist":9613,"Ġdraf":9614,"Ġmarketing":9615,"Ġ1870":9616,"Ġju":9617,"Ġperiods":9618,"ĠRobinson":9619,"Ġcock":9620,"Ġmoral":9621,"ĠGray":9622,"Ġcabin":9623,"Ġarrive":9624,"rena":9625,"Ġprofit":9626,"mi":9627,"Ġsimultane":9628,"Ġdomain":9629,"bound":9630,"Ġbeet":9631,"mat":9632,"Ġversus":9633,"Ġoverw":9634,"Ġalien":9635,"Ġbone":9636,"Ġvul":9637,"finals":9638,"Ġknocked":9639,"Ġshadow":9640,"acts":9641,"Ġgovernments":9642,"ront":9643,"Ġ1901":9644,"ĠIndians":9645,"Ġsne":9646,"Ġrecognize":9647,"iciency":9648,"ĠMurray":9649,"gie":9650,"Ġdogs":9651,"ĠChampions":9652,"ĠPlace":9653,"Ġcable":9654,"abel":9655,"Ġhiding":9656,"ointed":9657,"Ġ1902":9658,"Ġswall":9659,"ĠChallen":9660,"oda":9661,"iar":9662,"Ġcorporate":9663,"Ġtempor":9664,"Ġeggs":9665,"Ġcharacteristics":9666,"\"\"":9667,"len":9668,"Ġclaiming":9669,"ĠStev":9670,"Ġparticipation":9671,"ÅĦ":9672,"ĠChel":9673,"ĠGlas":9674,"Ġtiss":9675,"Ġadmin":9676,"Ð´":9677,"Ġatmosphere":9678,"addy":9679,"ĠYugosl":9680,"Ġintersection":9681,"Ġsmiling":9682,"ĠVeg":9683,"usc":9684,"ĠMars":9685,"Ġash":9686,"ĠInformation":9687,"Ġreaches":9688,"ĠFinland":9689,"73":9690,"ĠHas":9691,"ĠGuy":9692,"Ġattending":9693,"otype":9694,"ĠAN":9695,"ĠBroadway":9696,"Ġranks":9697,"ĠKa":9698,"Ðº":9699,"Ġlongest":9700,"ĠVincent":9701,"ĠAthletic":9702,"Ġproof":9703,"ĠBenn":9704,"ĠFall":9705,"Ġnomination":9706,"ĠMetro":9707,"Ġintense":9708,"ruit":9709,"Ġadm":9710,"ĠUkrainian":9711,"ĠPatri":9712,"Ġconcentration":9713,"tes":9714,"irts":9715,"din":9716,"archy":9717,"osph":9718,"ĠBeg":9719,"Ġsatellite":9720,"oples":9721,"58":9722,"rose":9723,"ĠStu":9724,"ĠSoph":9725,"Ġslipped":9726,"Ġcolony":9727,"Ġtotally":9728,"Ġtribes":9729,"ĠSerge":9730,"Ġcounties":9731,"ĠPittsburgh":9732,"Ġcontroversy":9733,"Ġleaf":9734,"stairs":9735,"ĠLeban":9736,"Ġsegment":9737,"onian":9738,"Ġorange":9739,"à¥":9740,"Ġaggreg":9741,"Ġsecured":9742,"Ġceased":9743,"Ġdefinitely":9744,"listed":9745,"Ġsubsidi":9746,"Ġresolution":9747,"Ġwidespread":9748,"Ġvideos":9749,"Ġlift":9750,"ĠVic":9751,"Ġ1903":9752,"Ġlimits":9753,"Ġfoss":9754,"ĠCarm":9755,"Ġgay":9756,"Ġinfantry":9757,"Ġsoccer":9758,"Ġportrayed":9759,"ĠVictorian":9760,"ĠDom":9761,"ĠBoys":9762,"Ġextract":9763,"Ġfrequent":9764,"Ġdub":9765,"Ġconj":9766,"Ġasleep":9767,"ĠOrle":9768,"ĠGermans":9769,"arrass":9770,"Ġruling":9771,"fare":9772,"iterr":9773,"ĠEgyptian":9774,"Ġbid":9775,"ĠCarlos":9776,"Ġdat":9777,"ĠChampion":9778,"mpt":9779,"Ġdirectors":9780,"Ġpartially":9781,"ĠBernard":9782,"Ġdefending":9783,"ĠAP":9784,"ĠClar":9785,"othy":9786,"Ġromantic":9787,"phy":9788,"www":9789,"ĠQur":9790,"ĠEmma":9791,"Ġelevation":9792,"ĠGun":9793,"Ġgenre":9794,"ouses":9795,"Gr":9796,"Ġanticip":9797,"Ġris":9798,"Ġgal":9799,"Ġcanc":9800,"Ġcried":9801,"Ġcargo":9802,"Ġunn":9803,"ĠKate":9804,"Ġchapel":9805,"Ġdonated":9806,"Ġsalt":9807,"ĠEmer":9808,"Ġrepair":9809,"Ġdistract":9810,"zer":9811,"Qu":9812,"Ñĸ":9813,"Ġpopulations":9814,"Ġbreathing":9815,"Ġregime":9816,"Ġcareful":9817,"Ġtransportation":9818,"ĠBrooklyn":9819,"Ġstruggled":9820,"Ġfasc":9821,"annah":9822,"otes":9823,"usk":9824,"agers":9825,"Ġspin":9826,"ĠEqu":9827,"Ġhelps":9828,"terior":9829,"Ġreward":9830,"ontin":9831,"Ġtool":9832,"98":9833,"Ġpartners":9834,"Ġ120":9835,"ricted":9836,"Ġunlike":9837,"Ġhelicop":9838,"anga":9839,"ifies":9840,"ĠVenez":9841,"Ġnetworks":9842,"Ġbelieves":9843,"ĠGrey":9844,"Ġmarks":9845,"Ãł":9846,"Ġraising":9847,"itarian":9848,"Ġtub":9849,"Ġcenters":9850,"ĠShel":9851,"ĠPsych":9852,"Ġshaking":9853,"Ġresid":9854,"bled":9855,"Ġelectoral":9856,"Ġagencies":9857,"ĠMason":9858,"ĠNothing":9859,"Ġsubstantial":9860,"HS":9861,"ĠBenjamin":9862,"Ġbutter":9863,"Ġunderw":9864,"Ġloose":9865,"acles":9866,"ricane":9867,"Ġsupports":9868,"Ġstronger":9869,"Ġperspective":9870,"Ad":9871,"ailand":9872,"Ġslave":9873,"Of":9874,"Ġcig":9875,"active":9876,"Ġphoto":9877,"ĠConstant":9878,"ĠFace":9879,"mund":9880,"Ġprinciple":9881,"Ġpatterns":9882,"Ġcreatures":9883,"....":9884,"inging":9885,"Ġlaughing":9886,"Ġassociate":9887,"ĠIvan":9888,"ĠNotable":9889,"eria":9890,"ĠParker":9891,"Ġdancing":9892,"ĠArkansas":9893,"Ġpartly":9894,"ĠNathan":9895,"Ġpreserved":9896,"Ġslid":9897,"ĠSeven":9898,"ĠZe":9899,"Ġcommemor":9900,"ĠProtest":9901,"Ġpretend":9902,"Ġadvertising":9903,"97":9904,"apse":9905,"ĠAqu":9906,"ĠMind":9907,"Ġplacing":9908,"ourse":9909,"Ġyelled":9910,"orious":9911,"Ġfate":9912,"rock":9913,"08":9914,"ĠOrleans":9915,"Ġfee":9916,"Ġaudio":9917,"Ġattributed":9918,"lock":9919,"ĠAgricult":9920,"Mus":9921,"Ġdesert":9922,"Ġguarant":9923,"Ġpreferred":9924,"Ġpercentage":9925,"arth":9926,"ationally":9927,"ported":9928,"Ġshoes":9929,"Ġknee":9930,"Ġsang":9931,"ĠGriff":9932,"Ġthir":9933,"Ġgear":9934,"96":9935,"Ġcorrid":9936,"Ġthemes":9937,"Ġtwin":9938,"ensis":9939,"Ġsupporters":9940,"ĠNam":9941,"Ġignored":9942,"Ġcann":9943,"sa":9944,"To":9945,"Ġgri":9946,"ĠTHE":9947,"soft":9948,"ensively":9949,"Ġworksh":9950,"andal":9951,"Ġdragon":9952,"Ġcontinu":9953,"Ġideal":9954,"iop":9955,"Ġexit":9956,"Ġpursue":9957,"Ġdismissed":9958,"occ":9959,"Ġwanting":9960,"Ġexcited":9961,"92":9962,"Ġexcellent":9963,"Ġsolar":9964,"Ġlieutenant":9965,"Ġrepresentation":9966,"ĠWindows":9967,"Ġexplo":9968,"ĠContin":9969,"Ġgotten":9970,"Ġmilk":9971,"Ġchannels":9972,"elta":9973,"such":9974,"ĠEnt":9975,"ĠMuch":9976,"ĠMethod":9977,"Ġslaves":9978,"Ġcompilation":9979,"Ġpractical":9980,"ĠAR":9981,"Ġchampionships":9982,"ĠNar":9983,"eta":9984,"ĠSusan":9985,"ĠWarren":9986,"Ġdominated":9987,"Ġprosp":9988,"ĠCharlotte":9989,"Ġrushed":9990,"Ġabroad":9991,"Ġdescent":9992,"ĠPA":9993,"Ġcoinc":9994,"bean":9995,"Ġcompetitive":9996,"Ġhighlight":9997,"Ġdiameter":9998,"\"-":9999,"Ġmood":10000,"olve":10001,"Ġinfrastructure":10002,"ipper":10003,"Ġconfusion":10004,"ĠMitchell":10005,"!âĢĻ":10006,"Ġassum":10007,"arting":10008,"struct":10009,"inea":10010,"ĠLud":10011,"Ġprocessing":10012,"ictions":10013,"irds":10014,"Ġrepresentatives":10015,"style":10016,"Ġfuneral":10017,"Ġstops":10018,"GA":10019,"ĠPad":10020,"ĠTraining":10021,"onds":10022,"iterranean":10023,"Ġprepare":10024,"ĠMedicine":10025,"casting":10026,"Ġhills":10027,"Ġconvention":10028,"ĠUtah":10029,"asi":10030,"ouver":10031,"Ġagriculture":10032,"Ġmachines":10033,"Ġslam":10034,"ĠCarib":10035,"Âłk":10036,"Ġclimbed":10037,"ancell":10038,"origin":10039,"Ġerected":10040,"Ġourselves":10041,"ĠGa":10042,"Ġrequested":10043,"ĠHebrew":10044,"ĠIN":10045,"ĠMi":10046,"Ġoverwhel":10047,"hour":10048,"ulum":10049,"Ġdozen":10050,"ĠRico":10051,"Ġvenue":10052,"cm":10053,"ĠNicholas":10054,"Î±":10055,"Ġcharity":10056,"OT":10057,"âĢľ":10058,"closed":10059,"Ġparticipants":10060,"Ġuncertain":10061,"Ġdecides":10062,"Ġsurve":10063,"Ġborders":10064,"Ġdirt":10065,"oca":10066,"ĠBlood":10067,"ĠMong":10068,"Ġdefence":10069,"ĠNext":10070,"âĢĻ.":10071,"Ġcategories":10072,"Ġapolog":10073,"Ġpredomin":10074,"ĠExt":10075,"Ġoptions":10076,"ĠArchitect":10077,"ĠBobby":10078,"Ġfictional":10079,"aceae":10080,"Ġarchitectural":10081,"Ġrecru":10082,"Ġpoison":10083,"lee":10084,"Ġconcerts":10085,"tering":10086,"Ġcontribution":10087,"ĠTan":10088,"ĠThailand":10089,"IL":10090,"Ġproducers":10091,"Ġelectricity":10092,"Ġcondem":10093,"ĠJerem":10094,"Ġtrend":10095,"ĠDanny":10096,"Ġopponent":10097,"Ġinstrumental":10098,"Ġstim":10099,"Ġanswers":10100,"itting":10101,"Ġnoble":10102,"Ġadaptation":10103,"Ġsuitable":10104,"ĠRichmond":10105,"Ġunw":10106,"ĠGener":10107,"ĠFood":10108,"uda":10109,"ĠDead":10110,"ĠDub":10111,"ĠNBC":10112,"Ġwonderful":10113,"ĠDance":10114,"Ġinterrupted":10115,"iph":10116,"ulu":10117,"onomy":10118,"iÃ³n":10119,"ĠAmy":10120,"ĠWrest":10121,"Ġwis":10122,"Ġembarrass":10123,"Ġreconstr":10124,"ĠWayne":10125,"Br":10126,"Ġconcerning":10127,"Ġfriendship":10128,"ĠEvans":10129,"Ġwealthy":10130,"lessly":10131,"Ġthrown":10132,"ĠStory":10133,"ivia":10134,"ĠWW":10135,"icle":10136,"ĠTrade":10137,"ĠSimilar":10138,"Ġvoting":10139,"ĠNi":10140,"irates":10141,"ĠCapital":10142,"Ġpoems":10143,"ĠPy":10144,"ĠSid":10145,"Ġattempting":10146,"Ġparliamentary":10147,"Ġproduces":10148,"Ġreveals":10149,"Ġletting":10150,"Ġbread":10151,"Ġmerchant":10152,"ygen":10153,"Ġvoices":10154,"Ġconfidence":10155,"Ġwoods":10156,"Ġdistant":10157,"ĠGabriel":10158,"ĠCBS":10159,"ashi":10160,"yler":10161,"Con":10162,"net":10163,"Ġcontested":10164,"ĠRomania":10165,"Ġrecalled":10166,"ĠPhoen":10167,"Ġward":10168,"Ġelectrical":10169,"Ġconfer":10170,"Ġscared":10171,"ĠHispanic":10172,"ĠDerby":10173,"nia":10174,"ĠLore":10175,"ĠCanal":10176,"ĠGirls":10177,"arks":10178,"Ġpace":10179,"opes":10180,"Ġassets":10181,"94":10182,"words":10183,"orporated":10184,"Ġranking":10185,"Ġkidn":10186,"ĠTig":10187,"Ġpublicly":10188,"ĠAfghanistan":10189,"ĠBra":10190,"ĠBasketball":10191,"Ġconservative":10192,"Ġratio":10193,"Ġsustain":10194,"Ġcutting":10195,"05":10196,"ĠMovement":10197,"Ġelectron":10198,"Ġurg":10199,"ivan":10200,"Ġbrings":10201,"Ġisolated":10202,"Ġcruc":10203,"ĠOliver":10204,"mentary":10205,"ĠPortland":10206,"ĠSS":10207,"fish":10208,"Ġtum":10209,"Ġfacil":10210,"Ġmathematics":10211,"idal":10212,"illo":10213,"Ġliberal":10214,"Ġels":10215,"Ġplatforms":10216,"07":10217,"Ġthinks":10218,"Ġterminal":10219,"mphony":10220,"Ġkicked":10221,"ĠThor":10222,"Ġfighter":10223,"agre":10224,"ancouver":10225,"93":10226,"Ġpredecess":10227,"Ġawareness":10228,"Ġluck":10229,"Ġhorn":10230,"ĠAI":10231,"archers":10232,"ĠFreyja":10233,"ĠLuther":10234,"istical":10235,"Ġje":10236,"Ġhook":10237,"esty":10238,"ĠFitz":10239,"à®":10240,"ĠVenezuel":10241,"dist":10242,"ĠMediterranean":10243,"Ġclassification":10244,"nda":10245,"Ġtoured":10246,"Ġnaked":10247,"Ġbreast":10248,"Ġparam":10249,"Ġtransmission":10250,"ĠIns":10251,"Ġfarmers":10252,"Ġbacter":10253,"ĠMak":10254,"ĠJerry":10255,"pm":10256,"iri":10257,"Ġ1898":10258,"ĠBangladesh":10259,"unc":10260,"ĠÙ":10261,"ĠUE":10262,"ĠAbraham":10263,"high":10264,"Ġconsidering":10265,"fam":10266,"ĠKon":10267,"Ġsharing":10268,"Ġelsewhere":10269,"Ġcommunications":10270,"oven":10271,"ĠTerr":10272,"Ġtrick":10273,"Ġcomponent":10274,"Ġdemolished":10275,"Ġreleases":10276,"ĠFlore":10277,"hill":10278,"Ġnearest":10279,"ĠNord":10280,"?'":10281,"Ġreception":10282,"ĠTheater":10283,"Ġhardly":10284,"ĠDJ":10285,"ĠGlasgow":10286,"Ġconven":10287,"Ġreass":10288,"Ġstyles":10289,"ĠMarcus":10290,"ĠNBA":10291,"Ġsteep":10292,"Ġgods":10293,"ulus":10294,"Ġcompens":10295,"Ġsearching":10296,"amo":10297,"ĠMall":10298,"Ġcattle":10299,"Ġlung":10300,"Ġoperational":10301,"ificial":10302,"Ġdealing":10303,"five":10304,"iper":10305,"ĠWing":10306,"Ġdual":10307,"tar":10308,"ĠMonday":10309,"Ġnut":10310,"ĠSay":10311,"Ġintegrated":10312,"fly":10313,"ĠScient":10314,"Ġcredits":10315,"OD":10316,"Ġpaying":10317,"onymous":10318,"Ġendemic":10319,"ĠRic":10320,"bul":10321,"Ġterritories":10322,"Ġcharacterized":10323,"Ġwithdrew":10324,"ĠClay":10325,"oves":10326,"ĠTreaty":10327,"ĠRest":10328,"Ġreveal":10329,"Ġinternet":10330,"ĠHarrison":10331,"Ġrelation":10332,"Ġordinary":10333,"Ġqueen":10334,"Ġresearchers":10335,"Ġindex":10336,"asted":10337,"enson":10338,"Ġmechanism":10339,"EM":10340,"Ġfunctional":10341,"azines":10342,"rated":10343,"ĠHampshire":10344,"ĠEmily":10345,"riers":10346,"pany":10347,"expected":10348,"Ġconstantly":10349,"ĠWorks":10350,"Look":10351,"ĠTogether":10352,"ĠPlease":10353,"ĠWes":10354,"Ġduo":10355,"Ġ1860":10356,"Ġinnings":10357,"TER":10358,"EP":10359,"________":10360,"ĠEveryone":10361,"Ġcrimes":10362,"ĠBelgian":10363,"Ġdelivery":10364,"Ġload":10365,"Ġremote":10366,"hattan":10367,"ĠSax":10368,"Ġmeal":10369,"Ġsugar":10370,"ĠSometimes":10371,"abet":10372,"ĠLithuan":10373,"Ġgolf":10374,"Ġinput":10375,"ĠTrophy":10376,"ĠFrances":10377,"Ġtenure":10378,"opp":10379,"Ġsuppose":10380,"Ġtexts":10381,"Ġconstitution":10382,"Ġovers":10383,"rehensive":10384,"ĠHud":10385,"Ġgonna":10386,"borne":10387,"Ġcivilian":10388,"zo":10389,"icting":10390,"Ġstaying":10391,"Ġgenetic":10392,"Dr":10393,"Ġpublisher":10394,"weet":10395,"ĠShip":10396,"Ġsentenced":10397,"ĠRachel":10398,"Ġinvolves":10399,"ĠYorkshire":10400,"ĠCase":10401,"Ġincred":10402,"gate":10403,"Ġjail":10404,"ĠPerform":10405,"ĠMans":10406,"Me":10407,"Ġchecked":10408,"isb":10409,"Ġfrowned":10410,"Ġlinks":10411,"Ġfabric":10412,"ĠVancouver":10413,"Ġconsciousness":10414,"01":10415,"ĠMes":10416,"ĠSalv":10417,"Ġviewers":10418,"ĠHelen":10419,"Ġmurdered":10420,"Ġcemetery":10421,"ĠSingles":10422,"Ġrect":10423,"Ġrifle":10424,"ĠNatural":10425,"ĠMilan":10426,"Ã¶r":10427,"endar":10428,"ĠBaker":10429,"Ġforgotten":10430,"Ġmanip":10431,"Ġsailed":10432,"otal":10433,"ĠDelhi":10434,"ijing":10435,"ĠFurthermore":10436,"Ġ54":10437,"Ġswitched":10438,"ĠFalls":10439,"Ġalarm":10440,"Ġtribut":10441,"ĠThroughout":10442,"Ġwick":10443,"Ġsurviv":10444,"Ġforehead":10445,"Ġearning":10446,"Ġages":10447,"Ġgenerated":10448,"inked":10449,"Ġvolumes":10450,"ĠFIFA":10451,"folk":10452,"ĠChem":10453,"ĠLaura":10454,"Ġsessions":10455,"Ġsponsored":10456,"Ġrebuilt":10457,"elia":10458,"ĠSign":10459,"sequently":10460,"Ġprovision":10461,"ĠTrump":10462,"ĠBooks":10463,"Ġdemonstrated":10464,"Ġstones":10465,"ĠMerc":10466,"Ġstrip":10467,"uces":10468,"ĠSad":10469,"Ġmistake":10470,"Ġsympt":10471,"Ġgrin":10472,"Ġarrangement":10473,"Ġexplains":10474,"ĠCatherine":10475,"ĠNear":10476,"izard":10477,"opal":10478,"Ġstrengthen":10479,"Ġpatron":10480,"Ġorganised":10481,"Ġreportedly":10482,"ĠAS":10483,"amework":10484,"ĠCraig":10485,"ĠRena":10486,"ĠBox":10487,"Fr":10488,"uru":10489,"Ġbadly":10490,"ĠBaptist":10491,"Ġlayer":10492,"Ġpointing":10493,"Ġrecruit":10494,"power":10495,"abi":10496,"ocation":10497,"Ġabilities":10498,"ĠTrinity":10499,"ĠKil":10500,"Ġaccord":10501,"Ġindigenous":10502,"ĠEug":10503,"Ġsanct":10504,"Ġtag":10505,"omon":10506,"eters":10507,"four":10508,"Ġfunded":10509,"Ġexperimental":10510,"Ġjudges":10511,"final":10512,"Ġbacked":10513,"Ġticket":10514,"later":10515,"reprene":10516,"Ġopponents":10517,"aton":10518,"minute":10519,"Ġincreases":10520,"Ã©n":10521,"Ġbroadcasting":10522,"ĠSomething":10523,"Ġreluct":10524,"abe":10525,"Ġfunny":10526,"acre":10527,"Ġaboard":10528,"Ġlicensed":10529,"Ġstem":10530,"onies":10531,"oba":10532,"Ġacceler":10533,"Ġbigger":10534,"ĠBristol":10535,"Ġ1899":10536,"Ġanimated":10537,"Ġrelocated":10538,"two":10539,"ĠFinnish":10540,"Ġwinds":10541,"Ġconnecting":10542,"Ġscar":10543,"ifice":10544,"Ġrunner":10545,"ĠBachelor":10546,"ÂłâĢĵ":10547,"91":10548,"ĠMotor":10549,"ĠZone":10550,"Ġfairly":10551,"Ġtravelled":10552,"Ġmechanical":10553,"Ġbones":10554,"ĠBarbara":10555,"Ġinsisted":10556,"Ġimmigrants":10557,"Ġmail":10558,"annon":10559,"Ġroot":10560,"ĠWarner":10561,"ĠAaron":10562,"span":10563,"lem":10564,"Ġdrum":10565,"fers":10566,"Ġattitude":10567,"Ġrebell":10568,"was":10569,"Ġcamps":10570,"ucks":10571,"Ġmargin":10572,"Ġtraditions":10573,"Ġ1000":10574,"Ġgrows":10575,"Ġdifficulty":10576,"ĠSC":10577,"Ġmines":10578,"Ġfollowers":10579,"Ġrecognised":10580,"Ġgirlfriend":10581,"Ġvs":10582,"iler":10583,"ĠVel":10584,"ĠPrincip":10585,"Ġgross":10586,"Ġdevoted":10587,"kee":10588,"ĠPil":10589,"Ġheir":10590,"Ġdetect":10591,"ĠCarr":10592,"ĠSean":10593,"ridge":10594,"mmet":10595,"Ġannoy":10596,"Ġterrible":10597,"Ġdeparted":10598,"ĠRabb":10599,"Ġmac":10600,"Ġnat":10601,"Ġ53":10602,"Ġsynthes":10603,"igins":10604,"Ġdemands":10605,"ĠLimited":10606,"onde":10607,"Ġidentical":10608,"Ġexplanation":10609,"Ġconnections":10610,"Ġlowest":10611,"Ġjew":10612,"ĠBot":10613,"rawn":10614,"Ġbelongs":10615,"ĠFellow":10616,"Ġfitted":10617,"Ġovert":10618,"ration":10619,"Col":10620,"endment":10621,"Ġscreamed":10622,"ĠSeason":10623,"Ġearthqu":10624,"Ġbutton":10625,"ĠRal":10626,"ĠOrange":10627,"obi":10628,"ĠWord":10629,"isting":10630,"ĠCad":10631,"ĠCricket":10632,"Ġblade":10633,"Ġdiver":10634,"etta":10635,"Ġdeployed":10636,"Ġdeliber":10637,"2000":10638,"Ġstun":10639,"Ġtraveling":10640,"ĠEddie":10641,"Ġbelonging":10642,"ĠGmina":10643,"ĠKan":10644,"Ġadjust":10645,"Ġarriving":10646,"ĠKay":10647,"Ġfiles":10648,"Ġradical":10649,"Ġjunction":10650,"Ġpuzz":10651,"uki":10652,"ĠRav":10653,"Ġdiverse":10654,"achment":10655,"ĠSaud":10656,"Ġimplemented":10657,"roid":10658,"ayer":10659,"Ġfucking":10660,"ĠPete":10661,"urers":10662,"ĠEU":10663,"ĠLarry":10664,"Ġefficient":10665,"Ġdepression":10666,"Ġtimber":10667,"ĠMadrid":10668,"via":10669,"ĠPlayer":10670,"uper":10671,"ĠNation":10672,"Ġsuspected":10673,"eness":10674,"aha":10675,"Ġcontinuous":10676,"Ġclar":10677,"Ġmagazines":10678,"ĠDraft":10679,"ĠFine":10680,"ĠManhattan":10681,"ĠUEFA":10682,"Ġsettlers":10683,"ĠKeith":10684,"ĠArabic":10685,"uber":10686,"ĠVlad":10687,"Ġreflected":10688,"Ġsubt":10689,"ĠBey":10690,"Ġdism":10691,"ĠPierre":10692,"scale":10693,"Ġinterpretation":10694,"Ġ~":10695,"Ġbusinessman":10696,"Ġathletes":10697,"Ġrestoration":10698,"ĠClare":10699,"Ġindicates":10700,"ĠTerry":10701,"zi":10702,"ĠSteven":10703,"Ġaffair":10704,"Ġevac":10705,"agar":10706,"Ġangle":10707,"Ġwider":10708,"erbai":10709,"Ġorganis":10710,"ĠTommy":10711,"Ġsignificance":10712,"scar":10713,"ĠClinton":10714,"ĠFerr":10715,"Ġdiet":10716,"Ġinterpre":10717,"Ġ250":10718,"Ġexpand":10719,"ĠKel":10720,"Ġboundaries":10721,"Ġongoing":10722,"cribed":10723,"Ġshops":10724,"Ġdisband":10725,"Ġ1896":10726,"Ġhoused":10727,"Ġcraft":10728,"ĠDefence":10729,"Ġgrinned":10730,"Ġanalog":10731,"ĠMaine":10732,"ĠRomanian":10733,"Ġestablishing":10734,"Ġprices":10735,"OL":10736,"Ġsnapped":10737,"ĠCome":10738,"Ġcompleting":10739,"ĠBomb":10740,"Ġchronic":10741,"Ġventure":10742,"Ġlabour":10743,"06":10744,"ĠInitially":10745,"Ġrevenue":10746,"Ġbeings":10747,"xual":10748,"Ġphotos":10749,"Ġsuburb":10750,"actor":10751,"Ġdece":10752,"Ġprest":10753,"ĠLanka":10754,"Ġsweat":10755,"olar":10756,"Ġsoftly":10757,"ĠVas":10758,"Ġexclusively":10759,"Ġforcing":10760,"iev":10761,"front":10762,"BM":10763,"making":10764,"ĠApple":10765,"Ġperfectly":10766,"Ġvoters":10767,"Ġ56":10768,"ixed":10769,"Ġphysics":10770,"ĠKum":10771,"ĠStudents":10772,"Ġstair":10773,"ieth":10774,"Ġ1895":10775,"Ġeldest":10776,"Ġwondering":10777,"Ġaffiliated":10778,"Ġdamn":10779,"stad":10780,"Ġninth":10781,"atched":10782,"Ġconce":10783,"Ġrated":10784,"away":10785,"Ġlots":10786,"angular":10787,"ĠCart":10788,"Ġbiological":10789,"ĠHig":10790,"Ġrhythm":10791,"Ġclassroom":10792,"Ġinitiated":10793,"ephew":10794,"ims":10795,"care":10796,"ean":10797,"Ġphrase":10798,"icken":10799,"ĠObs":10800,"ĠChristianity":10801,"ouch":10802,"nan":10803,"ĠBert":10804,"ĠIce":10805,"Ġvaluable":10806,"Ġgrace":10807,"ĠTol":10808,"Maybe":10809,"Ġscen":10810,"Ġsheep":10811,"ĠCaribbean":10812,"Ġalliance":10813,"Ġinstant":10814,"ĠAdela":10815,"Ġpremiere":10816,"Ġhers":10817,"Ġinitiative":10818,"eras":10819,"Ġshower":10820,"Ġdrafted":10821,"PR":10822,"ĠArena":10823,"ortion":10824,"Ġwelcome":10825,"Ġtraded":10826,"nik":10827,"Ġho":10828,"ĠTak":10829,"Ġfigured":10830,"zes":10831,"inos":10832,"igo":10833,"Ġshouldn":10834,"Ġdrivers":10835,"Ġfier":10836,"Ġ1897":10837,"Ġbars":10838,"castle":10839,"Ġpersonally":10840,"ĠKrist":10841,"sal":10842,"ĠVerm":10843,"berry":10844,"aran":10845,"Ġexcav":10846,"Ġtanks":10847,"Ġsubstitute":10848,"Ġlocally":10849,"Ġministry":10850,"Ġvibr":10851,"Ġphotographs":10852,"ĠEconomic":10853,"ĠSection":10854,"Ġune":10855,"Ġassisted":10856,"Ġjury":10857,"ĠBeijing":10858,"ĠComple":10859,"Ġdominant":10860,"Ġoblig":10861,"Ġevolved":10862,"free":10863,"ĠComb":10864,"gorith":10865,"Ġpreparation":10866,"Ġnest":10867,"Ġfundamental":10868,"Ġinaugural":10869,"ĠSyria":10870,"ĠOrganization":10871,"ĠJun":10872,"Ġpregnant":10873,"Mr":10874,"Ġfocuses":10875,"ĠJoy":10876,"Ġexch":10877,"ĠSteel":10878,"ĠJama":10879,"ĠĠĠĠĠ":10880,"elected":10881,"ĠLen":10882,"ĠFreedom":10883,"ierra":10884,"Ġpunishment":10885,"ĠTib":10886,"ĠCob":10887,"ĠCommunications":10888,"Ġscholarship":10889,"Ġgrip":10890,"300":10891,"Ġqualify":10892,"bie":10893,"Ġmini":10894,"ĠGran":10895,"aders":10896,"Ġrolling":10897,"Ġrespective":10898,"Ġconfront":10899,"ingham":10900,"ĠAttorney":10901,"Ġrever":10902,"Ġoperator":10903,"Ġtrials":10904,"ĠJen":10905,"Âłcm":10906,"Ah":10907,"Ġconfident":10908,"Ġol":10909,"ĠHem":10910,"Ġdispute":10911,"zant":10912,"Ġtalks":10913,"Ġregulations":10914,"ĠWang":10915,"Ġstrategic":10916,"Ab":10917,"Ġpropag":10918,"Ġerror":10919,"Ġties":10920,"ĠAdvent":10921,"Ġye":10922,"ĠHawaii":10923,"ĠAzerbai":10924,"Ġtreaty":10925,"Ġhallway":10926,"elfare":10927,"Ġskill":10928,"leb":10929,"arry":10930,"ĠSerbian":10931,"Ġwaist":10932,"Ġprince":10933,"ĠFif":10934,"Ġreply":10935,"ĠPersian":10936,"ĠGreater":10937,"Ġpushing":10938,"Ġresumed":10939,"Ġcompound":10940,"Ġreporter":10941,"Ġthereafter":10942,"hum":10943,"ĠIC":10944,"Ġtouring":10945,"ĠTurner":10946,"Ġtaxes":10947,"Ġimperial":10948,"arus":10949,"ĠPruss":10950,"West":10951,"afe":10952,"Ġunsuccessful":10953,"Ġhoney":10954,"Ġlocality":10955,"Ġfright":10956,"ĠWed":10957,"Ġlowered":10958,"Ġsubmitted":10959,"Ġsubsidiary":10960,"ĠSerbia":10961,"ĠCreat":10962,"ĠLad":10963,"fielder":10964,"ĠWor":10965,"ĠLucas":10966,"Ġcomments":10967,"ĠLisa":10968,"ĠKirk":10969,"Ġpleased":10970,"Ġaccompany":10971,"Ġconservation":10972,"ĠConstruction":10973,"ĠCe":10974,"EE":10975,"anim":10976,"Ġprovinces":10977,"omic":10978,"ĠMembers":10979,"Ġskull":10980,"ĠAthletics":10981,"ixon":10982,"Ġemperor":10983,"ĠRecord":10984,"Ġtemperatures":10985,"ĠCulture":10986,"Ġgap":10987,"Ġnom":10988,"Ġchallenges":10989,"Ġproperly":10990,"Ġlifetime":10991,"Ġhug":10992,"ĠNigeria":10993,"Ġvulner":10994,"Ġborough":10995,"ĠLeo":10996,"Ġminority":10997,"IR":10998,"Ġnam":10999,"Ġcream":11000,"Ġbutt":11001,"ĠYears":11002,"Ġserial":11003,"ĠGrade":11004,"Ġvel":11005,"ĠGlen":11006,"Pro":11007,"etch":11008,"yright":11009,"ĠBranch":11010,"ĠPhoenix":11011,"04":11012,"ĠSebast":11013,"Ġtape":11014,"anche":11015,"Ġsuffer":11016,"icity":11017,"Ġsigh":11018,"iors":11019,"ĠLatino":11020,"ĠNHL":11021,"Ġnights":11022,"ĠSmall":11023,"pre":11024,"Ġdisappear":11025,"Ġneutral":11026,"ĠSultan":11027,"Ġ1893":11028,"Ġinspiration":11029,"Ġmos":11030,"ĠĠĠĠĠĠĠĠĠĠĠĠĠĠĠĠ":11031,"eping":11032,"ĠCentury":11033,"eli":11034,"ĠGoth":11035,"Ã®":11036,"viously":11037,"Ġturb":11038,"ĠReform":11039,"ĠCommissioner":11040,"Ġwalks":11041,"Ġdecorated":11042,"Ġcontrols":11043,"ĠFab":11044,"Ġimpressed":11045,"Ġtelephone":11046,"def":11047,"Ġdeeper":11048,"Ġunexpected":11049,"Ġbent":11050,"Ġsimultaneously":11051,"ĠLuis":11052,"ĠBeing":11053,"pres":11054,"Ġtables":11055,"gam":11056,"Ġpip":11057,"omed":11058,"ĠKos":11059,"Ġbattery":11060,"Ġoriginated":11061,"Ġwaved":11062,"ĠSnow":11063,"Ġmonastery":11064,"stitutes":11065,"MC":11066,"ĠIranian":11067,"Ġintr":11068,"hor":11069,"Ġdischar":11070,"Ġconventional":11071,"Ġvisits":11072,"ĠST":11073,"Ġtoler":11074,"Ġrelevant":11075,"ĠCode":11076,"Ġdrummer":11077,"Ġ1889":11078,"ĠMonte":11079,"ĠHugh":11080,"Ġconfig":11081,"ĠRangers":11082,"Ġcaps":11083,"Ġtransmit":11084,"Ġmanaging":11085,"anked":11086,"ĠTun":11087,"ĠLiving":11088,"ĠAbbey":11089,"Ġsituations":11090,"Ġerup":11091,"ĠConserv":11092,"Ġupgr":11093,"Ġles":11094,"alling":11095,"strong":11096,"ancellor":11097,"include":11098,"umbent":11099,"ĠUniversal":11100,"ĠSuz":11101,"eing":11102,"Ġdestination":11103,"Ġtons":11104,"ĠAer":11105,"ĠObama":11106,"ĠJazz":11107,"incorporated":11108,"ĠCollins":11109,"eton":11110,"ĠStandard":11111,"Ġzero":11112,"Ġspots":11113,"Ġsculpture":11114,"Ġhumanity":11115,"Ġcounsel":11116,"Ġwrestling":11117,"aba":11118,"Ġsurvival":11119,"Ġsheet":11120,"azon":11121,"Ġterminus":11122,"Å¾":11123,"wed":11124,"song":11125,"olia":11126,"Ġbeliefs":11127,"Ġclosest":11128,"rÃ©":11129,"Ġthrowing":11130,"Ġkinds":11131,"atar":11132,"Ġ1892":11133,"boat":11134,"Ġholiday":11135,"Ġshots":11136,"ĠParish":11137,"Ġcoalition":11138,"Ġhyper":11139,"type":11140,"Ġshed":11141,"Ġbarrel":11142,"ĠStorm":11143,"Ġalter":11144,"ĠRef":11145,"Ġelabor":11146,"Ġ95":11147,"John":11148,"Ġcoins":11149,"ĠEverything":11150,"Ġmeasured":11151,"Ġtested":11152,"ĠPoly":11153,"Ġclan":11154,"Ġ;":11155,"ĠBrand":11156,"hent":11157,"Ġdisaster":11158,"Ġspotted":11159,"ĠWol":11160,"ambig":11161,"brid":11162,"Ġemigr":11163,"child":11164,"vision":11165,"Ġlistened":11166,"Ġcrying":11167,"Ġwand":11168,"Ġcoaching":11169,"Ġinhib":11170,"ogle":11171,"ĠEld":11172,"Ġhouseholder":11173,"Ġsung":11174,"owski":11175,"Ġbowl":11176,"Ġtherm":11177,"ĠDoc":11178,"ĠKath":11179,"Ġinches":11180,"Ġnurse":11181,"Ġreduction":11182,"Ġreferring":11183,"Ġspeaker":11184,"works":11185,"ĠAdelaide":11186,"Ġclinical":11187,"Ġcollective":11188,"Ġhitting":11189,"emble":11190,"essa":11191,"inks":11192,"bi":11193,"Ġjurisdiction":11194,"Ġdict":11195,"Ġadventure":11196,"lett":11197,"Ġ1894":11198,"ĠCuba":11199,"Ġlibr":11200,"ĠIsaac":11201,"ĠMaced":11202,"immer":11203,"Ġcollapse":11204,"ĠJulia":11205,"auge":11206,"Ġmessages":11207,"ĠControl":11208,"arat":11209,"ĠMA":11210,"Ġdescribing":11211,"Ġtargets":11212,"Ġexposure":11213,"odore":11214,"Ġecho":11215,"Ġflex":11216,"DC":11217,"trans":11218,"Ġexecution":11219,"ĠElectric":11220,"lu":11221,"Ġ1850":11222,"Ġhttp":11223,"Ġ1885":11224,"uka":11225,"Ġkm":11226,"ĠRuth":11227,"Ġorigins":11228,"Ġpalm":11229,"Ġalgorith":11230,"Ġpeoples":11231,"eo":11232,"03":11233,"SW":11234,"ĠTang":11235,"Ġsear":11236,"Ġprotests":11237,"Ġsits":11238,"Ġhence":11239,"Ġprev":11240,"Ġborrow":11241,"maker":11242,"Ġobjective":11243,"02":11244,"Ġharder":11245,"ĠPay":11246,"Ġdifficulties":11247,"aja":11248,"ded":11249,"Ġbattalion":11250,"mediate":11251,"ĠTrail":11252,"ĠLook":11253,"Ġbeaten":11254,"ĠBengal":11255,"inson":11256,"ĠNet":11257,"onlyinclude":11258,"avor":11259,"Ġspl":11260,"iry":11261,"Ġbanned":11262,"Ġtopics":11263,"Ġ57":11264,"vol":11265,"Ġflights":11266,"ĠAssistant":11267,"ĠMasters":11268,"ĠHave":11269,"Ġbin":11270,"ĠSoul":11271,"ĠRacing":11272,"Ġattacking":11273,"Ġcomparison":11274,"amese":11275,"Ġhonorary":11276,"Ġoverseas":11277,"Ġrestricted":11278,"Ġpermitted":11279,"Ġcraw":11280,"Ġ\"\",":11281,"ĠYouT":11282,"Ġcongress":11283,"áº":11284,"Ġcopper":11285,"Ġindicating":11286,"ĠSr":11287,"ĠAllied":11288,"ĠGuinea":11289,"Ġdefended":11290,"Ġnephew":11291,"ĠSprings":11292,"ĠGard":11293,"Ġaddressed":11294,"chers":11295,"Ġnegotiations":11296,"ĠCurt":11297,"Ġinstructions":11298,"ilia":11299,"Ġcomed":11300,"Ġinherited":11301,"ĠRot":11302,"ĠUnit":11303,"Ġexclud":11304,"Ġmanufactured":11305,"Ġinterviews":11306,"game":11307,"ĠTwenty":11308,"Ġpier":11309,"aco":11310,"Ġ66":11311,"Ġfiring":11312,"Ġmerger":11313,"bus":11314,"Ġclient":11315,"lights":11316,"Ġcancelled":11317,"Ġinfluences":11318,"Ġfolded":11319,"Ġdramatic":11320,"ĠFull":11321,"akia":11322,"legiate":11323,"Ġoxygen":11324,"ĠLloyd":11325,"hin":11326,"Ġenters":11327,"ĠDog":11328,"Ġstretched":11329,"ĠChallenge":11330,"Ġcarries":11331,"Ġfantasy":11332,"Ġforb":11333,"Ġsteady":11334,"Ġcharter":11335,"Ġorchestra":11336,"Ġfert":11337,"Ġliterally":11338,"Ġjacket":11339,"osoph":11340,"ishers":11341,"Ġrush":11342,"Ġeyeb":11343,"ethe":11344,"Ġsample":11345,"Ġque":11346,"ĠBeh":11347,"Ġ1891":11348,"parent":11349,"Sm":11350,"Ġscattered":11351,"Ġwarned":11352,"Donald":11353,"Ġcollapsed":11354,"ĠByzant":11355,"Ġthorough":11356,"ĠHudson":11357,"Ġcomputers":11358,"Ã¨re":11359,"ĠPeninsula":11360,"Ġbases":11361,"Ġactivist":11362,"Ġrecovery":11363,"vor":11364,"Ġservant":11365,"Ġfighters":11366,"ĠIT":11367,"ĠGot":11368,"ĠBarr":11369,"gon":11370,"achi":11371,"erior":11372,"vet":11373,"Ġdiscontin":11374,"Ġpupils":11375,"ĠFran":11376,"ĠPant":11377,"Ġgenerations":11378,"Ġaqu":11379,"RS":11380,"Ġdirections":11381,"ints":11382,"Ġindustries":11383,"Ġrepr":11384,"iko":11385,"Ġeverywhere":11386,"Ġinternationally":11387,"Ġsoph":11388,"leyball":11389,"ĠVers":11390,"Ġconversion":11391,"ĠFisher":11392,"Ġeligible":11393,"Ġgrandmother":11394,"arked":11395,"list":11396,"ĠThank":11397,"Ġmunicipalities":11398,"Ġsettlements":11399,"ĠNova":11400,"Ġpromoting":11401,"Ġdoubles":11402,"Ġà¤":11403,"Com":11404,"imir":11405,"Ġ1865":11406,"Ġprisoner":11407,"ĠTon":11408,"Ġreminded":11409,"ĠAlaska":11410,"Ġbehaviour":11411,"Ġgathering":11412,"ÃŁ":11413,"Ġ1888":11414,"Ġhopes":11415,"Ġreporting":11416,"ĠDragon":11417,"Ġchin":11418,"Ġscores":11419,"Ġtraditionally":11420,"Ġ58":11421,"Ġstolen":11422,"igger":11423,"ĠPont":11424,"ĠBright":11425,"Ġmerc":11426,"ĠShar":11427,"OW":11428,"Ġdrip":11429,"Ġcitizen":11430,"ĠAlberta":11431,"ĠSP":11432,"Ġoutstanding":11433,"ĠDaily":11434,"Ġcooperation":11435,"Ãª":11436,"idance":11437,"LS":11438,"Ġassume":11439,"ĠRomanized":11440,"ubs":11441,"ĠPow":11442,"inite":11443,"ĠPut":11444,"istent":11445,"Ġphotography":11446,"Ġtube":11447,"Ġdatab":11448,"Ġshocked":11449,"ĠAlt":11450,"ĠAdvis":11451,"Ġta":11452,"venth":11453,"ĠSig":11454,"Get":11455,"iffs":11456,"gments":11457,"ĠMunicipality":11458,"Ġlon":11459,"Ġcyl":11460,"Ġcro":11461,"Ġpetition":11462,"feld":11463,"Ġvertical":11464,"winning":11465,"uez":11466,"Ġportrait":11467,"Ġhealthy":11468,"Ġrabb":11469,"Ġunto":11470,"Ġacres":11471,"Ġcanal":11472,"Ġrevers":11473,"Ġproteins":11474,"his":11475,"arrison":11476,"ĠSah":11477,"Ġmuscle":11478,"ĠUg":11479,"iens":11480,"ĠAncient":11481,"ĠAbu":11482,"amer":11483,"Ġintellectual":11484,"oons":11485,"Ġquestioned":11486,"Ġ600":11487,"olit":11488,"cr":11489,"ĠTed":11490,"Ġbullet":11491,"Ġexhibited":11492,"Ġ1864":11493,"ĠVegas":11494,"Ġscientist":11495,"ĠYouTube":11496,"ĠMicrosoft":11497,"Ġaccessible":11498,"Ġbeam":11499,"eston":11500,"ĠSA":11501,"Ġease":11502,"Ġcatalog":11503,"Ġreaders":11504,"about":11505,"Ġtrunk":11506,"ĠBroadcasting":11507,"Ġlegislative":11508,"ailing":11509,"ĠLor":11510,"Ġenorm":11511,"Please":11512,"Ġstretch":11513,"Ġextensively":11514,"Ġconstitutional":11515,"Ġlucky":11516,"Ġamounts":11517,"iffer":11518,"Ġ1861":11519,"Ġimplementation":11520,"ĠCurrently":11521,"Ġproductions":11522,"ĠTodd":11523,"ĠRac":11524,"illiant":11525,"ucker":11526,"Ġreferences":11527,"ĠSpeed":11528,"Ġtherapy":11529,"ĠCold":11530,"ennial":11531,"Ġtear":11532,"Ġranging":11533,"ĠMult":11534,"ĠBrisb":11535,"ĠBak":11536,"Ġyours":11537,"ĠInsp":11538,"Ġcolumns":11539,"Ġshelter":11540,"Ġglance":11541,"Ġmanufacturer":11542,"iti":11543,"ĠReport":11544,"Ġgraduation":11545,"Ġamazing":11546,"Ġmate":11547,"ĠDakota":11548,"Ġfestivals":11549,"ĠPast":11550,"ĠHarold":11551,"ĠLate":11552,"nowiki":11553,"enberg":11554,"Ġobsc":11555,"urst":11556,"Ġ59":11557,"Ġthrust":11558,"ĠBrisbane":11559,"Ġfarming":11560,"ĠMagn":11561,"ĠNevertheless":11562,"month":11563,"OP":11564,"Ġcinema":11565,"Ġsymptoms":11566,"Ġoutbreak":11567,"Ġevident":11568,"Ġemphasis":11569,"ĠRidge":11570,"irms":11571,"ĠWrestling":11572,"Per":11573,"Ġargue":11574,"Will":11575,"Ġgallery":11576,"onda":11577,"orp":11578,"inda":11579,"oric":11580,"ĠKyle":11581,"Ġlocomotives":11582,"ĠScar":11583,"...âĢĿ":11584,"issions":11585,"Ġgardens":11586,"Ġflour":11587,"Ġexclusive":11588,"Ġorn":11589,"actory":11590,"Ġ72":11591,"ĠEve":11592,"ĠLis":11593,"Ġintercept":11594,"Ġabund":11595,"ĠPradesh":11596,"Ġclouds":11597,"Ġmaps":11598,"eled":11599,"esterday":11600,"ĠStre":11601,"ĠArchbishop":11602,"family":11603,"Ġambass":11604,"Ġpowered":11605,"Ġunincorporated":11606,"ĠMend":11607,"ĠDisc":11608,"Ġdemon":11609,"Ġconst":11610,"FF":11611,"ĠPeru":11612,"Ġhind":11613,"ĠCoal":11614,"incinn":11615,"ĠAthens":11616,"Ġwritings":11617,"ĠClaire":11618,"ĠCN":11619,"Ġlord":11620,"olition":11621,"Ġprocedure":11622,"ĠPle":11623,"Ġuncons":11624,"2010":11625,"Ġaccurate":11626,"ĠAber":11627,"Ġparticipating":11628,"compass":11629,"Ġdisturb":11630,"Ġ85":11631,"covered":11632,"Ġresignation":11633,"Ġtheories":11634,"erness":11635,"group":11636,"Ġangel":11637,"Ġconvicted":11638,"ĠCP":11639,"Ġcorridor":11640,"ĠSaudi":11641,"Ġplates":11642,"Ġstare":11643,"Ġfailing":11644,"Ġframework":11645,"ĠRalph":11646,"Ġregister":11647,"Ġlinear":11648,"ĠMagic":11649,"Ġlux":11650,"ĠLucy":11651,"ido":11652,"ĠFell":11653,"Ġpairs":11654,"Ġeditions":11655,"ĠLag":11656,"ĠProtestant":11657,"athon":11658,"Ġessentially":11659,"Ġcouch":11660,"celand":11661,"Ġpole":11662,"ĠCamb":11663,"ĠLear":11664,"isha":11665,"Ġsubsc":11666,"Ġpackage":11667,"ĠYang":11668,"ampton":11669,"acking":11670,"ĠGor":11671,"Ġinstantly":11672,"Ġdeemed":11673,"language":11674,"umph":11675,"Ġseeds":11676,"aft":11677,"Ġacquisition":11678,"Ġ1862":11679,"Ġstake":11680,"ĠSoccer":11681,"Ġpraise":11682,"Ġpreparing":11683,"ĠDemocrats":11684,"ĠEston":11685,"ĠStuart":11686,"ĠMalt":11687,"Ġplayoffs":11688,"ĠDiam":11689,"Ġsurrender":11690,"Ġautomatic":11691,"Ġfer":11692,"Ġdistribut":11693,"Ġjaw":11694,"itime":11695,"ĠRogers":11696,"Ġdistinction":11697,"Ġbetray":11698,"Ġcampaigns":11699,"Ġapproaches":11700,"ĠSocialist":11701,"Ġkeeps":11702,"Ġbreaks":11703,"ĠChase":11704,"Ġdoctors":11705,"ĠStars":11706,"Ġ1863":11707,"Ġjudgment":11708,"Ġbother":11709,"Ġreorgan":11710,"Every":11711,"ĠMS":11712,"ĠTu":11713,"Ġkeys":11714,"Ġclients":11715,"ĠBald":11716,"Ġbuck":11717,"Ġspecialized":11718,"incinnati":11719,"Gu":11720,"Ġcolleges":11721,"ĠAnglo":11722,"chief":11723,"Ġcontributing":11724,"ĠStudio":11725,"ĠKap":11726,"ĠWoman":11727,"ĠMust":11728,"ĠQual":11729,"Ġ1887":11730,"Ġski":11731,"ÏĦ":11732,"forced":11733,"Ġdesp":11734,"====":11735,"Ġmamm":11736,"ĠSara":11737,"Ġshake":11738,"Ġsixteen":11739,"Ġfurniture":11740,"just":11741,"Î½":11742,"ĠCommons":11743,"ĠBarcel":11744,"omes":11745,"length":11746,"ĠDennis":11747,"Ġcolleagues":11748,"Ġperceived":11749,"ĠImm":11750,"ĠVI":11751,"Ġmud":11752,"Ġprofile":11753,"oker":11754,"ÈĻ":11755,"ĠJa":11756,"Ġequally":11757,"ĠJefferson":11758,"umps":11759,"ĠEight":11760,"Ġhated":11761,"rency":11762,"Ġpayment":11763,"Ġshorter":11764,"haw":11765,"Ġrepeatedly":11766,"Ġcorruption":11767,"ĠNeil":11768,"Ġtox":11769,"Ġstored":11770,"Ġdiseases":11771,"cat":11772,"Ġcelebration":11773,"Ġmainstream":11774,"ĠCov":11775,"Ġenforcement":11776,"aters":11777,"Ġquarterback":11778,"Ġcavalry":11779,"Ġgran":11780,"ĠCou":11781,"Ġdivorce":11782,"ĠAction":11783,"ounce":11784,"icia":11785,"Ġgrades":11786,"Ġhappiness":11787,"Ġcorresponding":11788,"ĠHenri":11789,"Ġphysician":11790,"holm":11791,"ĠEsc":11792,"Ġtourist":11793,"ĠRing":11794,"ĠMoses":11795,"Ġdoorway":11796,"gi":11797,"Ġloves":11798,"ĠDemocrat":11799,"Ġtribute":11800,"ĠRu":11801,"Ġopens":11802,"ĠJustin":11803,"iast":11804,"Ġinnocent":11805,"Ġapproaching":11806,"ĠSymphony":11807,"Ġpants":11808,"ĠTyler":11809,"Ġscope":11810,"Ġexplosion":11811,"Ġrestaurants":11812,"ĠTech":11813,"ĠRAF":11814,"Ġenrolled":11815,"Ġaccum":11816,"ĠMunich":11817,"ĠSaints":11818,"ĠObl":11819,"ĠBulgar":11820,"Ġabsolute":11821,"Ġnarrative":11822,"ĠHeaven":11823,"Ġtension":11824,"ÙĦ":11825,"ĠJar":11826,"Ġquarters":11827,"ĠFem":11828,"new":11829,"ĠRhod":11830,"Ġthirteen":11831,"ĠPerry":11832,"Ġexperiments":11833,"Ġengage":11834,"ĠTigers":11835,"rez":11836,"wer":11837,"Ġtemporarily":11838,"God":11839,"ĠToy":11840,"Ġencourage":11841,"Ġconsequences":11842,"ĠYe":11843,"Ġchallenged":11844,"Ġgeomet":11845,"ĠPhilippine":11846,"âĢĻ,":11847,"Ġsignals":11848,"ĠBuddhist":11849,"Ġmixture":11850,"Ġreceives":11851,"ĠEy":11852,"ĠMales":11853,"alan":11854,"ĠPlant":11855,"Ġlun":11856,"ĠJulian":11857,"Ġcorps":11858,"ĠNote":11859,"Ġsummit":11860,"ĠChester":11861,"ĠHob":11862,"ĠPhD":11863,"ĠâĤ":11864,"Ġcrosses":11865,"Ġprol":11866,"employ":11867,"ĠBuffalo":11868,"Ġneuro":11869,"Ġprog":11870,"Ġimpression":11871,"Ġgast":11872,"Ġpounds":11873,"ĠExper":11874,"Ġprivile":11875,"oro":11876,"ospitals":11877,"Ġmystery":11878,"ĠJamie":11879,"roph":11880,"ĠLeeds":11881,"Ġlobby":11882,"Ġstopping":11883,"ĠHitler":11884,"bes":11885,"Ġlessons":11886,"ĠMs":11887,"Ġcru":11888,"Ġruler":11889,"Ġpseud":11890,"made":11891,"rection":11892,"Ġdining":11893,"Ġcha":11894,"Ġdepicted":11895,"ĠBog":11896,"idency":11897,"Ġresort":11898,"reated":11899,"ĠCameron":11900,"itis":11901,"Ġstatements":11902,"tegr":11903,"ĠCA":11904,"ĠPunj":11905,"Ġcarrier":11906,"Ġpurple":11907,"riet":11908,"ĠBlues":11909,"Ġcommenced":11910,"beat":11911,"Ġsubmarine":11912,"ournaments":11913,"Ġinhab":11914,"Ġfourteen":11915,"ĠBath":11916,"Ġ800":11917,"amped":11918,"arts":11919,"ĠProvinc":11920,"ambiguation":11921,"enesis":11922,"ĠDigital":11923,"Ġ99":11924,"Ġworker":11925,"Ġunconscious":11926,"formerly":11927,"Ġpartial":11928,"Ġencompass":11929,"Ġabsolutely":11930,"ĠMunicipal":11931,"Ġsuspic":11932,"ĠDiocese":11933,"Ġfinance":11934,"Ġrode":11935,"ĠBorough":11936,"ouncill":11937,"ĠMaz":11938,"owship":11939,"Ġtravels":11940,"ĠIceland":11941,"Ġsupplied":11942,"ĠUrban":11943,"Ġdistinctive":11944,"ĠSudden":11945,"Ġast":11946,"braska":11947,"ĠBurg":11948,"Ġconsistent":11949,"Ġwreck":11950,"Ġplenty":11951,"Ġdelight":11952,"ĠCultural":11953,"ĠCelt":11954,"Ð¼":11955,"axy":11956,"Ġfocusing":11957,"Ġinvestigate":11958,"ĠBlake":11959,"Ġproceeded":11960,"Ġfilming":11961,"Ġpoliticians":11962,"ĠHerbert":11963,"Ġprox":11964,"ĠNevada":11965,"ĠGregory":11966,"ĠSony":11967,"Ġorganic":11968,"Ġmillions":11969,"RI":11970,"Ġcuts":11971,"Ġattendance":11972,"Ġpitched":11973,"ĠCincinnati":11974,"Ġgarage":11975,"Ġarrives":11976,"iary":11977,"ĠMath":11978,"Ġcharacteristic":11979,"Ġbarr":11980,"Ġinteraction":11981,"Ġ1886":11982,"ĠSystems":11983,"ĠMadison":11984,"Ġtough":11985,"arded":11986,"Ġexcit":11987,"ĠTerritory":11988,"Ġmonster":11989,"disambiguation":11990,"gus":11991,"Ġbold":11992,"bye":11993,"Ġrice":11994,"anni":11995,"ĠGround":11996,"Ġimpressive":11997,"Ġminds":11998,"Ġtenth":11999,"Ġpin":12000,"onomous":12001,"2011":12002,"ĠLP":12003,"Ġsalv":12004,"ĠDeb":12005,"Ġlikes":12006,"Ġcheeks":12007,"Ġmemor":12008,"izer":12009,"Ġphysically":12010,"ĠHolland":12011,"Ġresear":12012,"Ġnobody":12013,"Ġwolf":12014,"gener":12015,"osy":12016,"Ġpermit":12017,"Ġwhenever":12018,"ĠPictures":12019,"Ġspeakers":12020,"ĠColombia":12021,"outheastern":12022,"asting":12023,"Ġartificial":12024,"Ġspirits":12025,"Ġtap":12026,"ĠLock":12027,"ycl":12028,"Ġcloth":12029,"Ġharsh":12030,"Ġdepartments":12031,"400":12032,"ĠMurphy":12033,"Ġgenu":12034,"Ġrecipient":12035,"Ġoccasional":12036,"HA":12037,"Ġconfirm":12038,"Ã¦":12039,"anj":12040,"Ġcertified":12041,"Ġsurprising":12042,"aphic":12043,"Ġdescendants":12044,"âĢĶâĢĿ":12045,"Ġdiplomatic":12046,"ĠDenver":12047,"adition":12048,"Ġempire":12049,"Eng":12050,"ĠBarcelona":12051,"Ġrevised":12052,"released":12053,"Ġexplicit":12054,"Ġdish":12055,"sl":12056,"Ġrevenge":12057,"Ġmuscles":12058,"erek":12059,"ĠFormer":12060,"Ġencountered":12061,"ĠNorfolk":12062,"Ġreducing":12063,"Ġrelieved":12064,"ĠNapole":12065,"Ġpharm":12066,"rafts":12067,"Ġshaped":12068,"Ġgodd":12069,"lia":12070,"Ġ1881":12071,"zed":12072,"itudes":12073,"Ġvolunteers":12074,"Ġemployee":12075,"Ġcoup":12076,"Ġmasc":12077,"Ġdesignation":12078,"Ġkilometers":12079,"velt":12080,"Ġha":12081,"gom":12082,"Ñı":12083,"Ġdevast":12084,"agged":12085,"ashwords":12086,"Ġbachelor":12087,"Ġneighb":12088,"Ġlighting":12089,"ĠDrive":12090,"Ġspac":12091,"Ġlegit":12092,"lain":12093,"Ġgenes":12094,"Ġentreprene":12095,"ĠMinor":12096,"Ġdissolved":12097,"Ġorbit":12098,"mun":12099,"ĠLan":12100,"velation":12101,"Ġspeaks":12102,"Ġguidance":12103,"Ġdrums":12104,"ĠAx":12105,"Ġcollaborated":12106,"ĠSpen":12107,"ĠGonz":12108,"Ġtechnologies":12109,"Ġconcentrated":12110,"ĠShaw":12111,"Ġbonus":12112,"Ġ1884":12113,"Ġvoy":12114,"ĠHamb":12115,"Ġconvince":12116,"ificate":12117,"kov":12118,"ĠClassic":12119,"families":12120,"ĠGarc":12121,"held":12122,"ĠPic":12123,"ĠNature":12124,"agons":12125,"written":12126,"Ġautomatically":12127,"Ġinducted":12128,"Ġcotton":12129,"ĠTrav":12130,"Ġbeetle":12131,"ften":12132,"mail":12133,"Ġtomb":12134,"word":12135,"Ġtwisted":12136,"enos":12137,"Ġcelebrate":12138,"Ġ().":12139,"ivic":12140,"Ġposts":12141,"Ġusage":12142,"sterdam":12143,"through":12144,"iser":12145,"ĠLev":12146,"Ġweird":12147,"ĠHerman":12148,"ĠTag":12149,"Ġspun":12150,"Ġpanic":12151,"Ġ62":12152,"Ġperpet":12153,"Ġtasks":12154,"enia":12155,"ĠBrew":12156,"Ġtransformed":12157,"ghai":12158,"Ġtale":12159,"Ġshadows":12160,"ĠManuel":12161,"Ġstriking":12162,"Ġbloody":12163,"Ġelementary":12164,"Ġrational":12165,"Ġhistorians":12166,"Ġcustomer":12167,"ĠRivers":12168,"ĠIndustrial":12169,"ĠUnfortunately":12170,"Ġholes":12171,"pense":12172,"Ġdelayed":12173,"ĠSierra":12174,"ĠRat":12175,"Ġtopic":12176,"quis":12177,"Ġgates":12178,"eous":12179,"ĠSide":12180,"Ġallies":12181,"Ġstir":12182,"Ġholy":12183,"Ġcommitment":12184,"Ġdirty":12185,"Ġgaining":12186,"Ġtissue":12187,"Ġcarved":12188,"pop":12189,"alam":12190,"Ġsolutions":12191,"Ġrelay":12192,"Ġbarn":12193,"Ġservants":12194,"Ġvirus":12195,"inated":12196,"ĠEdwards":12197,"Ġthereby":12198,"ĠSyl":12199,"Ġnaturally":12200,"iji":12201,"Ġprevented":12202,"Ġconcepts":12203,"ĠPedro":12204,"Ġfed":12205,"ĠCoach":12206,"Thanks":12207,"Ġporch":12208,"ĠModel":12209,"Ġtorped":12210,"wig":12211,"ullivan":12212,"Ġlaughter":12213,"Ġretain":12214,"Ġconsolid":12215,"Ġkiller":12216,"Ġblocked":12217,"Ġprey":12218,"Ġstruggling":12219,"Ġfo":12220,"Ġremoval":12221,"ĠNancy":12222,"piece":12223,"Ġboyfriend":12224,"ĠFaith":12225,"Ġsequel":12226,"Ġcolored":12227,"Ġgigg":12228,"Ġrelegated":12229,"ĠTestament":12230,"ĠPearl":12231,"ĠLov":12232,"Ġfloors":12233,"Ġpride":12234,"Ġmonthly":12235,"Ġcourage":12236,"Ġjet":12237,"ĠMig":12238,"ĠArmenian":12239,"oka":12240,"Ġvital":12241,"ĠOm":12242,"Ġoutdoor":12243,"itic":12244,"Ġlaboratory":12245,"UN":12246,"ĠPack":12247,"asia":12248,"ĠWould":12249,"Ġelevated":12250,"ĠMann":12251,"stituted":12252,"ĠPrest":12253,"ĠWelling":12254,"Î¿":12255,"Ġbeast":12256,"ĠNepal":12257,"ĠOscar":12258,"ĠTake":12259,"icular":12260,"ults":12261,"neath":12262,"lend":12263,"ĠConfederate":12264,"Ġfluid":12265,"ĠBlock":12266,"Ġcreates":12267,"ele":12268,"adr":12269,"Ġbore":12270,"Ġbats":12271,"ĠMey":12272,"Ġpriests":12273,"ĠNebraska":12274,"Ġprosecut":12275,"Ġ63":12276,"WA":12277,"ĠGuardian":12278,"ĠSalt":12279,"sized":12280,"Ġobservation":12281,"Ġescort":12282,"Ġtightly":12283,"2008":12284,"ĠFlorence":12285,"Ġsiege":12286,"ĠCS":12287,"2007":12288,"ĠSuddenly":12289,"Ġorb":12290,"ups":12291,"ĠPS":12292,"Ġextending":12293,"Ġnickname":12294,"ĠPel":12295,"Ġregret":12296,"isons":12297,"ĠOrd":12298,"Ġtrapped":12299,"Ġdrain":12300,"Ġcoc":12301,"Ġmaintaining":12302,"ĠPerson":12303,"Ġregardless":12304,"Ġrecur":12305,"ĠKenya":12306,"ĠSz":12307,"Ġconsumption":12308,"ĠPra":12309,"UC":12310,"ĠPin":12311,"Ã¶n":12312,"ĠAntar":12313,"ĠJesse":12314,"ĠPolicy":12315,"ampa":12316,"Ġswept":12317,"Ġradar":12318,"Ġpeer":12319,"umble":12320,"Ġhypothes":12321,"Ġendors":12322,"Ġarena":12323,"Ġalternate":12324,"ursday":12325,"ourt":12326,"Ġreverse":12327,"ML":12328,"Ġcalendar":12329,"ÙĨ":12330,"garian":12331,"ĠBased":12332,"Ġ1882":12333,"Ġsidew":12334,"Ø±":12335,"Ġeconomics":12336,"ĠMul":12337,"ĠJenny":12338,"Ġblame":12339,"Ġwoke":12340,"Ġcott":12341,"ĠNewcastle":12342,"Ġloop":12343,"ĠCosta":12344,"ĠCircuit":12345,"Ġliv":12346,"ĠJoan":12347,"ĠHarbor":12348,"acco":12349,"Ġregul":12350,"Ġcompanion":12351,"ĠOpp":12352,"ĠFu":12353,"Ġbasement":12354,"ING":12355,"ĠDeep":12356,"Ġbuses":12357,"Best":12358,"Ġuniversal":12359,"Ġraw":12360,"Ġresiding":12361,"Ġsovere":12362,"Ġexplore":12363,"Ġabstr":12364,"Ġrelatives":12365,"Ġpond":12366,"Ġinject":12367,"join":12368,"alin":12369,"Ġlingu":12370,"ĠRoose":12371,"oning":12372,"Ġinstruction":12373,"Ġvirtual":12374,"ĠOcc":12375,"ĠMoroc":12376,"world":12377,"Ġsubdiv":12378,"white":12379,"ĠBuch":12380,"ĠStra":12381,"Ġmotorcy":12382,"Ġunderneath":12383,"Ġextinct":12384,"Hz":12385,"ĠPolitical":12386,"Ġcapita":12387,"Ġperf":12388,"anking":12389,"ĠSelf":12390,"Ġpresents":12391,"ĠAirl":12392,"ĠGust":12393,"Ġnamely":12394,"Ġtournaments":12395,"ambers":12396,"ĠNy":12397,"Ġkings":12398,"ĠCompet":12399,"oko":12400,"itro":12401,"Ġcontracts":12402,"rimination":12403,"ĠErnest":12404,"ĠArgentine":12405,"lington":12406,"ĠAzerbaijan":12407,"Fe":12408,"Ġcomprehensive":12409,"auc":12410,"ĠYam":12411,"ipher":12412,"Ġprosper":12413,"ĠHistorical":12414,"umbling":12415,"ĠLions":12416,"Ġcompiled":12417,"ĠIndustry":12418,"ĠValent":12419,"nesday":12420,"Ġfirmly":12421,"onnie":12422,"2009":12423,"Ġseized":12424,"Ġblend":12425,"ĠGoogle":12426,"ĠSongs":12427,"keley":12428,"Ġbankrupt":12429,"Ġsqueez":12430,"Ġcultures":12431,"ĠUsing":12432,"Ġearthquake":12433,"Ġrope":12434,"Christ":12435,"ĠLion":12436,"idad":12437,"Ġfacts":12438,"Ġware":12439,"umping":12440,"week":12441,"ĠID":12442,"emporary":12443,"Ġhonors":12444,"ĠVenice":12445,"erie":12446,"ĠEsp":12447,"Ġmysterious":12448,"kind":12449,"ĠWarri":12450,"Ġalign":12451,"Ġchoir":12452,"hend":12453,"ĠOwen":12454,"Ġeager":12455,"ishops":12456,"Ġfewer":12457,"avier":12458,"ĠGay":12459,"ĠProphet":12460,"2012":12461,"Ġaccomplished":12462,"ikes":12463,"Ġwidow":12464,"osexual":12465,"ĠEthiop":12466,"ĠAmsterdam":12467,"Ġfame":12468,"var":12469,"Ġengagement":12470,"ĠFacebook":12471,"BL":12472,"ags":12473,"ĠWit":12474,"Ġpredecessor":12475,"ĠWallace":12476,"peare":12477,"Ġcontents":12478,"ĠGiants":12479,"Ġexpecting":12480,"Ġpap":12481,"ĠStef":12482,"Ġcrops":12483,"ĠChapel":12484,"Ġwisdom":12485,"sub":12486,"lined":12487,"ĠPrinc":12488,"Ġfaint":12489,"Ġvampire":12490,"Ġsumm":12491,"ĠLog":12492,"kward":12493,"ĠFaculty":12494,"Ġhungry":12495,"Ġbearing":12496,"ountain":12497,"ĠHav":12498,"Ġboards":12499,"Ġvariable":12500,"ĠComics":12501,"Ġcontribute":12502,"Ġstiff":12503,"ĠCinem":12504,"Ġexamination":12505,"Ġexhibit":12506,"Ġlegislature":12507,"Ġimprisoned":12508,"Ġbasin":12509,"ĠSoft":12510,"ĠKaren":12511,"akespeare":12512,"Ġsamples":12513,"Ġparks":12514,"Ġ61":12515,"Ġcogn":12516,"Ġstere":12517,"Ġma":12518,"regular":12519,"Ġveteran":12520,"post":12521,"levard":12522,"log":12523,"ĠProfessional":12524,"ounding":12525,"OK":12526,"ĠRange":12527,"Ġshallow":12528,"Ġglasses":12529,"Ġannex":12530,"Ġpreserve":12531,"Ġspite":12532,"Ġassists":12533,"Ġinterchange":12534,"stown":12535,"ĠHaz":12536,"Ġaccommodate":12537,"inge":12538,"Ġclay":12539,"Ġfeud":12540,"Ġarrangements":12541,"Ġoptim":12542,"Ġimprovements":12543,"Ġrushing":12544,"this":12545,"German":12546,"Ġdisbanded":12547,"Ġpenetr":12548,"isible":12549,"rage":12550,"ĠTas":12551,"Ġwheels":12552,"graph":12553,"zing":12554,"Ġbacking":12555,"Ġconnects":12556,"Ġmoist":12557,"Dec":12558,"Ġcomprises":12559,"Ġdropping":12560,"avin":12561,"Ġblog":12562,"Ġenormous":12563,"chair":12564,"Ġbitter":12565,"ĠCec":12566,"Ġcoached":12567,"Ġ68":12568,"Ġachievement":12569,"Ġintellig":12570,"ĠVideo":12571,"ancial":12572,"ĠHorse":12573,"Ġbrigade":12574,"ilda":12575,"Ġovercome":12576,"ĠGhana":12577,"ĠTall":12578,"atoes":12579,"sor":12580,"Ġbridges":12581,"Ġrealised":12582,"onduct":12583,"ĠArnold":12584,"Ġreleasing":12585,"Ġmanifest":12586,"Ġboots":12587,"Ġchrom":12588,"iden":12589,"zyme":12590,"Ġclosure":12591,"Ġgrandson":12592,"Ġlogic":12593,"Ġfootage":12594,"Sure":12595,"Ġedges":12596,"Ġbreeding":12597,"ablished":12598,"Ġuncomfort":12599,"Ġactively":12600,"Ġexcitement":12601,"ĠWarsaw":12602,"Ġlogo":12603,"Ġrod":12604,"Ġdisorder":12605,"ught":12606,"ÄŁ":12607,"ĠEdition":12608,"ĠBear":12609,"ĠAlger":12610,"Ġchemistry":12611,"ĠPetersburg":12612,"Ġsew":12613,"ĠQuest":12614,"aris":12615,"ĠSupport":12616,"ĠColin":12617,"ĠHarvey":12618,"omo":12619,"ĠTell":12620,"books":12621,"Ġelite":12622,"ĠRaymond":12623,"ĠRoosevelt":12624,"Ġbelieving":12625,"Ġquit":12626,"ĠOri":12627,"erving":12628,"ĠYale":12629,"ĠLiga":12630,"See":12631,"ĠCroatia":12632,"ubb":12633,"Ġarmor":12634,"2006":12635,"ovich":12636,"Ġfraud":12637,"original":12638,"cester":12639,"ĠLeader":12640,"anti":12641,"Ġenroll":12642,"Ġsacred":12643,"Ġtwent":12644,"ĠRou":12645,"Ġhistorically":12646,"Ġstern":12647,"Ġimprovement":12648,"Ġrecruited":12649,"ĠNewton":12650,"oding":12651,"Ġweaken":12652,"Ġsustained":12653,"ĠTat":12654,"Ġ1883":12655,"ĠJeremy":12656,"Ġstroke":12657,"Ġmild":12658,"Ġchuckled":12659,"Ġ76":12660,"Ġannouncement":12661,"acted":12662,"inery":12663,"Ġfib":12664,"Ġabd":12665,"Ġfavourite":12666,"Ġhaz":12667,"Ġ67":12668,"Ġinfer":12669,"Ġhelicopter":12670,"Ġmit":12671,"Ġathletic":12672,"ĠFat":12673,"Ġcongregation":12674,"Ġstro":12675,"ĠGilbert":12676,"ĠSeth":12677,"ĠShir":12678,"aho":12679,"ht":12680,"Ġcoaches":12681,"ĠBav":12682,"Ġbears":12683,"ĠAmbass":12684,"urated":12685,"ĠWilhel":12686,"Ġboxes":12687,"isle":12688,"Ġ98":12689,"essed":12690,"ĠHughes":12691,"ĠSor":12692,"ĠAnglic":12693,"ĠWinn":12694,"Ġwrist":12695,"Ġcasualties":12696,"Ġate":12697,"ĠWatson":12698,"Ġexperts":12699,"Ġsink":12700,"Ġ1876":12701,"Ġmaid":12702,"pher":12703,"Ġpermanently":12704,"ĠĊ":12705,"ĠHunt":12706,"conn":12707,"wyn":12708,"CD":12709,"amics":12710,"wind":12711,"Ġcircles":12712,"ĠKeep":12713,"Ġconsumer":12714,"sing":12715,"ĠSut":12716,"Ġincumbent":12717,"Ġlakes":12718,"Pl":12719,"Ġdependent":12720,"ĠBund":12721,"ĠGuild":12722,"Ġtrap":12723,"Ã©r":12724,"Ġradiation":12725,"writing":12726,"ĠBird":12727,"ĠIP":12728,"core":12729,"Ġshar":12730,"ĠSyrian":12731,"Ġefficiency":12732,"ĠOil":12733,"Ġ\"[":12734,"ĠGeoff":12735,"Ġorche":12736,"Ġinspect":12737,"ĠTechnical":12738,"ĠWells":12739,"umer":12740,"ĠDest":12741,"Ġ1871":12742,"itr":12743,"Ġbrilliant":12744,"Ġsensitive":12745,"ĠOttawa":12746,"RT":12747,"ĠLink":12748,"Ġhem":12749,"Ġdock":12750,"Ġaims":12751,"imm":12752,"Ġstead":12753,"Love":12754,"ĠSic":12755,"gence":12756,"Ġsaving":12757,"Ġexamined":12758,"Ġtours":12759,"Ġslept":12760,"Ġcurric":12761,"ĠMahar":12762,"ĠWellington":12763,"Ð²":12764,"ju":12765,"Ġsupplement":12766,"Ġdocumented":12767,"Ġthumb":12768,"Ġputs":12769,"Ġpian":12770,"Ġblur":12771,"2005":12772,"Ġorganisations":12773,"ĠJin":12774,"Ġyesterday":12775,"iability":12776,"ĠHat":12777,"Ġadministered":12778,"Ġnowhere":12779,"Ġseparation":12780,"ĠCant":12781,"ĠFilip":12782,"Ġdisplays":12783,"ĠSug":12784,"owder":12785,"Ġretrie":12786,"quet":12787,"ĠBrig":12788,"Ġenvelop":12789,"Ġsemif":12790,"iolet":12791,"Ġthreats":12792,"herent":12793,"thal":12794,"ĠPlayers":12795,"Ġgrim":12796,"Ġtrem":12797,"ĠSpencer":12798,"yers":12799,"ĠNumber":12800,"Ġbend":12801,"ikely":12802,"Ġballs":12803,"Ġstudios":12804,"Ġseverely":12805,"Ġattractive":12806,"ĠLebanon":12807,"orient":12808,"ourg":12809,"Ġcomprom":12810,"ahl":12811,"ĠPul":12812,"tor":12813,"handed":12814,"ĠSul":12815,"abbing":12816,"Ġacknowledged":12817,"Ġentity":12818,"ĠLux":12819,"Ġnic":12820,"Ġhardware":12821,"Ġconcur":12822,"ĠGra":12823,"ĠLogan":12824,"ĠMontana":12825,"Ġabrupt":12826,"agonist":12827,"ĠFBI":12828,"Ġritual":12829,"inus":12830,"wings":12831,"Ġraced":12832,"Ġ96":12833,"ĠButler":12834,"Ġrenewed":12835,"ĠDelaware":12836,"uctive":12837,"Ġmidfielder":12838,"ushes":12839,"enburg":12840,"Ġpracticed":12841,"Ġ1840":12842,"Ġdawn":12843,"Ġswing":12844,"Ġtut":12845,"ĠMarx":12846,"Ġ69":12847,"Ġtravelling":12848,"ĠSoutheast":12849,"Ġlined":12850,"ĠCruz":12851,"Ġtriple":12852,"Ġintroduce":12853,"Ġeighteen":12854,"ĠVern":12855,"Ġequation":12856,"ĠIndependence":12857,"ĠWa":12858,"Ġintensity":12859,"ĠSheff":12860,"Ġmall":12861,"Ġsacrifice":12862,"Ġrebellion":12863,"Ġpilots":12864,"ĠHeavy":12865,"Ġscreaming":12866,"oustic":12867,"Ġneighboring":12868,"ropod":12869,"kar":12870,"boards":12871,"ĠBulgaria":12872,"uns":12873,"Ġhandling":12874,"Ġslip":12875,"Ġsuggesting":12876,"lane":12877,"count":12878,"ĠSebastian":12879,"ĠStanford":12880,"atching":12881,"Ġing":12882,"vas":12883,"Ġvariant":12884,"Ġgymn":12885,"Ġawkward":12886,"Black":12887,"ĠWednesday":12888,"Ġsake":12889,"Ġpatent":12890,"ĠPros":12891,"Ġcad":12892,"ĠShanghai":12893,"ĠLanguage":12894,"ĠRace":12895,"ĠMol":12896,"Ġbags":12897,"ĠTerm":12898,"Ġaffiliate":12899,"ĠType":12900,"ĠTruth":12901,"Ġ1878":12902,"Ġmainland":12903,"eb":12904,"Ġundergraduate":12905,"ĠBent":12906,"ĠSurvey":12907,"Ġspare":12908,"ĠBulgarian":12909,"iane":12910,"Ġplanted":12911,"ĠHein":12912,"Ġdesired":12913,"Ġinstallation":12914,"Ġfortress":12915,"ĠWu":12916,"ÛĮ":12917,"ĠExchange":12918,"ĠÃģ":12919,"IG":12920,"ormal":12921,"Ġseemingly":12922,"Ġsoap":12923,"ĠRah":12924,"ĠLeonard":12925,"Ġculmin":12926,"ĠTreas":12927,"Ġlover":12928,"Ġstructural":12929,"ĠDarwin":12930,"ĠYu":12931,"Ġwitch":12932,"ĠShakespeare":12933,"ĠFormula":12934,"mans":12935,"Ġconspir":12936,"Ġabolished":12937,"ĠSure":12938,"eu":12939,"ĠIraqi":12940,"ĠFant":12941,"cht":12942,"Ġhearts":12943,"Ġcomplicated":12944,"ĠChi":12945,"Ġrefugees":12946,"wright":12947,"Ġimagined":12948,"ĠKle":12949,"Ġvig":12950,"alis":12951,"ĠMut":12952,"Ġcheer":12953,"Ġdialogue":12954,"ĠIntelligence":12955,"Ġpresentation":12956,"ĠDol":12957,"ĠBM":12958,"sur":12959,"Ġfeared":12960,"Ġacademy":12961,"Here":12962,"ĠHus":12963,"omi":12964,"Ġexhibitions":12965,"ĠThanks":12966,"Ġlandmark":12967,"oi":12968,"Ġrounded":12969,"Ġratings":12970,"ĠBeginning":12971,"Ġfastest":12972,"Ġsurvivors":12973,"Ġelevator":12974,"ĠâĤ¬":12975,"ĠSÃ£o":12976,"Ġbapt":12977,"ĠThai":12978,"uesday":12979,"Ġpsychology":12980,"ovan":12981,"BE":12982,"Ġpile":12983,"ĠTibet":12984,"ĠBerkeley":12985,"ieg":12986,"Ġaltered":12987,"ealous":12988,"Ġsignature":12989,"ĠDaw":12990,"ĠÅł":12991,"Ġsocieties":12992,"bek":12993,"ĠPoll":12994,"Ġrenowned":12995,"ĠCampaign":12996,"Ġcounterpart":12997,"ĠUlt":12998,"ounted":12999,"Ġfloating":13000,"orne":13001,"Ġfeather":13002,"Ġfence":13003,"Ġ88":13004,"ricketer":13005,"Ġcooking":13006,"ĠGy":13007,"Ġbuff":13008,"ĠRoom":13009,"Ã¡s":13010,"communic":13011,"Ġhealing":13012,"founded":13013,"ĠExpl":13014,"Ġpunk":13015,"Ġrevealing":13016,"Ġ1867":13017,"Ġ\"(":13018,"ĠLot":13019,"ĠBass":13020,"ĠSex":13021,"Ġinvented":13022,"ĠCand":13023,"Ġinstinct":13024,"Ġflowing":13025,"Ġmansion":13026,"Ġvariation":13027,"Sorry":13028,"Ġextends":13029,"ĠThursday":13030,"Ġpatri":13031,"isan":13032,"Ġladies":13033,"Ġresur":13034,"Ġwishes":13035,"Ġcust":13036,"oys":13037,"Ġ1872":13038,"Ġattraction":13039,"Ġargues":13040,"Ġassignment":13041,"Ġgauge":13042,"Ġoutcome":13043,"Ġviolin":13044,"first":13045,"onial":13046,"nal":13047,"Ġnecessarily":13048,"ahan":13049,"eor":13050,"Ġloaded":13051,"Ġbombing":13052,"umm":13053,"direct":13054,"Ġslee":13055,"ĠProtection":13056,"ĠPent":13057,"Ġchairs":13058,"Ġrocket":13059,"uckland":13060,"ĠLinda":13061,"ateful":13062,"avery":13063,"whe":13064,"Ġstationed":13065,"Ġvocalist":13066,"Ġreserved":13067,"Ġmere":13068,"ĠLex":13069,"ĠMills":13070,"roe":13071,"Ġexhaust":13072,"ordinary":13073,"Ġhospitals":13074,"Ġfist":13075,"ĠDays":13076,"ainted":13077,"Ġrelating":13078,"ĠOthers":13079,"Ġaltitude":13080,"Ġvolunteer":13081,"Ġ1875":13082,"pit":13083,"istle":13084,"redited":13085,"Ġmissile":13086,"ocolate":13087,"ĠPalmer":13088,"ulsion":13089,"Ġshipping":13090,"gomery":13091,"Ġguilt":13092,"iology":13093,"Ġcircular":13094,"Ġwiped":13095,"ĠCyr":13096,"Ġsuccession":13097,"Ġbite":13098,"ema":13099,"hall":13100,"oping":13101,"Ġmarch":13102,"ĠBened":13103,"Ġdivine":13104,"ĠDelta":13105,"Ġretiring":13106,"Ġcrashed":13107,"Ġcolonies":13108,"ĠOg":13109,"Ġdepends":13110,"ĠChad":13111,"Ġtel":13112,"Ġmutual":13113,"Ġprinting":13114,"Ġsuspension":13115,"quer":13116,"Ġreceiver":13117,"ĠVenezuela":13118,"ĠCHAP":13119,"ĠFinance":13120,"Ġscrew":13121,"Ġ77":13122,"ĠSak":13123,"Ġdragged":13124,"Ġrecall":13125,"ĠOperations":13126,"rien":13127,"Ġprogrammes":13128,"ĠWalt":13129,"Ġpsychological":13130,"Ġreforms":13131,"ĠPhillips":13132,"Ġdisg":13133,"ĠReturn":13134,"Ġcameras":13135,"Ġresource":13136,"addle":13137,"ĠRams":13138,"ĠKur":13139,"\"'":13140,"Ġconvert":13141,"ylan":13142,"Ġ1879":13143,"three":13144,"Ġdesperate":13145,"epper":13146,"Ġbord":13147,"ĠProduction":13148,"ĠJennifer":13149,"Big":13150,"Ġmarg":13151,"umi":13152,"Ġbike":13153,"namese":13154,"Ġnumbered":13155,"pling":13156,"oup":13157,"rain":13158,"Ġber":13159,"Ġpig":13160,"ĠTab":13161,"ĠKrish":13162,"Ġ\"\".":13163,"ĠChes":13164,"iblings":13165,"Ġpredominantly":13166,"Ġsank":13167,"Ġdownload":13168,"istration":13169,"pine":13170,"Ġpeaceful":13171,"Ġroster":13172,"Ġfortune":13173,"dal":13174,"cott":13175,"ĠByzantine":13176,"Ġ78":13177,"ĠCHAPTER":13178,"ĠSha":13179,"Ġprestigious":13180,"Ġverses":13181,"Ġairline":13182,"Ġib":13183,"Ġcompositions":13184,"Ġwitnessed":13185,"ĠMalay":13186,"nÃ©e":13187,"ighting":13188,"Ġfrozen":13189,"Ġarchaeological":13190,"Ġpoured":13191,"Ġunh":13192,"Ġintervention":13193,"ĠJulie":13194,"Ġhonored":13195,"ĠInside":13196,"ĠCroatian":13197,"Ġcosm":13198,"Ġclimbing":13199,"ĠSheffield":13200,"Ġdispers":13201,"Ġciting":13202,"ĠOw":13203,"ĠEagles":13204,"eda":13205,"Ġaggregate":13206,"Ġorient":13207,"Ġvictories":13208,"nut":13209,"Ġpitcher":13210,"Ġtestim":13211,"Ġglac":13212,"holders":13213,"Ġtram":13214,"ilian":13215,"ĠRomans":13216,"disc":13217,"Ġrip":13218,"aurus":13219,"Ġupcoming":13220,"Ġcruis":13221,"ĠOtto":13222,"Ġabsent":13223,"ĠMethodist":13224,"urbs":13225,"Ġtrace":13226,"Ġna":13227,"Ġdialect":13228,"Ġdeals":13229,"Ġrestore":13230,"ĠHigher":13231,"ĠPR":13232,"Ġmagnetic":13233,"Ġeverybody":13234,"Ġfeeding":13235,"azi":13236,"Ġswung":13237,"ĠBond":13238,"avian":13239,"!!":13240,"2013":13241,"Ã©l":13242,"ĠApoll":13243,"ĠKor":13244,"lected":13245,"Ġfires":13246,"Ġqualification":13247,"Ġobst":13248,"illes":13249,"Ġexh":13250,"ĠReed":13251,"Ġpotentially":13252,"Ġdefender":13253,"ÂłÂ°":13254,"Ġeventual":13255,"ĠMoreover":13256,"ĠYellow":13257,"iscopal":13258,"Ġhumor":13259,"Ġguided":13260,"Ġreservoir":13261,"ĠLess":13262,"Ġportions":13263,"arms":13264,"zh":13265,"ifier":13266,"Ġchat":13267,"ĠMcM":13268,"ĠAuckland":13269,"ĠSomers":13270,"Ġbesides":13271,"Ġ74":13272,"Any":13273,"Ġupdated":13274,"auer":13275,"Ġá":13276,"Ġfilling":13277,"Ġlayers":13278,"Ġsatisfied":13279,"Ġcurious":13280,"ĠUniverse":13281,"Ġnotion":13282,"Ġ1868":13283,"Ġcompass":13284,"ĠSecondary":13285,"Ġgifts":13286,"ĠAj":13287,"Ġreviewed":13288,"Ġmoderate":13289,"Ġassembled":13290,"Ġvow":13291,"Ġmanages":13292,"Ġitem":13293,"ĠNashville":13294,"ĠJoint":13295,"uate":13296,"ullah":13297,"ĠMap":13298,"Ġjealous":13299,"ĠMontgomery":13300,"ĠGrammy":13301,"Ġthread":13302,"ĠGrove":13303,"Ġprogressive":13304,"ĠPrice":13305,"Ġassessment":13306,"Ġstreams":13307,"Ġvulnerable":13308,"Ġawake":13309,"Ġclearing":13310,"ĠPlat":13311,"ĠCork":13312,"Ġbrut":13313,"Ġ1874":13314,"Ġ1866":13315,"ĠNine":13316,"caster":13317,"Ġexterior":13318,"ĠOblast":13319,"ocal":13320,"Ġindependently":13321,"etheless":13322,"1990":13323,"Ġ1873":13324,"Ġtourism":13325,"ĠZach":13326,"Ġtrips":13327,"Ġphosph":13328,"Ã±a":13329,"Ġrings":13330,"Ġkills":13331,"ĠCrime":13332,"ĠUSS":13333,"Ġtoll":13334,"Ġfindings":13335,"ĠDod":13336,"Ġrubbed":13337,"Ġraid":13338,"Ġtrio":13339,"igate":13340,"Ġprocedures":13341,"Ġliver":13342,"bet":13343,"ĠTrent":13344,"Ġfisher":13345,"ĠReading":13346,"adise":13347,"Ġvirtually":13348,"Ġcruel":13349,"ĠChang":13350,"Ġpossessed":13351,"ĠSyn":13352,"Ġbulk":13353,"Ġowns":13354,"ĠSask":13355,"ĠPav":13356,"Ġmartial":13357,"ĠLeft":13358,"Ġfract":13359,"Ġrequiring":13360,"Ġleagues":13361,"ĠGam":13362,"atha":13363,"Ġtemples":13364,"Ġfrown":13365,"ĠAnnie":13366,"ĠFig":13367,"Ġjoke":13368,"Red":13369,"Ġvaried":13370,"fecture":13371,"ĠMoz":13372,"Ġprofessionals":13373,"Ġbroadcasts":13374,"Ġregulation":13375,"Ġfears":13376,"ĠExam":13377,"ĠPalestine":13378,"Ġtouchdowns":13379,"ĠLiz":13380,"ĠLamb":13381,"Ġarray":13382,"ĠJoshua":13383,"ĠHalf":13384,"Ġinvolve":13385,"ĠRaf":13386,"Ġreads":13387,"imensional":13388,"acular":13389,"film":13390,"Ġ97":13391,"Ġheal":13392,"Ġhood":13393,"ĠSwan":13394,"Ġank":13395,"Ġprophe":13396,"Ġsciences":13397,"iao":13398,"Ġrunners":13399,"2004":13400,"BO":13401,"ĠCollection":13402,"ĠMD":13403,"agic":13404,"Ġautumn":13405,"ĠGate":13406,"gebra":13407,"Ġcivilians":13408,"Ġemerging":13409,"Ġhorizont":13410,"ĠPrimary":13411,"lived":13412,"opened":13413,"Ġenabled":13414,"Ġruins":13415,"ĠJunction":13416,"ĠEff":13417,"avi":13418,"Ġlocomotive":13419,"hl":13420,"ĠArabia":13421,"Ġreader":13422,"Ġseated":13423,"Ġorg":13424,"Ġbicy":13425,"ĪĴ":13426,"Ġridic":13427,"Ġcrystal":13428,"hole":13429,"Ġmarble":13430,"Ġabsorbed":13431,"Ġridge":13432,"Ġphenomenon":13433,"Ġseal":13434,"Ġenzyme":13435,"ĠFam":13436,"ĠSolomon":13437,"Ġske":13438,"Ġroutine":13439,"ĠBerg":13440,"ateral":13441,"pring":13442,"Ġkeyboard":13443,"Ġchapters":13444,"ĠJessica":13445,"Ġramp":13446,"yram":13447,"Ġdealt":13448,"ĠMTV":13449,"Ð°Ð½":13450,"Ġambassador":13451,"Ġmoll":13452,"ĠComputer":13453,"cur":13454,"Ġparticles":13455,"Ġ1877":13456,"Ġutter":13457,"ĠRhodes":13458,"minster":13459,"Ġmembr":13460,"ĠTuesday":13461,"ĠElementary":13462,"speaking":13463,"Ġdemocracy":13464,"ĠVermont":13465,"Ġimmigration":13466,"gov":13467,"Ġspat":13468,"idding":13469,"Ġsubstance":13470,"ĠAlbums":13471,"Ġferry":13472,"otted":13473,"Ġdevelopments":13474,"Ġrequirement":13475,"Ġwounds":13476,"âĢĺ":13477,"Ġcounted":13478,"ĠCraw":13479,"Ġhaul":13480,"ĠAmbassador":13481,"VP":13482,"uros":13483,"ĠAna":13484,"Have":13485,"Ġadvertis":13486,"Ġsolely":13487,"NC":13488,"ĠEllen":13489,"Ġprovisions":13490,"team":13491,"ĠEagle":13492,"Ġaccus":13493,"ĠVilla":13494,"Ġsimilarly":13495,"TE":13496,"ĠSatan":13497,"uli":13498,"Ġunderwent":13499,"ĠFoster":13500,"ĠAmazon":13501,"alysis":13502,"oshi":13503,"atta":13504,"Ġhandled":13505,"ĠVent":13506,"py":13507,"ĠArc":13508,"Ġswift":13509,"pin":13510,"Ġtender":13511,"ĠTalk":13512,"ĠProductions":13513,"Ġgasped":13514,"ĠGas":13515,"ĠMorning":13516,"Ġinstitute":13517,"Ġbinding":13518,"Ġpursued":13519,"Ġhurried":13520,"bot":13521,"Ġdrinks":13522,"arre":13523,"Ġ73":13524,"ications":13525,"Ġtransformation":13526,"atto":13527,"Ġexpanding":13528,"Ġnoting":13529,"erver":13530,"Ġdimin":13531,"Ġarmies":13532,"Ġsurely":13533,"Ġpicking":13534,"ĠEM":13535,"mented":13536,"Ġweigh":13537,"Ġrestrictions":13538,"ĠYugoslavia":13539,"Ġadvised":13540,"Ġrebels":13541,"arta":13542,"Ġaviation":13543,"ĠInterstate":13544,"uddy":13545,"ĠChan":13546,"Ġspokes":13547,"Ġcurtain":13548,"ĠApart":13549,"what":13550,"Ġphotographer":13551,"Ġproven":13552,"Ġdiscovers":13553,"ĠStein":13554,"ĠLead":13555,"ĠRus":13556,"mill":13557,"Ġtheatrical":13558,"Ġrealm":13559,"Ġampl":13560,"Station":13561,"Ġconsequence":13562,"arling":13563,"Ġcurve":13564,"Ġbills":13565,"ĠUncle":13566,"Ġcommunist":13567,"ĠCC":13568,"ĠBrah":13569,"Hello":13570,"isch":13571,"ĠPlanet":13572,"pic":13573,"speed":13574,"Ġburial":13575,"Ġstatistics":13576,"Ġsouls":13577,"Ġreserves":13578,"Ġconfron":13579,"Ġremn":13580,"itol":13581,"Ġglory":13582,"Ġinfection":13583,"ĠStarting":13584,"Ġsiblings":13585,"ĠPod":13586,"****":13587,"Ġfarmer":13588,"jud":13589,"vae":13590,"Ġsummon":13591,"Ġmaintains":13592,"Ġcriteria":13593,"ĠMiguel":13594,"Ġordained":13595,"Ġspan":13596,"Ġfaded":13597,"oland":13598,"eto":13599,"Ġvenues":13600,"Jan":13601,"Ġ71":13602,"comp":13603,"ĠVietnamese":13604,"ĠBennett":13605,"Ġhull":13606,"ĠMeg":13607,"makers":13608,"Ġenable":13609,"\"|":13610,"lining":13611,"ĠKas":13612,"Ġvariations":13613,"ĠJak":13614,"Ġrevival":13615,"ussion":13616,"Ġfung":13617,"Ġdug":13618,"ĠEss":13619,"Ġdiscipline":13620,"ocy":13621,"Ġtoile":13622,"Ġsurrend":13623,"Time":13624,"tz":13625,"itted":13626,"ĠWald":13627,"Ġranges":13628,"ĠLem":13629,"Ġsegments":13630,"Ġminimal":13631,"Ġloving":13632,"bery":13633,"entry":13634,"ĠTable":13635,"Ġdescended":13636,"cz":13637,"ĠFriends":13638,"Because":13639,"Ġpioneer":13640,"Ġartwork":13641,"Ġresting":13642,"Ġtossed":13643,"Ġathlete":13644,"pse":13645,"Ġreh":13646,"ĠKill":13647,"text":13648,"Ġsailing":13649,"Ġpour":13650,"ĠAnim":13651,"ĠShin":13652,"Ġdiscontinued":13653,"sole":13654,"Ġ1848":13655,"ĠMik":13656,"Ġsymbols":13657,"ME":13658,"Ġprotecting":13659,"ĠGuide":13660,"ĠDy":13661,"Pe":13662,"ĠBoulevard":13663,"ĠPerth":13664,"Ġhybrid":13665,"ĠSey":13666,"inae":13667,"Ġsolve":13668,"ĠSheriff":13669,"ĠRonald":13670,"ĠAviation":13671,"ĠHD":13672,"ĠAnglican":13673,"Ġbarrier":13674,"Ġtowers":13675,"Ġtrigger":13676,"Ġdivorced":13677,"munition":13678,"aca":13679,"ĠLaz":13680,"Ġfreight":13681,"Ġquoted":13682,"Ġredes":13683,"Ġ82":13684,"Ġexile":13685,"Ġgrain":13686,"Ġinvitation":13687,"Î¹":13688,"Ġpant":13689,"Ġunanim":13690,"ĠMam":13691,"ĠPrague":13692,"oints":13693,"ĠChelsea":13694,"itious":13695,"Ġwelfare":13696,"ĠFish":13697,"green":13698,"Ġscandal":13699,"ĠDin":13700,"align":13701,"Ġsomebody":13702,"ĠMaurice":13703,"Ġadopt":13704,"Ġmagical":13705,"rys":13706,"Ġtourists":13707,"ĠEC":13708,"byter":13709,"Ġinsects":13710,"Ġdatabase":13711,"ĠAcadem":13712,"Ġheadquarter":13713,"Ġimproving":13714,"ĠClarke":13715,"cano":13716,"borg":13717,"Ġbab":13718,"Ġcaf":13719,"ĠManager":13720,"Ġrestr":13721,"boys":13722,"Ġvolunt":13723,"ĠCaroline":13724,"second":13725,"ĠNad":13726,"ĠMoh":13727,"ĠDoug":13728,"ĠDame":13729,"ĠChuck":13730,"Some":13731,"Ġeaten":13732,"ilo":13733,"Ġintens":13734,"Ġapprent":13735,"ĠCommerce":13736,"esa":13737,"hyll":13738,"Ġmolecular":13739,"Ġfarms":13740,"ĠGand":13741,"ometown":13742,"Ġrede":13743,"Ġ1800":13744,"iblical":13745,"Ġsenses":13746,"Ġsoci":13747,"Ġsnake":13748,"Ġbast":13749,"imen":13750,"Ġrang":13751,"hell":13752,"Ġdiesel":13753,"Ġwash":13754,"Ġtargeted":13755,"ente":13756,"Ġdefine":13757,"Ġrelaxed":13758,"Ġillustrated":13759,"Ġincl":13760,"Ġcirculation":13761,"Ġleaning":13762,"Ġliteracy":13763,"Ġadvocate":13764,"ablo":13765,"Ġwashed":13766,"Ġbreed":13767,"Ġsilently":13768,"backs":13769,"ĠBach":13770,"ĠNorthwest":13771,"fold":13772,"Ġbuying":13773,"ĠFranÃ§":13774,"Ġengineers":13775,"Ġproportion":13776,"osophical":13777,"Ġtransported":13778,"ĠFul":13779,"ocity":13780,"Ġhunt":13781,"Ġspecialist":13782,"Ġoak":13783,"ĠApost":13784,"Ġfake":13785,"ambling":13786,"Ġprincess":13787,"Ġprivately":13788,"Ġreferend":13789,"Ġprelim":13790,"Ġrevol":13791,"ĠFlight":13792,"ĠConservation":13793,"Ġrage":13794,"Ġ1869":13795,"ĠEconomics":13796,"Ġdiversity":13797,"aukee":13798,"ĠAnti":13799,"Ġcathedral":13800,"Ġcolours":13801,"Ġblanket":13802,"Ġhier":13803,"Ġdoctrine":13804,"Ġwidth":13805,"Ġenjoying":13806,"Ġinterface":13807,"Ġconsent":13808,"ĠDim":13809,"ĠHMS":13810,"sted":13811,"ĠContemporary":13812,"ĠJill":13813,"Ġconsideration":13814,"ĠBuddh":13815,"Ġemail":13816,"ĠSudan":13817,"Ġobey":13818,"swick":13819,"ĠDiamond":13820,"ymph":13821,"ounters":13822,"ĠPick":13823,"ĠTransportation":13824,"Ġpanels":13825,"ĠDerek":13826,"ĠTwitter":13827,"Ġavoided":13828,"becca":13829,"Ġtributary":13830,"ĠPanama":13831,"ĠScout":13832,"ĠKol":13833,"Ġanthrop":13834,"ĠLiu":13835,"umbai":13836,"Ġtreas":13837,"ÉĻ":13838,"edia":13839,"Ġ1830":13840,"Ġultimate":13841,"oj":13842,"ĠTong":13843,"ĠLak":13844,"ĠNAS":13845,"ĠThings":13846,"Ġclo":13847,"Ġreflection":13848,"ĠKash":13849,"Ġconflicts":13850,"Ġwarfare":13851,"tingham":13852,"ĠBag":13853,"Ġprompted":13854,"Ġwarrior":13855,"itus":13856,"Ġcompat":13857,"Ġstranger":13858,"ĠAhmed":13859,"riages":13860,"ĠCut":13861,"Ġtransit":13862,"Ġhandful":13863,"ĠMiles":13864,"Ġdorm":13865,"ĠProm":13866,"Ġincom":13867,"atorial":13868,"ĠAltern":13869,"half":13870,"Ġterrain":13871,"Ġministers":13872,"LP":13873,"ĠCabinet":13874,"Ġremoving":13875,"Ġarguing":13876,"ĠEthan":13877,"Ġov":13878,"Ġacquire":13879,"Te":13880,"ellers":13881,"ĠDuncan":13882,"Ġassured":13883,"ĠÑģ":13884,"Ġmuttered":13885,"Ġ92":13886,"Co":13887,"Ang":13888,"apur":13889,"IF":13890,"ĠWend":13891,"ĠThunder":13892,"ĠLouise":13893,"Ġorph":13894,"Ġlifestyle":13895,"Ġstability":13896,"fol":13897,"sche":13898,"ĠSaskat":13899,"ĠIndies":13900,"orey":13901,"ections":13902,"edge":13903,"Ġrust":13904,"Ġauthorized":13905,"Ġirrit":13906,"ĠLily":13907,"Ġcartoon":13908,"Ġimagination":13909,"Ġaggressive":13910,"600":13911,"ĠTir":13912,"2001":13913,"2014":13914,"Ġchoices":13915,"ĠAw":13916,"Int":13917,"sts":13918,"Ġslammed":13919,"ĠKerala":13920,"Ġdrives":13921,"ĠCardinal":13922,"Ġallegedly":13923,"Ġintim":13924,"ĠCeltic":13925,"Ġauthent":13926,"Ġgoddess":13927,"Ã¼n":13928,"Ġsafely":13929,"ĠPand":13930,"Ġmorph":13931,"ĠAlpha":13932,"ungle":13933,"ĠGolf":13934,"Ġauction":13935,"Ġelderly":13936,"Ġcollecting":13937,"boro":13938,"reeze":13939,"uba":13940,"imo":13941,"atra":13942,"ĠStakes":13943,"Nov":13944,"ĠSullivan":13945,"Ġreactions":13946,"Ġmanufacturers":13947,"ĠDylan":13948,"ĠJacques":13949,"ĠBrid":13950,"Ġcheap":13951,"ultural":13952,"Ġsunk":13953,"ĠMartha":13954,"ĠWag":13955,"Ġidentification":13956,"haus":13957,"ĠMull":13958,"colm":13959,"istani":13960,"Ġya":13961,"ĠLiberty":13962,"Ġblues":13963,"ĠRepresentative":13964,"Ġcreek":13965,"ĠLooking":13966,"Ġflames":13967,"ĠKid":13968,"alties":13969,"ĠVladimir":13970,"Ġgoverning":13971,"ĠDevon":13972,"Ġartif":13973,"Ġgrants":13974,"ĠRan":13975,"andra":13976,"ĠWilhelm":13977,"Ġgrid":13978,"ansk":13979,"central":13980,"ĠArmed":13981,"Ġpredict":13982,"ĠKab":13983,"ĠBeaut":13984,"Ġpatch":13985,"Ġpursuit":13986,"ittees":13987,"2015":13988,"Ġpistol":13989,"ĠBuc":13990,"Ġbanking":13991,"ĠKnights":13992,"ĠLA":13993,"Ġsixty":13994,"Ġsteal":13995,"rina":13996,"Ġaccent":13997,"Ġstreak":13998,"ding":13999,"Ġclergy":14000,"ategory":14001,"rying":14002,"ĠClaud":14003,"Ġeditorial":14004,"ĠColumbus":14005,"umni":14006,"Ġpunch":14007,"rav":14008,"Ġinstructed":14009,"Ġquantum":14010,"Mon":14011,"Ġrepeat":14012,"Ġappreciate":14013,"Ġanimation":14014,"ĠDale":14015,"Ġsearched":14016,"Ġinhabited":14017,"ĠHamburg":14018,"ĠFourth":14019,"Ġgraphics":14020,"Ġpsychiat":14021,"ÅĤaw":14022,"selling":14023,"Ġgenerate":14024,"Ġwarr":14025,"ĠFinancial":14026,"Ġtopped":14027,"Ġcentres":14028,"ĠSof":14029,"Ġpav":14030,"ĠTree":14031,"ĠKi":14032,"ĠBun":14033,"ĠHeath":14034,"ĠRailways":14035,"Ġsymmet":14036,"ĠTax":14037,"Ġcanon":14038,"ĠRif":14039,"Ġpub":14040,"Ġnomine":14041,"ichi":14042,"ĠKun":14043,"ĠNone":14044,"hev":14045,"Ġexport":14046,"Ġweakness":14047,"cul":14048,"Ġrape":14049,"Ġtang":14050,"Ġenlisted":14051,"umberland":14052,"Ġrested":14053,"ĠFriedrich":14054,"Ġremix":14055,"ĠPi":14056,"Ġcommentary":14057,"ĠNak":14058,"ĠEdmund":14059,"ĠGiov":14060,"Ed":14061,"hop":14062,"ĠMang":14063,"Ġdetective":14064,"ĠGospel":14065,"ĠPunjab":14066,"page":14067,"ĠTradition":14068,"ĠWals":14069,"Ġdecrease":14070,"ĠWorkers":14071,"Ġfatal":14072,"ĠNC":14073,"2003":14074,"tw":14075,"waukee":14076,"ulture":14077,"ĠGothic":14078,"Ġinvestors":14079,"Ġports":14080,"furt":14081,"zens":14082,"onaut":14083,"Ġslavery":14084,"ĠArtillery":14085,"March":14086,"ĠIndonesian":14087,"Ġshame":14088,"Ġparked":14089,"ĠSuff":14090,"Ġpine":14091,"ĠCox":14092,"othe":14093,"Ġrivals":14094,"ĠRevival":14095,"ĠStudent":14096,"Ġhometown":14097,"Ġclerk":14098,"Ġthesis":14099,"ewise":14100,"eting":14101,"ĠAgriculture":14102,"Ġbol":14103,"Ġmetropolitan":14104,"arette":14105,"este":14106,"Ġdubbed":14107,"Aust":14108,"ĠAirlines":14109,"Ġlos":14110,"Ġlawsuit":14111,"rost":14112,"Ġprecious":14113,"Ġoverwhelming":14114,"Ġaccomplish":14115,"Ġdenomin":14116,"senal":14117,"Ġmentions":14118,"ĠRenaissance":14119,"Ġaudiences":14120,"ĠEnvironmental":14121,"ĠChronic":14122,"Ġintegration":14123,"Ġaest":14124,"erves":14125,"Ġunlikely":14126,"brook":14127,"GM":14128,"inyl":14129,"South":14130,"path":14131,"cience":14132,"Ġtune":14133,"ĠAunt":14134,"Ġignore":14135,"Ġinscription":14136,"arten":14137,"asse":14138,"ĠCel":14139,"Ġthy":14140,"ĠMcL":14141,"they":14142,"Ġmature":14143,"Ġdiscrimination":14144,"Ġjournals":14145,"kan":14146,"Ġneighbouring":14147,"ubble":14148,"ĠCircle":14149,"Ùİ":14150,"ĠPrivate":14151,"Ġammunition":14152,"ĠPage":14153,"Ġjumping":14154,"Ġirregular":14155,"ĠGhost":14156,"Ġtouching":14157,"Ġfairy":14158,"ĠInv":14159,"Ġunemploy":14160,"ĠCrystal":14161,"aneous":14162,"ĠPam":14163,"ĠOF":14164,"ĠMidd":14165,"Ġenlar":14166,"Ġjeans":14167,"ĠHerm":14168,"irling":14169,"ĠSally":14170,"Ġaster":14171,"Ġduration":14172,"ĠWriting":14173,"actic":14174,"Ġuncomfortable":14175,"Ġflooding":14176,"oving":14177,"Ġfossil":14178,"elyn":14179,"Ġtorture":14180,"ĠLiam":14181,"Ġmock":14182,"Ġswallowed":14183,"Ġ93":14184,"omatic":14185,"ĠEssex":14186,"Ġpublish":14187,"stop":14188,"ĠCDP":14189,"Ġdistinguish":14190,"%),":14191,"Ġprototype":14192,"mind":14193,"asan":14194,"Ġcurriculum":14195,"ĠJamaica":14196,"August":14197,"Ġdisappointed":14198,"there":14199,"Ġwelcom":14200,"ĠLegend":14201,"ogg":14202,"hibition":14203,"insky":14204,"Ġarbit":14205,"Ġpacked":14206,"ĠGerald":14207,"ĠSlav":14208,"quarters":14209,"had":14210,"Ġhasn":14211,"Ġfare":14212,"Ġinch":14213,"Ġwise":14214,"Ġconjunction":14215,"Ġvarying":14216,"ĠPalestinian":14217,"ĠAbdul":14218,"Ġglow":14219,"TH":14220,"Ġrevolutionary":14221,"roying":14222,"Ġexhausted":14223,"ĠProvincial":14224,"Ġlectures":14225,"ĠSter":14226,"headed":14227,"Ġconducting":14228,"Ġrepublic":14229,"Ġpainful":14230,"Ġwarriors":14231,"Ġbio":14232,"Ġthreatening":14233,"Ġcleaning":14234,"ĠFranz":14235,"ĠMumbai":14236,"Ġcommanding":14237,"alymp":14238,"Conn":14239,"rowing":14240,"shore":14241,"ĠRut":14242,"Ġ101":14243,"Ġblast":14244,"mid":14245,"ecraft":14246,"ĠSomerset":14247,"ĠBryan":14248,"Ġpipe":14249,"2002":14250,"Ġdense":14251,"Ġadequ":14252,"Ġaunt":14253,"Ġimper":14254,"Ġ81":14255,"Ġoral":14256,"Ġ87":14257,"ovsky":14258,"Ġknight":14259,"Ġpleasant":14260,"shot":14261,"Ġanchor":14262,"somet":14263,"onso":14264,"Ġbout":14265,"Ġdrawings":14266,"Ġaltar":14267,"ĠFuture":14268,"ĠLegion":14269,"dimensional":14270,
[...]
