[UNK]
[SEP]
[CLS]
[PAD]
[MASK]
!
"
#
$
%
&
'
(
)
*
+
,
-
.
/
0
1
2
3
4
5
6
7
8
9
:
;
<
=
>
?
@
A
B
C
D
E
F
G
H
I
J
K
L
M
N
O
P
Q
R
S
T
U
V
W
X
Y
Z
[
\
]
^
_
`
a
b
c
d
e
f
g
h
i
j
k
l
m
n
o
p
q
r
s
t
u
v
w
x
y
z
{
|
}
~
¡
¢
£
¥
§
¨
©
ª
«
¬
®
°
±
²
³
´
µ
·
¹
º
»
¼
½
¾
¿
Æ
×
Ø
Þ
ß
æ
ð
ø
þ
Đ
đ
Ħ
ħ
ı
Ł
ł
ŋ
Œ
œ
Ə
ƒ
ɑ
ɔ
ə
ɛ
ɨ
ɪ
ʃ
ʔ
ʰ
ʷ
ʻ
ʼ
ʽ
ʾ
ʿ
ˈ
ː
˚
Α
Β
Γ
Δ
Ε
Η
Θ
Ι
Κ
Λ
Μ
Ν
Ο
Π
Ρ
Σ
Τ
Υ
Φ
Χ
Ψ
Ω
α
β
γ
δ
ε
ζ
η
θ
ι
κ
λ
μ
ν
ξ
ο
π
ρ
ς
σ
τ
υ
φ
χ
ψ
ω
І
А
Б
В
Г
Д
Е
Ж
З
И
К
Л
М
Н
О
П
Р
С
Т
У
Ф
Х
Ц
Ч
Ш
Э
Ю
Я
а
б
в
г
д
е
ж
з
и
к
л
м
н
о
п
р
с
т
у
ф
х
ц
ч
ш
щ
ъ
ы
ь
э
ю
я
є
ѕ
і
ј
њ
ћ
ғ
Қ
қ
ң
ү
ұ
ҳ
ә
ө
ա
ե
ի
կ
մ
յ
ն
ո
ս
տ
ր
ւ
א
ב
ג
ד
ה
ו
ז
ח
ט
י
ך
כ
ל
ם
מ
ן
נ
ס
ע
פ
צ
ק
ר
ש
ת
،
ء
ا
ب
ة
ت
ث
ج
ح
خ
د
ذ
ر
ز
س
ش
ص
ض
ط
ظ
ع
غ
ـ
ف
ق
ك
ل
م
ن
ه
و
ى
ي
پ
چ
ک
گ
ں
ھ
ہ
ی
ے
ः
अ
आ
इ
उ
ए
औ
क
ख
ग
च
ज
ट
ठ
ड
ण
त
थ
द
ध
न
प
फ
ब
भ
म
य
र
ल
व
श
ष
स
ह
ा
ि
ी
ो
ौ
।
ং
অ
আ
ই
উ
এ
ও
ক
খ
গ
চ
ছ
জ
ট
ড
ণ
ত
থ
দ
ধ
ন
প
ব
ভ
ম
য
র
ল
শ
ষ
স
হ
া
ি
ী
ে
ਕ
ਰ
ਸ
ਾ
ਿ
ੀ
ા
அ
க
ங
ச
ட
ண
த
ந
ன
ப
ம
ய
ர
ற
ல
ள
ழ
வ
ா
ி
ு
ெ
ே
ை
న
ర
ల
ు
ಕ
ದ
ನ
ಮ
ರ
ಲ
ವ
ಾ
ು
ം
ക
ട
ത
ന
പ
മ
യ
ര
ല
വ
ാ
ി
േ
ක
ත
ද
න
ම
ය
ර
ල
ව
ස
ා
ෙ
ก
ข
ค
ง
จ
ช
ด
ต
ท
น
บ
ป
พ
ม
ย
ร
ล
ว
ศ
ส
ห
อ
ะ
า
ำ
เ
แ
โ
ไ
ກ
ງ
ດ
ນ
ວ
ອ
ະ
າ
ເ
་
က
င
တ
န
ပ
မ
ရ
သ
အ
ာ
ေ
း
ျ
ြ
ა
ე
ი
ლ
ნ
ო
რ
ს
ᄀ
ᄂ
ᄃ
ᄅ
ᄆ
ᄇ
ᄉ
ᄋ
ᄌ
ᄎ
ᄏ
ᄐ
ᄑ
ᄒ
ᅡ
ᅢ
ᅣ
ᅥ
ᅦ
ᅧ
ᅩ
ᅪ
ᅬ
ᅭ
ᅮ
ᅯ
ᅲ
ᅳ
ᅴ
ᅵ
ᆨ
ᆫ
ᆯ
ᆷ
ᆸ
ᆼ
᾽
‐
‑
‒
–
—
―
‘
’
‚
“
”
„
†
‡
•
…
‰
′
″
‹
›
₤
₪
€
₱
₹
ℓ
№
™
⅓
⅔
↑
→
∂
∆
∈
−
∞
≈
≡
≤
≥
⊆
⋅
═
■
●
★
☆
♥
♦
♭
♯
⟨
⟩
、
。
《
》
い
う
か
き
こ
し
す
た
て
と
な
に
の
は
ま
ら
り
る
ん
ア
イ
カ
キ
ク
コ
サ
シ
ス
タ
ッ
テ
ト
ハ
フ
マ
ラ
リ
ル
レ
ロ
ン
・
ー
一
三
上
下
不
世
东
个
中
为
主
之
九
也
乡
了
事
二
五
些
京
人
仁
他
代
令
以
们
会
何
作
你
使
來
侍
侯
保
信
個
們
元
光
入
全
八
公
出
分
利
到
前
劉
力
化
北
区
十
华
南
博
原
去
口
古
可
台
史
司
合
吉
同
名
后
告
周
命
和
四
回
因
国
國
在
地
城
基
堂
士
外
多
大
天
太
夫
女
她
好
如
子
字
学
學
守
安
宗
定
宣
宮
家
寺
將
對
小
少
尚
就
山
川
州
工
己
市
帝
師
常
平
年
建
式
张
張
很
得
德
心
志
忠
思
情
想
意
愛
成
我
所
手
放
政
教
文
新
方
日
昌
明
星
春
昭
是
時
景
曲
書
會
月
有
木
本
朱
李
村
来
東
林
果
校
梁
楊
樂
歌
正
武
氏
民
水
永
江
河
法
流
海
清
港
灵
為
無
物
玉
王
理
生
用
田
界
白
百
的
皇
相
省
看
真
知
石
社
神
福
科
空
立
章
第
經
縣
羅
美
義
者
而
耶
聖
胡
能
自
與
興
花
英
華
行
街
被
西
要
言
記
語
說
起
路
身
軍
这
這
通
進
道
那
邪
郎
郡
部
都
里
重
野
金
镇
長
門
開
阿
限
院
陳
陵
陽
集
靈
青
面
音
香
馬
高
黃
黄
龍
龙
ꞌ
ﬁ
（
）
，
：
～
##e
##s
##l
##r
##o
##a
##d
##m
##i
##n
##g
##h
##c
##w
##t
##y
##z
##5
##F
##u
##k
##v
##p
##b
##N
##Y
##M
##j
##f
##x
##о
##р
##а
##б
##л
##е
##в
##R
##7
##3
##4
##8
##D
##O
##B
##X
##ß
##V
##I
##S
##у
##с
##η
##τ
##α
##ι
##и
##ү
##г
##ө
##P
##E
##L
##ø
##2
##A
##ы
##м
##з
##ı
##G
##H
##C
##1
##Q
##J
##ł
##地
##方
##不
##會
##是
##相
##同
##了
##ᅡ
##ᆼ
##ᄌ
##ᅵ
##ᆸ
##ғ
##т
##п
##9
##0
##U
##ட
##ந
##த
##ா
##ல
##ு
##ம
##غ
##ا
##م
##σ
##ρ
##ο
##κ
##υ
##ς
##×
##д
##н
##к
##ண
##ே
##ள
##ெ
##ர
##வ
##ன
##ि
##6
##K
##ν
##°
##ð
##त
##प
##र
##च
##ा
##न
##і
##ч
##Z
##ə
##ж
##ю
##щ
##W
##T
##ь
##म
##ल
##य
##व
##स
##事
##三
##代
##主
##א
##ר
##ט
##ל
##ш
##ม
##ب
##э
##ʻ
##я
##כ
##ן
##ش
##ت
##®
##ر
##خ
##ة
##−
##q
##ʿ
##光
##明
##क
##ष
##ो
##多
##我
##的
##愛
##這
##世
##界
##和
##生
##式
##果
##你
##র
##ন
##থ
##ে
##五
##都
##入
##新
##去
##教
##学
##中
##流
##イ
##ス
##ᅩ
##ᄉ
##ᆫ
##ն
##ե
##ի
##μ
##ε
##و
##な
##き
##ら
##い
##可
##子
##書
##đ
##年
##月
##日
##ә
##ң
##ѕ
##經
##ʔ
##ᆨ
##ᄋ
##ᅯ
##ي
##س
##ع
##村
##х
##ه
##ی
##ل
##通
##天
##好
##ط
##ق
##ப
##க
##江
##乡
##ʾ
##ɛ
##ŋ
##қ
##π
##λ
##白
##າ
##ນ
##對
##在
##这
##景
##下
##而
##就
##会
##ण
##常
##一
##の
##言
##梁
##ב
##ח
##œ
##ি
##চ
##ছ
##מ
##ה
##ա
##կ
##ᆯ
##ᄇ
##ᅧ
##द
##ध
##श
##ी
##州
##ɪ
##ω
##´
##د
##گ
##ن
##ਿ
##ਾ
##½
##Λ
##女
##王
##ﬁ
##ະ
##ດ
##ζ
##া
##ড
##ল
##ˈ
##ː
##無
##東
##北
##個
##ұ
##О
##М
##У
##們
##所
##要
##學
##門
##之
##法
##與
##γ
##ः
##™
##那
##些
##人
##理
##真
##陵
##æ
##ᄅ
##ᄎ
##ᅢ
##ו
##ת
##文
##ص
##י
##ג
##ם
##χ
##海
##大
##ъ
##ை
##ய
##ங
##ி
##少
##ক
##ত
##ব
##য
##来
##到
##十
##字
##前
##ᅥ
##ᄂ
##ᄀ
##ᅳ
##ᄃ
##力
##ج
##ह
##神
##有
##正
##ɑ
##田
##二
##Δ
##Σ
##ज
##ى
##ξ
##以
##他
##開
##放
##得
##自
##工
##ذ
##ր
##ւ
##մ
##ц
##ʽ
##寺
##ф
##ע
##们
##上
##に
##か
##ア
##テ
##ද
##ය
##න
##ස
##ෙ
##ල
##ා
##Е
##Р
##А
##נ
##פ
##ハ
##ත
##カ
##ト
##Π
##Ο
##Τ
##Υ
##Χ
##Ι
##Α
##～
##ง
##อ
##ย
##ए
##ต
##ส
##บ
##ร
##β
##ವ
##ದ
##百
##花
##社
##ᅮ
##キ
##ف
##њ
##ರ
##ʼ
##Т
##เ
##ว
##ท
##ك
##ј
##利
##為
##ა
##ნ
##რ
##ი
##分
##খ
##基
##金
##林
##郎
##德
##福
##ট
##ও
##山
##川
##²
##³
##¹
##ɔ
##合
##港
##区
##δ
##ψ
##θ
##た
##ز
##ہ
##街
##ই
##յ
##說
##京
##শ
##ী
##ग
##西
##將
##軍
##♭
##थ
##太
##宗
##ड
##ค
##จ
##ห
##น
##ᆷ
##ᅦ
##里
##面
##知
##道
##ד
##帝
##国
##本
##る
##黃
##四
##來
##ᄒ
##º
##身
##ק
##皇
##行
##龙
##耶
##名
##阿
##羅
##ル
##Ε
##Κ
##Ν
##Ω
##元
##小
##民
##为
##想
##回
##家
##≈
##♥
##ʷ
##高
##堂
##原
##史
##ന
##ম
##ণ
##ำ
##長
##し
##ん
##河
##師
##水
##集
##©
##石
##化
##限
##公
##司
##ש
##と
##告
##±
##ા
##镇
##リ
##シ
##ラ
##マ
##ब
##り
##夫
##ᅴ
##ट
##☆
##भ
##仁
##は
##て
##צ
##ך
##ಮ
##命
##ɨ
##ე
##ს
##ء
##⅓
##黄
##Ц
##К
##¬
##春
##东
##星
##ර
##φ
##ƒ
##起
##也
##ロ
##ッ
##サ
##能
##心
##ਕ
##ਰ
##ੀ
##տ
##ث
##南
##দ
##ാ
##വ
##മ
##ട
##യ
##ി
##ര
##ക
##ല
##ം
##پ
##尚
##ז
##華
##ಾ
##ನ
##ು
##進
##曲
##英
##ก
##า
##ด
##院
##安
##ま
##こ
##フ
##ー
##志
##ศ
##ᄐ
##ᅬ
##¢
##ම
##立
##ո
##思
##使
##个
##八
##Ф
##聖
##語
##ర
##ు
##空
##科
##省
##樂
##ల
##馬
##ᄆ
##守
##者
##И
##令
##興
##路
##校
##因
##成
##時
##台
##博
##物
##জ
##ס
##用
##ᅲ
##清
##ћ
##ʃ
##ン
##স
##美
##इ
##重
##ო
##¨
##є
##野
##ষ
##Æ
##古
##ლ
##᾽
##ற
##信
##ʰ
##出
##ꞌ
##ض
##看
##ะ
##แ
##С
##Д
##ᄑ
##€
##ک
##ھ
##Φ
##灵
##う
##す
##ظ
##В
##พ
##邪
##國
##武
##ौ
##ख
##ク
##タ
##コ
##レ
##£
##ᅭ
##Б
##ச
##ಲ
##П
##陽
##如
##忠
##ħ
##Ø
##˚
##侯
##被
##手
##木
##ভ
##士
##ᄏ
##പ
##ວ
##玉
##င
##က
##ြ
##န
##吉
##ป
##ไ
##靈
##ᅪ
##平
##ล
##章
##縣
##部
##Η
##情
##প
##義
##چ
##¾
##★
##þ
##ҳ
##โ
##城
##第
##作
##→
##¼
##九
##定
##李
##歌
##ح
##政
##氏
##ठ
##口
##很
##侍
##华
##Β
##ກ
##音
##香
##ս
##І
##ழ
##Н
##市
##保
##宣
##হ
##Л
##≤
##ᅣ
##記
##全
##昌
##建
##⋅
##意
##何
##ข
##ช
##龍
##ව
##ത
##േ
##后
##গ
##∆
##ধ
##ª
##Ш
##Ю
##張
##ာ
##သ
##တ
##ಕ
##宮
##Ρ
##ေ
##ක
##Θ
##外
##उ
##ـ
##¥
##郡
##ਸ
##№
##≥
##己
##Ψ
##周
##青
##她
##ပ
##ရ
##Ł
##ℓ
##永
##း
##ں
##陳
##Μ
##µ
##₤
##ເ
##Я
##Г
##న
##昭
##∞
##Э
##⅔
##张
##З
##आ
##फ
##∂
##≡
##উ
##ျ
##မ
##Х
##အ
##●
##ے
##朱
##↑
##ং
##♯
##Ч
##Γ
##胡
##ອ
##∈
##■
##ງ
##楊
##Ж
##₹
##Ħ
##Đ
##அ
##Þ
##₪
##♦
##Ə
##अ
##₱
##劉
##Қ
##═
##Œ
##আ
##⊆
##অ
##এ
##औ
##he
##er
the
##in
##ed
##on
##nd
##at
##or
##es
##en
##ar
##an
of
in
##al
##ing
##it
##is
##ou
##as
and
to
##ic
##re
##ion
##om
##el
##il
th
##ent
##le
##st
##ad
was
##am
##et
##ac
##ec
##ol
##ur
##ot
##ow
The
on
##ly
##id
for
##ut
##ir
##iv
##ig
is
##ay
as
st
##ro
##im
##ter
##ith
be
##ation
##em
with
##ch
that
wh
##ver
he
##us
al
re
##ul
19
at
an
##ers
##and
it
##ce
his
##her
##av
##os
fr
by
##th
##ag
##ct
##ain
con
20
##ist
##ld
##est
##od
##um
##op
##ess
##un
from
##ill
com
##ri
##igh
##ap
##ak
##oc
##ab
In
##ear
her
##art
##all
##our
##if
##ew
or
##ate
##ard
pro
##ity
##ant
##se
He
de
##ud
##gh
se
##ies
are
su
##ber
##ere
##ort
##pp
sh
had
ch
ex
##ore
##ich
pl
##rou
##ell
##ight
were
##ould
you
##ive
##ated
##ect
##ave
pr
##ust
not
##ge
##nt
##ov
##ack
##ok
##ong
##ian
##ia
##ip
##ast
St
##ame
sp
tr
le
Ch
201
##ally
##ment
##ie
It
##ep
##ary
##out
##ost
she
but
##ome
which
##ine
whe
##ue
wor
##own
have
##ous
cl
me
int
ab
Th
##ish
##ub
200
comp
##so
this
##hed
##ial
##og
up
##ions
out
all
##ord
##qu
one
go
him
their
##ra
##ther
ar
##ure
fir
has
##ik
##ry
##ide
##age
##ff
##per
who
##uc
##mer
also
inc
en
##ass
##fter
they
##ice
##ime
we
kn
##ound
##iz
cont
##ace
rec
##ire
first
##ind
##one
##ond
tw
res
man
##cc
ag
##ook
18
do
##ans
##pt
un
##oll
ad
us
##ach
##ical
##act
ne
##ign
##ater
##ence
sa
##ough
##ang
been
Al
##erv
its
part
year
##ru
my
##end
would
##ree
off
##rit
Un
##ount
##ember
over
##mp
into
rel
bec
##ric
app
She
other
##ib
##ance
so
can
sc
##ile
##ely
##ark
two
##ition
##ade
time
##ake
##orn
##ens
##orm
##ult
##ations
per
##ose
them
##amp
ev
play
dis
##urn
##ild
work
##lud
##old
##way
gr
##oin
##nder
##ail
##ents
##ction
##ood
##ory
##ool
when
##ick
after
##ite
##able
rep
##ied
about
##wn
##land
##ational
##ike
##oy
##ted
Ar
##rough
more
##ath
there
As
te
##ock
includ
br
##ings
Fr
On
##are
##ward
##les
##ates
##ng
##00
##tern
##fer
##uring
des
##man
##iss
back
199
##ob
##anc
##we
comm
##ey
##round
said
##other
##ited
##ts
##ased
##ors
again
##ase
qu
##ons
new
some
then
##ubl
only
Mar
under
##ious
pre
did
could
##eld
fl
##ev
att
##ft
##ug
##aw
bl
fe
##ress
co
##chool
pe
Wh
##aus
##fore
bet
##ank
##gan
##oth
##hip
sec
where
exp
will
through
##ily
##ah
##air
no
any
like
This
##ivers
##form
##reat
serv
sm
what
fin
ro
Le
bu
##led
New
##pen
##ink
##elf
##res
form
##hn
ele
act
cons
##als
rem
made
loc
##ont
##vel
##enc
##ered
##ollow
##au
Com
198
than
years
##ason
##io
##ery
##ished
##outh
imp
##ife
most
ear
before
ind
ret
reg
look
##te
found
##tle
just
##ince
dec
##ople
##rib
##duc
mov
Amer
Sh
Americ
if
am
##ather
##ting
inter
##hen
##ouse
fam
##ween
##ilm
ass
ever
cent
day
call
ac
col
##oun
down
acc
##hes
##ork
stud
end
##eth
##ix
##az
You
##ating
197
##ever
Sp
An
sub
follow
between
three
know
##eg
hand
your
##eb
now
##ning
##ict
publ
##red
##ual
team
##ular
They
Br
being
such
people
##ral
##ener
well
##olog
Jo
get
##ton
car
head
##ss
during
##ision
##orth
##up
##ement
##ram
##ics
spec
##alk
pres
##ause
##oot
later
##du
used
second
sy
dist
long
pol
own
##ived
##oss
##ek
##ful
##any
##ve
film
num
sur
though
##roup
##ters
how
##ific
##ities
196
##ower
##ise
##ier
##ten
##ative
sl
set
##ject
while
inv
##iet
may
##aj
##ames
##iversity
At
##ann
def
##vern
known
many
##erm
And
##ale
supp
around
##ty
unt
rele
pop
Ind
way
##ash
start
ph
school
We
lar
against
##tain
17
##ept
became
want
str
mus
##uch
prov
For
##aking
##son
##ently
gu
open
four
##irect
min
There
season
both
Col
right
bel
Is
dr
##ull
until
##ope
Cl
##pr
trans
10
His
##emb
American
##ball
##ried
United
Sc
After
ser
see
inst
add
show
Pr
##its
even
##ield
lead
##ury
##ually
##und
194
dif
##ident
##ove
every
##ines
##iver
born
count
##enn
How
##ures
May
high
University
cr
including
##ounc
##xt
##ern
sign
##ober
char
##ized
record
writ
##der
Tr
##app
art
family
##ina
name
##ars
Pro
mon
##iew
##ross
sing
##ley
ob
##uck
15
##ins
appear
##urned
##ists
same
195
John
16
ins
som
Eng
these
cre
run
##ange
mat
##elp
group
##erson
took
##ional
still
##bum
lit
##urch
called
mar
##iam
need
say
contr
##inc
##eng
old
air
ask
cap
##ible
main
All
##imes
life
med
dep
##iving
##ll
ey
est
##ained
##une
##stem
##amed
sever
contin
12
##osed
##igin
im
##ism
##velop
##augh
because
build
##arm
##ives
number
album
##ved
direct
par
place
##rict
##els
develop
Bl
##ised
##yp
comple
Jan
##uth
Con
mod
child
near
cur
##ote
left
poin
##0s
##arr
##ural
each
But
oper
##uss
Comm
##get
Ad
wom
disc
won
##ague
##ys
make
##ven
##ner
world
##cept
don
pass
##ird
small
much
gener
##ax
ext
id
elect
Wor
##aving
##ron
##vernment
began
rece
very
our
area
##ister
use
resp
gl
##ution
##over
Gr
##ene
##ody
##ling
house
song
##ided
last
help
home
Ph
played
Ger
since
think
conc
should
arm
released
##self
##ble
Or
World
book
several
193
##ady
origin
States
offic
win
##ired
##ex
##rop
Car
ann
Aust
prog
met
##rist
##ulation
Be
bo
##ute
Can
bre
##ued
care
differ
along
design
11
good
##ues
sim
system
Ju
hist
National
##ains
##ret
those
##ants
const
##ility
##ourn
city
##ially
ent
##ured
Her
var
##aced
No
series
game
another
Brit
perform
##rap
away
Count
eff
land
didn
take
held
##wards
When
cour
##ient
class
colle
rest
came
early
town
##sp
state
000
arr
following
##ched
##ren
##ior
##ital
music
##ected
real
going
produ
Nov
##by
never
prom
##ission
##ets
Dec
##ajor
public
Aug
feat
##orp
##uary
##ane
##ged
inf
##ying
War
##ared
here
##ilt
##ness
14
Pl
em
School
foot
South
wr
##ruct
##fess
##lish
ve
person
13
192
few
##ately
bus
August
##ke
##ection
join
side
##ai
sk
organ
##vent
partic
What
German
Sept
based
##ows
Am
occ
former
Oct
##oci
ref
che
commun
went
sw
##ple
September
too
March
##ung
##ium
Ge
##ages
##ipp
stand
January
June
##pl
Eur
191
eyes
##ments
support
##ience
##ices
government
##att
war
##iness
##hern
October
##ert
Christ
York
July
##ended
find
Cent
De
men
let
##ically
pos
##gin
list
##ternational
hum
##ology
##ott
beh
red
Will
Re
Par
##sc
##aining
conf
##ales
##sh
##rew
det
result
Apr
water
produc
vill
band
April
##ampions
##yl
##oor
program
room
##thing
Mus
##ored
spe
line
la
thought
That
November
##orts
##reen
##ccess
##ony
God
next
asked
##akes
large
looked
##ething
However
##embers
##elt
December
ed
term
North
##iend
##iven
located
##gest
law
##ats
appro
tit
age
polit
compet
within
got
el
desc
So
##ides
sit
friend
success
belie
Ed
bro
major
local
five
County
##ians
company
power
named
top
father
best
leg
little
population
##hy
repl
US
##med
eng
six
##ison
death
##ined
Gu
Austral
##earch
Min
different
Ass
station
El
##ee
##ator
ll
face
started
Ab
estab
##aster
event
##ces
mil
##ival
##resent
##idd
2010
member
kill
mill
expl
##ards
Europe
##echn
week
club
British
Man
##ger
##alf
##though
City
Co
##irl
soc
consid
dem
If
Bar
received
##ae
single
##que
King
##eep
light
century
##side
prot
members
vis
##ham
poss
##day
##ense
cover
mark
does
word
##ench
something
##aim
Cal
##let
put
##gy
My
built
tell
come
Feb
rev
##ask
served
##cess
fact
##ne
without
##atch
##ize
great
##my
moved
present
##reet
short
##ruary
typ
February
requ
##vious
##ways
Pol
exper
##port
children
building
2011
charac
25
night
refer
feel
##iety
cle
##ampionship
died
##ified
del
final
##con
adv
opp
##ering
camp
##ves
Go
young
##ached
vers
body
##ively
##ording
##isc
##ature
walk
div
##less
curr
State
##aces
30
##alth
##ency
2012
##atic
av
One
##ries
stop
Fl
West
Ex
##eder
With
north
##ech
manag
##oice
II
adm
seem
League
son
level
Af
deb
pain
##ograp
month
third
must
Geor
##ode
Canad
door
himself
##itions
due
profess
##eter
Colle
Char
include
2013
pat
##osp
##ention
##rem
During
2014
##omin
##ump
auth
national
##ream
##aff
Rep
val
##tered
import
Mc
Sw
describ
##par
led
2009
football
village
2008
##iod
often
south
species
##ances
##ably
##ster
saw
##ana
By
##ality
Se
post
##be
having
published
##ences
2015
allow
Su
order
women
incre
turned
hold
represent
##yn
equ
##umb
##af
Ro
##irc
Har
turn
##aken
##ush
Dr
attack
become
##amb
##idge
##aul
included
##ration
##here
report
Dist
business
tel
sol
##oman
2016
##ief
##ublic
##gether
together
English
##ization
High
iss
chang
2006
Reg
ste
front
late
Dav
among
2007
William
trad
190
given
emp
##angu
French
sold
##ait
sound
##ape
days
mag
return
##ches
##estern
21
half
##ones
aff
country
##ither
##ouncil
period
##attle
times
##ula
behind
mother
##stit
24
ep
##empt
full
pur
point
million
Part
##artment
##vers
##cl
fun
##ald
##ole
Ang
once
fur
##ese
hard
non
felt
project
##itary
Pres
##ned
addition
read
Russ
Sy
keep
across
##ced
plan
Bo
talk
continued
fre
Sec
told
##apan
educ
##ata
##ara
dra
story
tot
##ille
announc
gave
sent
crit
2017
##work
Park
black
bar
knew
##ck
opened
##oyal
mom
ship
service
field
eas
ide
effect
College
career
meet
making
Japan
round
##rug
##hel
invol
fac
##most
track
##loy
stat
Lond
tri
brother
girl
100
ground
ra
##ories
others
Me
##na
prop
189
interest
La
wind
##to
things
##udd
London
returned
original
rad
##ases
To
author
mean
Afric
##ilar
worked
##ots
love
##ours
##lic
previous
These
lost
22
less
Per
##ph
might
process
##ler
2018
##orr
##ption
port
Comp
River
##bo
history
##ument
sat
mind
inform
far
seen
grad
##ford
techn
##lished
District
##ington
##ising
human
##oon
cer
##urg
##ino
##adem
##avy
##uk
common
Med
langu
control
##ummer
##yle
sil
##ze
##used
##stand
wanted
Gl
##ani
##ays
road
really
always
##ribut
Ir
special
ter
enough
using
Air
##ruction
Don
Em
Ag
##oney
character
tem
Do
Gener
sn
established
##iled
##lu
Tw
##rick
Soc
Acc
games
Phil
##unic
role
Ser
fem
squ
claim
##sw
activ
however
##conom
House
title
Mich
##ead
free
23
Ital
cult
important
position
created
various
gen
##oke
district
San
##line
quest
##ivid
init
married
hands
view
dest
##ogn
fire
##ring
living
##iber
##lin
Not
From
##ament
##blem
able
past
Sm
##evision
pract
##omb
written
Res
lim
##aps
better
general
woman
fall
joined
##aughter
##inist
##lect
188
total
En
arch
students
Championship
##reg
##lex
lo
Fin
##ef
almost
announced
produced
community
##epend
##ges
live
hig
##int
East
award
Some
low
working
lab
##ready
command
attempt
##iding
quick
examp
##hem
wife
appoin
2005
grow
##raft
appeared
give
white
church
hap
voice
##alt
close
##orpor
wrote
case
England
##ecut
Div
cor
Pe
##ract
election
Mr
pri
rock
##ination
host
ant
further
sure
##ociation
Cup
##aut
least
player
International
strong
##ength
James
caus
already
Indian
##hing
##ael
prim
defe
conn
begin
histor
development
dark
26
exist
##aper
office
Dep
Cr
cou
taken
wasn
##eal
General
proper
similar
big
Church
surv
happen
described
Qu
##che
problem
ten
bas
clos
##ped
circ
28
##ops
wall
party
followed
2019
##ened
27
soon
heart
##acy
invest
186
##utes
Bro
mer
President
##bed
Rec
##aves
test
##sel
intro
debut
fight
##pped
Then
political
##ena
fell
vol
individ
##ivil
##uff
rail
east
##sequ
west
particular
popular
##aged
Des
##hold
Art
##co
Paul
ident
considered
##iddle
priv
##hic
comb
hon
Ne
Sch
works
boy
Just
match
lear
ord
upon
Ac
##aring
Act
Ear
trav
##ney
Oh
##ius
##ett
2004
##itor
Roman
press
sug
cond
po
tre
mot
##idence
##lands
Thom
military
aver
site
##reek
##gr
##bs
##orthern
engine
Sam
fail
##eck
##ica
cross
reached
anything
enc
##field
According
tour
Jack
##lo
production
##iment
##uel
187
2000
##airs
dev
thing
While
Que
Hol
India
vide
either
##cer
##olution
##outhern
social
George
Rober
ap
Council
thr
##dom
##ship
European
##rought
done
America
bed
course
##esh
David
Val
why
official
foc
Street
hit
##ama
looking
recogn
Mal
##cast
towards
broad
Te
Bel
although
epis
stay
##hib
sel
suff
Australia
version
##ma
coll
##anch
##iec
founded
##itive
television
particip
dou
relations
##itted
entire
nothing
Ber
mid
Army
Rich
deep
##head
mult
kind
indust
influ
##bor
playing
##oul
moment
France
##iforn
##ills
##ox
region
##duct
##oming
famil
##etwork
##ological
##anks
Californ
econom
fig
eight
Republic
miss
##iol
##rated
##ocr
cast
inside
##ids
29
aut
dam
##ought
research
super
Ant
vict
change
California
Lou
months
example
outside
language
##ky
Well
##ressed
above
finished
##ha
##ico
##aching
Port
fund
formed
##urs
elected
50
##of
##fic
Pal
##pite
exc
Cour
##ending
recorded
##ming
international
Pat
struct
agre
decided
Division
brought
lik
daughter
##unicip
Party
##aid
avail
Fir
##eum
##aint
##ule
words
##rey
professional
employ
Mon
Mary
president
Red
heard
hous
mater
##itte
taking
tradition
ren
##ords
signed
##atter
deg
cut
information
prob
##oted
phys
developed
##cle
##eph
bit
gradu
##aught
clear
2003
areas
release
product
understand
separ
money
Canada
##read
Alex
##iers
cost
##imately
mount
##fully
Franc
leave
style
##oph
##ude
journ
##ceed
nov
Je
gun
##ishing
suggest
Mil
break
##omm
Hen
cell
##go
##ference
answ
##irt
##medi
accept
pay
discover
average
##iff
Mo
review
31
modern
rout
creat
##ari
events
aw
pul
anim
appointed
rather
base
##ression
certain
##ban
yet
##oved
Sen
##band
##unk
Mag
move
Rev
rul
Oly
##aign
Cap
##ville
points
race
situ
food
reported
park
contract
##imin
blood
remained
ple
##ibr
tried
couldn
Dem
sle
sour
Hall
formula
mem
signific
##ander
##ements
##ensive
relig
##anish
TV
Black
##atural
2002
available
Royal
killed
##roy
added
floor
Mart
sex
possible
Mad
ran
Kh
Union
video
someone
pick
##spec
enter
##omp
Olymp
trying
slow
Now
Mor
##selves
##ators
earl
2001
##aur
##ips
##odd
stood
First
##ique
assist
Association
bur
Jos
doing
##ential
##ij
teams
##raz
star
##itch
##olic
hair
independ
seven
deal
##ises
##istic
##ners
##etimes
laun
Sl
Tom
##hers
##erous
##anced
feet
wait
table
fav
##orning
##ensus
##van
##ospital
185
##ects
dead
40
collect
Although
##ago
Mont
placed
closed
quickly
director
services
Sim
##stitute
wood
material
stri
esc
minutes
##chie
##abor
Hist
Off
Mark
Germany
Angel
market
##BC
##ights
##por
hers
education
Australian
usually
tou
##ittee
##sy
Road
Nor
##wood
##unt
##vir
##acing
##bert
cal
coming
needed
##enced
##ging
##uf
##asing
says
dro
phot
space
Christian
grand
Since
##omes
regular
current
ill
##urt
instead
respons
Miss
impro
Thomas
##uture
##ests
Jew
running
police
job
saf
##uit
Robert
##oud
bad
cop
##ya
##ilities
##ested
administ
##irit
involved
lot
seemed
Michael
##ston
##ift
throughout
eventually
##rian
today
conv
reason
Mex
wid
self
pot
##iction
leading
whole
idea
access
Lord
##elled
subject
##ification
designed
believe
##ript
study
Award
##estival
##iting
doc
Wash
training
##elling
hot
finally
health
chair
acqu
##men
Dev
China
force
Tur
Court
question
Sal
Pri
##ability
liter
##specially
stage
performed
##liam
features
km
treat
campaign
bring
Kar
Law
##ethod
Mer
##aker
key
Company
currently
di
means
seat
gold
Mount
fif
soft
associ
books
##br
largest
obs
center
Yes
completed
##ears
step
everything
##very
changed
Great
rank
private
league
##liament
##apped
arg
hours
itself
##iation
Stud
Grand
Central
##igned
##val
viol
##ki
piec
##usp
except
wat
capt
songs
watch
jud
mass
##asons
##ny
##cent
Island
friends
##hood
arms
##iqu
Frank
##ateg
type
##viron
##het
significant
##aven
1999
Other
household
##urity
respect
Charles
court
draw
Washington
radio
Academ
Bill
happ
reve
construction
longer
##off
Bay
originally
##ores
##ym
groups
##ederal
##isl
consist
introduc
forces
qual
##odes
lay
##inese
remember
##itar
relationship
municip
passed
probably
Two
UK
##itz
ball
ang
lived
size
aud
##gn
directed
specific
object
Cath
inj
Town
families
##enty
especially
plant
##atory
##aled
cand
##apt
##ctor
##yr
central
##for
includes
morning
Lu
Chap
##incip
walked
Its
##ecutive
players
Ben
##ume
range
Are
Club
Vir
coach
##ergy
##ecess
Vict
Peter
king
spent
##azine
decl
board
##olf
Department
##ortun
##room
provided
Chinese
stated
##ving
immedi
##ournament
##ades
occur
Center
Group
Mac
getting
loss
Rail
neg
imm
##ipped
##illed
forward
Most
Kn
shot
future
Pet
Why
wide
Western
length
anal
Cong
wond
block
civil
Louis
Super
##erve
##berg
##oring
achie
184
else
pers
##isk
##omen
travel
river
conduct
Ter
abs
saying
##ands
mur
hor
schools
herself
network
Met
college
White
##osition
Prov
allowed
1998
quar
action
whose
Jes
featured
##ida
countries
beginning
reb
performance
Scott
hop
parents
##arily
mix
episode
sometimes
replaced
surf
female
states
##agon
##uter
##atives
##aries
##imate
##itect
account
model
##burg
themselves
##ray
Mel
hus
alone
##irth
##craft
##ficult
##hest
##CA
##tt
##iles
polic
##ala
determ
indic
toward
degree
##oles
Russian
Institute
neigh
bi
##osing
Wil
Cont
ur
kept
farm
Sing
below
difficult
bene
sem
Lat
##gar
##play
regard
cy
Japanese
transfer
Henry
##oid
##ector
pulled
personal
fourth
entered
Rad
provide
##mar
novel
##str
##yd
##merc
subsequ
surround
##vironment
purp
shows
##ao
Music
susp
Green
complet
meas
##view
Canadian
winning
##asc
##rael
##ka
awarded
constit
Gold
Flor
1996
compan
writing
##ees
leaving
Ham
der
##nes
##owers
##20
Serv
hear
raised
ended
Society
##lement
mouth
cann
actually
Sir
approx
cat
pred
African
1997
anc
parts
occup
battle
##olk
Cons
##vernor
leaders
purch
##ushed
capital
husband
norm
##ror
corn
natural
true
Richard
et
artic
section
sen
Israel
Italian
Tex
insp
##mb
Day
competition
tax
##fect
lower
fa
##eleb
Minister
owned
secret
box
##undred
news
Victor
focus
##anned
Spanish
##usion
earlier
mess
Che
rights
##olled
##oo
beg
introduced
onto
App
threat
whom
try
bank
Academy
successful
destroy
##amer
##pper
Rock
Democr
matter
##atre
##rief
goal
method
Lake
sister
Let
aircraft
lif
##ental
teac
##rupt
movement
related
##ites
##ibility
speak
energy
fing
sett
Sar
middle
Er
##annel
den
attention
Foot
concern
Best
##udden
Rob
prison
##owing
summer
##iced
1995
Africa
##ano
Im
stopped
Smith
makes
Of
frequ
maintain
stra
##istry
happened
Penn
data
older
buildings
coun
##rect
##aded
Bu
narr
Virgin
emer
##ician
breath
beaut
##board
Ol
critic
##cy
instit
link
1992
##ground
1994
investig
##add
##ishop
35
183
speed
##zz
according
mention
fore
discuss
Ok
Del
##mit
island
##ps
value
##idae
##ona
##lying
bord
##uty
contribut
##aval
##mercial
Jesus
Bur
higher
opening
lack
attended
##uge
fear
Lit
Tor
##me
meeting
Many
##ension
cred
##aine
Camp
weeks
##sych
fle
##ili
##iling
##anded
##ellow
surpr
via
Tel
bill
##inct
prof
sea
Hill
prem
listed
##uals
##lam
##riage
Paris
army
experience
sens
lives
Inter
##ously
Win
candid
Ev
leader
##ify
complete
hall
##abit
previously
media
Kingdom
Sant
##izing
##ios
##ria
active
##ibrary
Second
scored
disp
princip
function
Catholic
forced
##ris
Follow
blue
individual
##asket
Good
date
##ography
touch
##asion
establish
##hi
couple
disapp
required
Som
hundred
sleep
Carol
Los
architect
gone
Their
complex
##action
transl
broadcast
##use
Ma
##ply
##ening
sch
Arch
quite
nomin
Texas
##ita
##ledge
##joy
tar
##lt
Ann
nearly
##edy
Ire
##astern
celeb
runs
heavy
plat
northern
Greek
studio
##ails
##oses
screen
##idents
sense
coast
Trans
path
dig
Emp
takes
consider
Ireland
covered
Str
##istan
myself
Sov
##ams
Film
approximately
southern
moving
staff
Chic
##ette
arrived
1993
Old
films
##ustom
Sun
##erved
green
intern
45
1990
helped
practice
sun
caused
1991
Jim
visit
Direct
systems
Cor
train
##kn
##ura
organization
decision
division
500
und
scient
##irection
##iences
##ufact
##owd
smiled
structure
Jer
smile
carry
hom
inn
Gre
Bet
document
##ini
Soviet
Under
mission
vot
units
exhib
##ken
Every
thus
##ims
text
##inal
property
##ota
defeated
offered
Turk
census
industry
##gen
##west
##ocked
##back
##lant
birth
##haps
##embly
poor
highest
Museum
generally
##ada
chart
construct
Stev
##itation
becoming
##leg
Following
Kore
##teen
studied
##itc
Cast
##ightly
Commission
firm
financ
##ils
primary
represented
paper
dram
journal
##raw
doesn
comes
Football
##ires
ful
##ols
fast
traditional
pen
##umn
anyone
hour
championship
standard
Luc
##iful
student
immediately
noted
##shire
check
##iant
artist
vehic
Saint
commercial
mostly
enjoy
Sk
everyone
amount
Du
glass
Star
Government
Sat
multip
Pac
##aked
whether
##bers
create
##porary
##ective
brief
carried
plays
##rial
tournament
Play
##ella
managed
Swed
wear
bound
street
western
mach
railway
##ender
Sur
Up
##onse
##otion
spirit
##NA
Mill
standing
meaning
remain
evidence
##ider
Jul
##ends
weap
Gar
direction
believed
doub
swe
settle
percent
tow
prior
location
##za
gas
route
independent
##aved
##aped
nodd
appearance
issues
Even
necess
##owed
Arab
giving
cause
##oma
Joseph
##fort
##oint
60
ready
belong
feeling
Brown
sum
##ulated
Matt
pack
environment
wrong
meant
terms
chief
##road
Chicago
1989
adop
tro
##itiz
##ado
income
cannot
##ining
newsp
collection
magazine
surface
Committee
Bec
straight
##nel
##ien
Earth
##aud
drink
studies
Women
##anda
concept
##eed
##ems
option
##etic
Sil
attract
ens
pict
65
Big
sudden
lines
##utch
##orial
serious
chall
earth
numerous
Zeal
particularly
phone
officer
manufact
county
demon
distance
##uct
##heast
wouldn
religious
Out
##abb
nature
hospital
log
##ein
##lied
names
##ware
##enth
Congress
science
starting
nine
Mexico
issue
##well
##ros
increased
Georg
##uments
1988
applic
op
Over
operations
##reme
32
Commun
ge
Zealand
hope
##oral
##antly
companies
##ola
launched
voc
territ
trib
Carl
##ether
Chapter
fort
response
##iance
##echan
changes
Pre
completely
problems
transport
Later
Martin
Mur
##itt
simply
Festival
pret
sal
##adium
##och
remains
male
grant
Force
Records
Histor
failed
##een
ago
Av
spread
Scot
shall
shoot
prevent
interview
commission
##lor
##mark
Summer
##itude
##AS
minor
Ye
associated
peace
likely
Educ
##inn
manager
nodded
victory
contains
opt
emb
writer
##edic
majority
trade
Ros
##igan
figure
Found
legal
##oper
senior
##asketball
##ks
Arts
##oes
cho
##unch
imag
limited
##ylvan
medical
cold
continue
obtain
Navy
larger
Angeles
People
Cat
target
CD
shown
Board
eye
share
##isions
##right
Another
Squ
##ronic
Chief
famous
characters
unc
reach
Bob
Italy
adj
centre
Den
additional
##ograph
economic
pan
directly
spot
Fort
Virginia
stone
unit
Liber
Book
##ux
grew
results
wa
activities
##aph
Both
##aches
##oned
1987
academ
##ua
##cious
Who
dream
thinking
##vert
##light
Mass
selected
crew
schol
contact
goals
181
window
Atlant
Bre
custom
Jud
Your
Hot
spl
##ribution
##umed
Oper
twenty
society
send
thous
##ients
exact
##ms
trust
Wood
rate
quarter
##ero
source
store
univers
cry
despite
holding
er
gre
##rugg
36
jump
##quar
Fre
##anger
Parliament
1986
pal
rap
##arden
truth
##ession
serving
chap
##rd
##ylvania
##oe
##emy
Leg
Ap
##han
##aby
##ented
Irish
musical
eastern
search
##ading
slowly
33
1984
##imb
Secret
Charl
##inet
caught
##iny
culture
retired
##venue
dom
Olympics
Queen
##ables
##rel
##change
Despite
movie
master
tree
##uing
spoke
annual
status
temper
singer
Fer
minute
remaining
##more
##cend
Inc
##isted
feature
agreed
squad
administr
##ecting
pull
supported
##ER
skin
##ingu
matches
claimed
foreign
##atively
Jac
theory
phil
programs
operated
forms
1980
Dar
1985
cases
##omet
altern
Boy
Battle
plans
##urb
##inary
color
marriage
drug
opportun
comment
Russia
Dani
Northern
Mic
places
nearby
##arch
dog
increase
square
##aned
##ja
nation
Profess
communic
score
Land
Before
##inent
artists
situation
knowledge
discovered
Florida
Because
fine
instr
Conn
security
Iran
replied
##ibly
guitar
bridge
initially
computer
bomb
Love
Men
Penns
Braz
Valley
Championships
Mat
convers
presented
anti
Mu
Haw
strugg
##ections
Jun
##aily
label
Tim
depart
Year
separate
offer
psych
Sub
colon
##ias
##ricult
trou
pil
confir
reduc
management
quiet
metal
referred
##orry
prep
##bur
dropped
kiss
##azz
Class
##yan
corner
houses
Max
Sol
university
##cher
Jewish
beat
soldiers
##alled
warm
Pennsylvania
stories
favor
sports
##ervation
fair
seek
ess
Pacific
Techn
platform
girls
double
arrang
expected
municipality
Bus
Dou
financial
Columb
##ati
watched
Work
scene
ver
##II
physical
##house
individuals
Southern
bird
require
sequ
Ver
List
diss
Pan
Hum
genus
citiz
recent
ordered
serve
##arian
accomp
1983
ut
Islam
showed
earned
##ault
Cle
integ
##FL
Wales
chance
appears
talking
##irty
Games
##ounds
Adm
Mod
##ockey
editor
purpose
counter
More
collabor
##ican
##roat
technology
answer
##iger
##illa
##bon
uses
##astic
letter
display
##obal
Ell
##ora
1982
competed
perfect
responsible
##uries
##orps
operation
Like
Mah
##la
Public
shar
Hel
edition
variety
lic
numbers
Gal
policy
##ties
wing
Brazil
ancient
##den
mis
suc
##cel
guard
##mond
ships
182
wild
presence
##ping
respond
influence
Province
troops
##ampion
McC
trees
piece
stars
Bank
composed
har
entr
mut
##owl
pair
##isation
poet
Education
##utions
risk
##ca
mechan
bey
amb
neck
council
domin
waiting
##aling
federal
succeed
1979
##imum
Times
du
180
fix
miles
Def
subsequently
removed
##ucle
gather
34
mainly
Edward
uns
shut
1972
beyond
passeng
Cur
beautiful
repe
Science
##elop
##eds
Wal
##iana
Ill
Mos
card
##ety
##aging
Gen
80
##ellig
grab
positive
increasing
provides
Lee
eth
##edd
ability
Empire
##itan
tracks
##ancy
soul
Service
Ob
compos
overall
Long
filled
##hew
Spain
oil
shop
bott
Where
lies
department
##iar
##isco
Spec
Ke
honor
latter
purs
Far
Each
inh
Rh
ir
Pak
##itness
##cean
ult
extended
Tri
44
neighbor
##enant
Prince
stre
1945
goes
drive
bal
conditions
1976
exam
crowd
somew
multiple
19th
bes
acquired
ice
sched
1981
Sand
growing
seasons
native
Once
1974
recording
Ah
ign
##ease
dedic
##illy
appar
regional
##AT
defin
stations
levels
consists
##ipl
estim
##orter
Rel
medal
Musl
##ali
revealed
hadn
Three
rob
simple
needs
Vol
Young
1970
##ysis
legisl
1968
##rom
Also
webs
1978
Hu
fifth
paid
planned
normal
ahead
##rif
mountain
proposed
Director
1975
##ih
##rain
benef
Captain
charge
##stant
autom
##abeth
behav
##gent
brown
vote
Sund
cities
shook
##othing
##bury
leaves
##aly
youth
Ray
asp
##lies
##vention
Ram
##rol
Eliz
Assembly
##ez
dance
Britain
chest
##igg
smaller
edge
weight
murder
pray
sitting
categ
Philipp
70
pun
##ensity
Elect
##odies
slightly
Four
cab
horse
Bas
Awards
##enge
shoulder
happy
reflect
rule
highly
graduated
Daniel
rain
records
bul
##isters
##iated
##vement
elements
seems
##ager
Life
Dam
Maybe
hur
Dutch
##orporation
Hung
##uan
chem
Di
capac
historical
##ario
tall
##apers
recover
Eastern
##othes
38
Radio
border
##edom
ones
contem
Jones
##awn
laws
##ressive
broke
Egy
Governor
sand
##down
##FA
Jon
learn
1973
cultural
Egypt
Bul
doctor
Van
officers
captain
##gl
##de
1977
##olling
potential
Latin
Poland
##rate
Stan
kick
III
mentioned
organiz
intended
silver
products
##duction
Ash
179
Mir
die
Prog
37
looks
forest
##AR
Az
Open
effort
90
Middle
Hon
##ailed
Social
ways
Research
##eless
faith
taught
##iring
75
Mike
politician
1980s
accepted
##atever
approach
1st
producer
flight
constructed
clean
promoted
produce
walls
issued
Tre
1971
Democratic
00
##ila
##peror
Major
headed
Mem
traff
Railway
quality
1969
Tour
concent
Dan
newspaper
mist
elev
Little
Bost
Prot
heav
destroyed
##iy
Carolina
Est
##ersey
bag
encour
van
##ador
adult
fully
##iest
pet
electric
initial
pressure
coin
jun
##ulations
therefore
Tem
##BA
mine
image
Conference
attend
Line
recently
channel
Top
condition
##resp
ring
professor
BC
News
growth
##hens
task
Gh
Inf
##IS
##osop
##ucky
prec
aband
fighting
1967
##ighter
elections
##antry
fellow
Bh
symb
conver
##iot
maybe
whis
eat
##mas
choice
##iate
sort
##rog
primarily
guess
basis
Creek
Step
impact
tells
Sea
##ira
memory
basketball
##AC
scale
powerful
1970s
Broad
gives
mic
compl
##osen
upper
##oms
##ieut
##hol
females
##set
##wan
transferred
Gall
pra
suit
residents
##oz
recognized
questions
effects
follows
Boston
##ipment
cars
Add
workers
worth
unl
Lab
Wind
activity
finish
Andrew
64
necessary
##aze
ath
efforts
##achel
##nam
closer
Scotland
reading
Joe
Blue
scen
suggested
Kent
##isher
Civil
Harr
Theatre
teacher
Bal
Station
forg
laugh
##istics
perhaps
1964
##ifying
##amber
split
20th
##ources
Portug
owners
legs
Cross
##ais
Dis
strength
##aya
Time
Team
batt
Wall
museum
##gian
alongside
twice
##bour
Tam
owner
officially
Only
rules
treatment
Johnson
##obile
##put
Williams
actor
Jeff
sides
Elizabeth
##writ
##ube
##ashed
households
Dun
##come
##agn
##izes
picked
Kr
greater
unf
##ela
Francisco
Ly
appearances
##ugby
Series
suddenly
stream
##tr
Ak
safe
Fe
Asian
##itchen
divided
##ansas
Rog
Bor
campus
##ES
Mas
address
Did
Ur
Coast
Order
##iano
settled
prote
tun
hol
withd
projects
Jackson
Yeah
types
##wide
##win
content
defeat
harm
extra
Post
resist
excl
Foundation
empt
Here
god
##ishes
##tainment
##mission
Mid
##idden
##ato
ly
##ulf
1965
##ription
article
Bern
Kenn
Rome
becomes
300
races
equipment
dress
occurred
##vis
Water
sevent
brain
hang
Ken
Sever
agreement
acting
tim
##anche
1966
supposed
rac
Os
interp
Ox
easy
capacity
Ha
administrative
Prem
receive
Head
province
rat
branch
headquar
losing
catch
42
Secretary
din
##ieutenant
broken
fish
pattern
feed
##encies
Hell
participated
flat
Centre
Son
Syd
purchased
##ancing
nucle
41
Michigan
Ohio
perman
lips
partners
1960
fresh
Camb
pretty
##ici
candidate
##awa
##zen
yellow
Asia
damage
median
isn
declared
prominent
ton
scr
coup
Det
hell
wound
##iform
Ple
FC
titled
walking
##kins
Ste
1960s
aim
Master
cool
thick
compared
##rier
storm
##igr
##bre
easily
Song
dism
##agement
##yer
incorpor
Alexander
expression
Albert
Ari
younger
website
escape
evening
write
1990s
parish
yards
##ributed
notable
stepped
##iday
boys
assigned
##burgh
mixed
buried
##dd
Jean
era
guy
seeing
##ughed
##iter
1944
conducted
##ridge
Our
Tay
dim
vac
seconds
39
gar
commonly
##orrow
renamed
captured
continues
suffered
laughed
gained
dedicated
Maria
distinct
System
online
##oh
Health
Born
##gend
##min
disappear
##ta
##inem
implement
spring
BBC
##ga
roof
##stone
Marc
bought
##isf
page
Uk
watching
citizens
sight
protect
surrounding
estate
Republican
##greg
creation
reform
##acks
49
##mad
Viet
Inst
##kin
organized
Georgia
Sup
Pen
offers
save
##istered
2nd
##ennis
Mrs
Professor
Univers
rural
animals
drop
footballer
##owned
Ath
Office
##mann
hung
##ima
USA
wonder
Avenue
deliv
cerem
Pop
exactly
eld
##elopment
##stein
##umber
48
##olved
paint
Sydney
##uce
prin
nob
brothers
Child
mir
assistant
Lev
sexual
formerly
enemy
Polish
Scottish
sac
Columbia
##anna
Tod
adopted
Engine
Chris
liber
speaking
Holy
trip
drama
ce
##stra
Senate
unable
##erc
##gely
Lar
Show
connected
conclud
##amily
Lady
##usc
historic
boat
conference
Rout
##oration
Wild
##book
fingers
max
kid
##illing
Fur
Loc
##BS
reject
accident
magn
##inity
chosen
##thur
##uation
winner
whisper
hel
avoid
Sn
executive
##ocks
Victoria
Way
Enter
widely
sorry
hyd
##aka
refused
recomm
solo
coff
##ederation
pointed
Brook
yard
dry
##aming
dyn
Corps
rub
housing
fought
settlement
##lad
##ivity
typically
plants
labor
##oured
cells
##omer
entrance
noticed
Corn
rapid
existence
administration
pushed
1963
##ko
realized
motor
facilities
1962
machine
##icted
largely
operating
##ushing
gets
##RA
comfort
teaching
55
Cop
Sher
trial
agricult
##ava
Mot
##icient
##known
##wise
Bang
iron
laid
motion
huge
bottom
thoughts
Bell
combined
reality
format
Card
Ron
sales
actions
##ashion
focused
traffic
Sev
Kel
##has
kitchen
##riend
Raj
recon
library
obvious
Journ
##va
yourself
Hal
Hospital
Exp
featuring
territory
hurt
rang
Guard
occasion
ok
Hun
ble
academic
rough
vari
##rip
##oster
begins
partner
unique
##onia
##ogue
##itage
##icine
Field
safety
founder
shared
baby
##respond
##TV
vess
serves
correct
Any
spons
##rest
apart
Through
##iral
##rical
burn
##uous
1942
##ricket
Norm
Ep
##arring
scientific
restaur
##iga
flag
semi
1948
bodies
pieces
##hr
##irk
##onents
##iel
newly
transform
Look
hy
##era
critical
Though
Cas
Ott
wants
union
Leon
CE
47
##unte
stret
sources
proceed
estimated
##gg
##asy
##rovers
Federal
descend
43
##ordin
roles
learned
##mitted
Nick
parties
prepar
script
languages
weapons
bat
Vill
##uted
contain
respectively
allowing
##body
sell
##ulpt
industrial
hotel
rose
consum
##estic
humans
scholars
Nic
##elve
confirmed
identified
Li
FI
yes
Hear
##nic
##pping
faced
Arm
Jersey
##ctions
retire
##apping
turning
returning
mile
habit
communities
camer
background
rot
reduced
challeng
instruct
Offic
leadership
explained
Historic
1941
1940
nor
doll
clubs
Justice
Ira
##ova
Hind
Colon
Berlin
alt
Att
1961
stared
Prime
##hat
tal
Us
granted
##osite
joint
hun
Die
marked
resulted
setting
resident
##ulate
lake
##gu
opportunity
Argent
intellig
authority
Lew
##rin
##elph
Kong
Hong
##inois
##amin
Es
cup
code
1946
Sus
providing
dial
##perial
Kat
react
telling
learning
sport
##war
daily
heat
driver
winter
##ione
brand
painting
trail
##onent
rise
See
Bon
Night
Conf
1956
hosted
designated
##ourne
Adam
Lo
Bishop
seats
instrument
premi
positions
##etts
Light
billion
trop
reviews
Rom
experiment
disease
etc
Clark
Anton
calling
##met
##enz
Bad
1939
Sel
History
Illinois
emot
truck
Route
178
Les
determined
Rod
measure
picture
Fair
Ven
Jr
ranked
51
digital
handed
lov
##asty
flood
episodes
Duke
weak
##lict
Mun
##emet
males
##onto
classes
correspond
##alls
Brad
##ternal
dang
Der
1943
loud
defined
46
notes
Tar
holds
temple
cart
controvers
400
expanded
fit
Game
Among
##ye
##achus
analysis
Press
Home
minister
witness
End
royal
reasons
column
UN
##AA
knows
audience
Budd
##ologist
Today
Special
steps
52
Greg
Steve
express
Common
##ipping
creating
attacks
awards
note
passing
##oir
density
##ingly
1950
##aks
claims
Cy
##itled
message
##mph
Human
##rics
philosop
##ropol
af
champion
shout
rich
##pan
Int
Corporation
##omy
Development
tower
Cz
Santa
1958
applied
Walk
##eman
Wat
urban
##adu
coal
Harv
1947
albums
Queens
Naz
Kim
advant
Kal
singles
Jose
figures
unknown
##iat
attacked
##ker
advanced
models
##can
expect
constitu
sons
protection
Sunday
##onic
1959
possess
existing
shape
secondary
animal
nominated
inspired
whatever
Father
Hor
allows
##ricts
Hay
mel
prefer
wealth
Base
##athan
resc
possibly
calls
opposite
crime
##ads
##hemat
resulting
##osh
reports
Ker
extrem
bright
Olympic
concert
Tal
##avel
Bridge
spok
Several
Gi
##ules
##asure
Christmas
loved
##IN
##ching
promot
Police
empty
experi
##yt
rear
height
narrow
Sa
##time
nort
pit
titles
organizations
contest
Iraq
Ministry
##ilding
vehicle
situated
1957
##ipe
##AN
virt
stayed
Islands
municipal
rid
alive
##uls
Supreme
##roc
Ba
##emetery
sky
Main
grabbed
Aut
Highway
scoring
literature
Pu
##eness
crimin
Massachus
facility
bud
Lind
Pakistan
##lan
formation
##raham
##stitution
Fle
element
software
Revolution
turns
Cam
answered
Massachusetts
Girl
Lim
Rem
Jenn
none
reaching
understanding
ideas
injury
alle
sculpt
flo
Arthur
demand
occupied
IS
Airport
Jacob
achieved
cas
##CC
Fox
Form
obtained
##akh
##ropri
##adow
##lers
relatively
ye
Wilson
survey
repeated
FM
votes
Id
fuck
Jess
clothes
Plan
Taylor
religion
parliament
Simon
Pers
##ervative
MP
Atlantic
grass
succeeded
contemporary
termin
About
vent
wish
Korea
belief
attempted
spect
recept
##urance
Brig
Marsh
speech
Toronto
visited
sites
il
distribution
syn
Allah
##anth
##etime
fat
planet
effective
causing
provinc
stock
##rich
stuff
pros
buy
##ansion
doors
folk
Tra
exchange
prepared
agent
##urer
subs
##rig
1952
##lyn
officials
fields
wearing
portion
ending
orders
guest
letters
planning
##ON
Power
##ulty
##under
authorities
1955
##adelph
price
Swedish
generation
##iser
Bol
bath
wheel
177
Sab
##row
Library
Gab
##OR
Stand
##50
powers
Jam
Castle
castle
Band
Americans
journey
cook
3rd
entirely
defense
negative
Chair
cancer
Ont
Harry
##aug
supply
##alion
##bourne
##itors
Sports
1949
illust
fashion
guns
##orney
Independ
hyp
cru
association
committee
Oxford
coffee
##icks
Get
mm
##onze
combat
tend
shel
Philadelph
basic
Barb
weather
killing
##orted
Mov
commander
Ele
sets
##una
opin
comedy
##akers
##AP
nice
##imal
##hire
Po
Holly
Stadium
##ighth
missing
flying
Eric
grade
performances
sixth
##uts
festival
materials
oldest
baseball
kil
tight
##pton
neighborhood
arrested
Emperor
1954
Philadelphia
ends
Journal
Stephen
Tony
swim
covers
resources
Come
valley
Program
frequently
evil
heavily
##elle
obl
judge
AM
##where
bass
Nether
##acement
entry
headquarters
Test
athlet
connection
calc
fans
theme
progress
surn
##gment
##otic
notice
fly
##asts
advert
Alf
Ca
##inder
1953
steel
Network
global
##outheast
starts
##hile
grin
invited
opposition
ven
Abb
politics
Aff
please
##rec
Nations
Brother
##raid
Pass
actress
##usted
ox
attempts
conflict
##ares
##anny
interested
Dor
cert
##uled
regions
encoun
reference
Ontario
##eral
Pier
##rete
##10
governor
Cub
driving
shortly
Sarah
##ooth
versions
##EC
Between
Rose
beside
Sav
villages
terror
finding
##isa
Turn
Bat
##ienn
##iro
contained
Robin
Han
Forest
tom
abandoned
##rie
shif
trains
Six
Jane
drawn
clearly
receiving
concer
##ji
Jews
windows
##iques
volume
principal
doubt
freedom
chairman
##iously
vo
Serb
54
twelve
hill
heads
##born
strange
##eline
worry
##standing
Circ
##inth
highway
showing
okay
EP
details
airport
Ho
compr
Ta
san
##ran
fuel
favour
##iki
von
sweet
Athlet
##sen
chose
53
selling
##agan
fiction
##sey
circum
entitled
roll
Eth
desk
flow
Var
##antic
1951
##igen
Spring
samp
Princ
uncle
1918
cloud
negot
pool
##ighed
##vin
##chestra
##heim
sought
Coll
conversation
##ader
##ras
snow
duty
Represent
sounds
lands
Muslim
Township
trained
##ilton
satisf
ment
kids
centuries
##real
Fire
silence
##com
Earl
solid
economy
##VD
keeping
##uction
approved
##abad
Command
elimin
##ocated
Nat
Business
controlled
##vest
tone
methods
Econom
Bah
sick
arts
Davis
performing
Anth
##itzer
##rid
Freder
hors
cheek
difference
##MS
streets
##osl
2020
tick
##omot
fold
wave
thousand
Register
Week
##apes
finds
thirty
distingu
mo
closely
knowing
rare
employed
##oln
trouble
##ums
Indust
affili
Jay
poll
Korean
pilot
Billboard
Short
##osa
equal
Bir
1950s
1936
aged
Beach
districts
vehicles
drag
copies
emphas
Back
permanent
Media
remark
vision
shirt
carrying
request
Never
portray
Mom
Mountain
critics
thin
Netherlands
Sem
##ache
statement
Francis
sust
Cult
identity
starring
Bru
1938
theatre
##lets
wooden
Bab
surname
decor
behavior
nerv
##uses
spiritual
towns
bot
containing
metres
aired
##ype
reaction
drew
##ses
##osis
proved
acts
lect
stands
racing
##FC
##utional
1920
relief
bow
Color
Brian
rein
##OS
##rah
opposed
incident
Due
defend
gall
Regiment
Satur
##ographic
bear
execut
consisted
##uthor
150
Sweden
violence
recru
##wa
##uties
explain
Thank
publication
##rane
Czech
promotion
##aste
lose
Premier
consult
Ut
exerc
gain
##orough
56
Golden
Doctor
subsequent
##eway
##umes
Thus
##rees
Saturday
Tenn
pock
lat
##weight
Organ
Ross
Further
##gency
##anz
Mexican
##ownt
wings
##ele
Project
##amm
Ten
birds
occas
regarding
vocal
##IT
skills
articles
Alb
inher
Fore
##aga
Technology
Origin
profit
##water
magic
wrest
ru
Ford
extensive
funding
shr
mort
##yo
temperature
advantage
greatest
shaped
clim
Instead
finger
Community
dipl
alternative
actual
apartment
domestic
observed
desire
surprise
Andre
plot
##ois
appeal
tail
##AF
##heless
remembered
##hedral
ultimately
Lewis
##bit
##ii
##erk
briefly
Hard
application
failure
##worth
commissioned
inhabit
##urches
consequ
diam
Hart
strike
fleet
##uz
tears
##iah
##umin
surprised
##onym
aftern
developing
Junior
ban
Zh
##inger
compar
Free
Down
tur
##agh
Matthew
homes
##arn
advent
1937
##while
amp
##fl
99
engineering
importance
silent
otherwise
expansion
thank
rooms
brick
flu
map
ec
schem
core
##iments
aid
threw
Area
##ika
rom
maximum
##aki
decades
##rence
offices
Trust
Imp
climate
Gil
armed
Vo
derived
##HL
sword
Spirit
quant
nuclear
57
Upon
ax
1919
bond
##icy
Cer
budget
retirement
##illery
Balt
sin
##aun
dinner
Anna
formal
Ball
##raf
Hur
##ouri
##friend
launch
que
converted
4th
##outs
Region
institutions
wine
propos
internal
teeth
Those
Stone
garden
throat
volunte
##IC
adapt
expressed
wel
finishing
Ali
##ropolitan
Addition
66
passenger
contrast
uniform
appoint
Administ
structures
##aimed
Okay
phase
Intern
influenced
architecture
founding
successfully
limit
fired
##ureau
manner
Was
##bec
Khan
Ryan
row
Federation
concerned
Ot
wet
experienced
items
chain
58
guys
waited
familiar
nose
Bry
asking
teen
Indones
exclus
patients
investigation
engaged
Bible
conscious
##li
missed
Nik
wer
##hips
##icked
1930
Batt
supporting
aware
##har
Roy
##stream
stro
##rupted
Final
accompan
occurs
hearing
Tok
Ocean
##olec
1914
##rad
hired
##izz
struck
Mosc
signal
Hey
afraid
1917
refers
Hy
asks
depend
Nap
Rick
##andy
functions
singing
egg
extremely
assumed
maintained
contributed
##onna
##ivals
grown
finals
95
specifically
pu
admitted
properties
multi
technical
##verse
##eller
##ells
Country
cycle
odd
educational
##how
leads
##ece
Linc
Him
##fall
depth
Medical
underst
##IA
Bes
helping
funds
##father
falling
documentary
##eding
TH
plate
##iang
worldwide
qualified
18th
1935
legend
stom
weapon
##ogen
fal
producing
##utation
##like
dangerous
whispered
Fa
thousands
##aska
Dave
frame
educated
Shar
AD
DVD
agree
teach
waters
##pson
representing
##otten
locations
Gro
dismiss
Pit
Dur
unus
mayor
ride
Lt
commit
##mouth
illeg
Call
hat
collected
Stat
##hetic
afternoon
Gord
ceremony
Lor
web
Run
usual
Morr
merch
decre
Slov
attached
images
ast
62
##rell
device
convinc
CH
gent
spend
leaned
Real
purchase
1900
sector
crossed
Please
##chers
##CAA
Legisl
##owa
Winter
##SA
Prior
##ami
lin
Jason
htt
passes
clock
Channel
##ossible
shell
Lincoln
Anne
symbol
lying
reign
clin
Melbourne
rival
neither
wondered
##agu
Whit
1933
establishment
argued
##ront
Moscow
Prize
approached
sad
causes
Squad
forth
chemical
##isis
##LA
Minnes
Dal
foundation
priest
deploy
Sum
Vietnam
improve
##cing
1929
scream
Norwe
##achelor
scenes
resear
touchdown
survived
recognition
Hou
bronze
interact
##olas
landsc
##struction
painted
59
Military
Wars
##igration
bringing
Kansas
Reb
certainly
Tai
##ba
Ret
Writ
gro
Minnesota
liqu
Abd
Miller
shoulders
listen
Cab
Baron
joining
lyrics
regarded
fixed
concluded
Dad
Cape
lock
##EN
Kev
tied
Web
##pool
##ns
##jan
##stances
scheduled
Temple
bands
standards
##eget
stick
##owntown
views
corpor
lights
##oli
surrounded
inters
Mean
##ecution
tank
##urd
Cambridge
##uccess
employees
Point
pow
mental
##OM
advance
injured
tra
stadium
##mes
remind
Ale
##idi
Walter
Patrick
1928
##cles
63
IV
alleged
absol
values
1934
Finally
##acked
choose
criminal
Josh
Cass
##apore
NFL
Margar
independence
Missouri
##acent
Ts
Stock
registered
##uly
##ito
Domin
##iable
##aints
##abil
##hammad
cooper
anyway
Amb
category
Labor
demonstr
plane
Manche
Nich
Joh
##entially
Wolf
Dark
protein
pure
Native
objects
affected
lie
##olished
doct
parall
calm
environmental
assess
drove
##isms
Pope
##arren
##lusion
install
kingdom
revolution
enr
Norwegian
Turkish
Hans
##onsin
##anches
summ
lifted
visual
Memorial
##oked
poetry
capable
##icide
##kes
spin
somewhat
##rent
horses
Right
glanced
strateg
Islamic
unp
ham
Bos
blind
govern
appropri
beach
loan
draft
fruit
Dick
graduate
hidden
Wisc
ethnic
profession
challenge
haven
committed
##lar
hoped
evolution
Norway
responsibility
sale
##eler
##ordan
##acle
##pet
Queensland
incorporated
##formation
Live
charged
Charlie
##gers
Lieutenant
##uration
Singapore
Ast
72
junior
Wisconsin
Gun
resemb
literary
Manchester
##nie
##regon
Tenness
biggest
worse
darkness
##uh
61
dates
##ocese
promote
##ID
AC
##sk
interests
resigned
Low
roads
Nob
vice
NCAA
Burn
Portugues
theor
##agues
intelligence
overse
classical
massive
stating
85
mand
installed
##mm
Security
Malays
costs
inhabitants
explos
substant
SS
Turkey
Ra
beneath
##istol
responded
Again
flowers
Family
Colorado
ori
Tennessee
cod
##wick
##orage
1932
Indiana
Sri
barely
equival
delivered
mountains
restaurant
selection
##alo
knock
interior
##aser
composer
Still
representative
resistance
consecutive
camera
##TA
##acter
##itter
1924
typical
##ui
Author
peak
Luke
remov
voted
hockey
gang
assault
raise
operate
flash
ancest
Had
176
ruled
hide
Five
angry
scre
facing
combination
Philippines
##orters
handle
Buck
##olly
Municip
Samuel
programme
teachers
Pot
##iley
accur
improved
vir
Howard
1922
##ilst
merged
shock
stomach
##ologies
Ow
isol
moth
cous
Studies
candidates
shooting
sed
68
Ark
feelings
journalist
97
township
spoken
changing
##iva
Portuguese
rebu
Od
##zona
engines
covering
programming
Oregon
arrival
mathemat
Mother
##atically
##ext
grounds
sighed
1927
##edding
##writer
##anes
hero
##usal
bedroom
describes
tries
Labour
##jo
opinion
##aire
1912
enjoyed
##night
Vice
nick
##ilation
Swiss
##ogan
rolled
medium
colour
hole
##leep
grey
1931
Sciences
##arsh
lad
inaug
breaking
separated
##umbled
Bureau
##bell
McG
paintings
compete
initi
Quebec
goods
##utt
67
northeast
dressed
liked
divers
##enses
reduce
anger
##MA
1921
76
credit
##ifer
micro
impr
Austria
##igation
papers
fil
willing
observ
Aud
Na
seed
##western
##BI
putting
##uther
landing
proced
km²
impossible
factory
jur
Arizona
exped
agency
##iversary
96
consisting
98
acid
diplom
residence
Niger
##ateur
fan
truly
74
determine
sym
understood
##eland
offering
regularly
##rible
sequence
apparently
zone
Kevin
users
Key
Alan
##overty
Front
##riev
rugby
##uits
accused
##char
enfor
sty
fer
##olt
philosophy
73
##aria
##obe
##rim
coordin
1925
##icians
##oto
communication
##king
nav
exhibition
Billy
expand
88
arranged
Prim
frag
Maryland
forget
overl
somewhere
friendly
##aughters
77
stores
delay
tong
Entertainment
reserv
##je
personnel
Hamilton
Hotel
Building
##ographer
lawyer
inner
##asm
##atures
batter
synt
wounded
discip
5th
##azing
Marine
##ED
1910
##roud
conqu
churches
promise
##itely
Census
apprec
##know
secretary
reserve
##erto
AS
Switzer
1923
##no
constant
1915
Philip
##ommod
mad
Dougl
Brand
techniques
veget
Pap
##ghan
capture
Hollywood
Gram
seventh
democr
##ource
ped
Prop
invasion
78
##uster
marry
##aza
cricket
shrug
participate
charges
constituency
Init
91
wins
writers
tonight
decade
Silver
alco
blank
##ublin
Lin
1916
##boy
saved
Nothing
Grant
Bart
Staff
driven
staring
damaged
Hug
Liberal
1926
##orph
northwest
lady
Foreign
lap
courses
session
degrees
accompanied
Gib
adap
##gor
Bi
Switzerland
##mosp
interpret
ensure
replace
Il
moments
Morgan
surg
Bowl
Affairs
##cho
Places
##razy
Bulgar
examples
Early
faces
##ensed
sections
SR
distributed
Anderson
##uv
refuge
##pe
AP
playoff
Palest
praised
gene
##ogether
starred
electronic
disappeared
undert
convent
Space
unless
plus
net
acknow
##ovic
##lah
##rum
Infantry
Kam
rejected
##inals
Croat
Vis
Supp
chapter
Lyn
sharp
Allen
69
introduction
Gordon
climb
presidential
opera
displ
wore
suffering
gate
Nev
##olis
accommod
##ikh
molec
secure
persons
##ategy
Internet
Review
Executive
upd
Square
##ibl
##ellect
Laur
purposes
Colonel
Jordan
protected
##ori
Fred
Management
engineer
kilomet
Beng
##col
neur
confused
Conc
justice
businesses
##attered
applications
##ensions
Whe
tiny
divor
sees
hug
Finn
##asant
Trop
adjacent
Anthony
Marie
Soon
pale
##ET
1930s
Television
Carr
Margaret
##wich
Deb
##bing
Mit
Armen
passengers
Israeli
Oak
indeed
pocket
tropical
solution
branches
benefit
surre
##abled
Wy
piano
comput
Jimmy
earliest
sir
dad
franch
Trib
islands
noise
##aro
graph
documents
##ymn
phen
Children
mobile
fant
##ruption
Commander
Rural
Houston
decide
duties
prize
##odge
pup
Mess
##ww
transition
Kelly
##emic
Fel
rif
Diego
Rub
Mond
Kentucky
Disc
Johnny
##agen
extension
71
advoc
Sky
Gard
Third
##ques
spr
murd
hundreds
paus
Antonio
##rait
agricultural
##icip
conce
myth
##ception
gaze
##odox
Farm
Hop
signs
landed
existed
PC
Ty
##ructure
Greece
drawing
##sky
Ever
Roger
Services
Sound
Brigade
Medal
renew
visible
Jake
stup
Have
Pa
experiences
interesting
Juan
Perhaps
crossing
sque
##eston
Dream
##bl
Austin
##fast
flew
boot
Alab
ca
17th
crash
historian
entering
pin
subjects
##iration
84
Cre
Pear
##wealth
furn
##eton
aspects
protest
Engineering
jazz
locomot
expert
##encing
Ec
absor
Imperial
##resents
##orror
##hyth
##bled
Brun
##ige
##iders
smooth
user
concrete
Senior
tired
##AM
returns
tie
poverty
##oen
DC
pregn
erect
recip
Magazine
pione
93
forming
comic
designs
Inn
Member
authors
falls
##rett
##PS
##esc
hits
Modern
dating
musicians
busy
enh
childhood
represents
threatened
moon
medicine
##atherine
##kh
Ban
Hold
##acher
achieve
severe
##osure
##ture
steam
Ren
Mississ
##arc
context
thanks
87
deleg
relative
Spe
treated
stairs
##oking
anymore
factors
assistance
##heastern
roughly
##yard
##angel
Transport
parent
1913
intent
circle
DNA
studying
175
92
investment
premiered
bless
util
##anton
Vinc
1911
##load
theat
Maur
jumped
Mayor
linked
Pur
relax
gh
600
##going
Adv
carefully
weren
Unt
fill
Douglas
wedding
cards
Forces
instance
AT
##ocol
parallel
tomorrow
##ounced
rising
##da
##erb
##idel
Last
##roit
Karl
Phill
soil
AR
##itated
Dean
##organ
##asp
celebr
gathered
##osm
Mand
demonst
courts
##rehens
Gri
stages
Dig
factor
worried
gift
false
regiment
hoping
##ante
excell
prompt
exception
notably
glad
Kir
86
NY
82
rating
atmosp
Polit
##bro
##andom
##iac
earn
begun
##ieties
railroad
##key
Beck
##pass
fro
##uma
Hand
Clin
##oa
survive
Frederick
useful
Bou
cinem
##iami
vocals
Thanks
Alabama
deliver
Naval
tor
Officer
grandfather
##bel
balance
giant
equivalent
Commonwealth
##avia
Fame
##dale
emerged
##otte
94
##ieval
beauty
margin
translated
copy
##box
Village
Buddh
operates
concerns
composition
##acon
universe
matters
veter
Meanwhile
stress
ocean
intention
##onom
Eag
bishop
##afe
southeast
Regional
requires
Fal
Cole
##aux
##coming
repair
marine
meters
unusual
Harris
Belg
poem
##ishment
racial
Hockey
gentle
pitch
Holl
dies
Tun
differences
Miami
##overs
##order
UC
worst
elder
photograph
pill
##ework
Camer
##stal
surrender
Squadron
##using
fallen
Fund
##agg
Moon
partnership
##ebr
Cost
adding
classic
therap
file
debuted
Rey
##icit
Lanc
##lesh
rapidly
amongst
Shah
Death
Germ
##rast
realize
residential
pressed
Communist
guards
daughters
restored
81
Hills
1908
Cooper
Youth
suggests
preced
pictures
resign
Ul
##ania
patient
##isp
##chang
carbon
desper
##elli
mal
tack
Hawai
##ippi
Sud
##otes
nations
vary
Montreal
Bow
musician
Heart
defensive
victims
immigr
soldier
CEO
##don
devices
89
storage
appearing
significantly
Iowa
Design
Within
chamber
measures
southwest
vast
Afghan
satell
Such
##rogen
Sure
Michel
Moore
vic
##aduate
tunnel
fishing
Isa
Chairman
##tery
##athy
movements
eating
cycl
Friday
##enez
Age
##amps
##ifications
Stew
Rang
Pict
intellect
Gabri
retained
flower
250
Nel
##bar
involving
aer
throw
innov
Nag
Ni
indicated
fled
Iron
Cook
Detroit
Tournament
banks
##ectic
push
##ello
crisis
Oklah
Heb
##rik
prisoners
Dall
www
79
Danish
assign
till
##ilty
neighbour
institution
circumstances
emergency
##ni
##thodox
##ho
aren
##CO
reputation
Treat
83
##pur
##rons
Operation
Prix
Las
Beat
800
McK
16th
renov
temporary
pron
##life
weekend
##mon
normally
fifteen
retail
spending
##ista
##iveness
Oklahoma
coat
switch
##essions
##ortunately
##erted
testing
rum
##ardo
##aws
Event
collaboration
##icing
Ku
colonial
rar
Roberts
Lam
talked
Cru
worship
Rio
depos
##TC
Beg
##hess
shit
continuing
##rome
fool
Additionally
##vements
loyal
##IV
Bud
Dublin
Alexand
thir
honest
##orrid
credited
Kl
##iner
##burn
Harvard
policies
publishing
##arts
describe
Care
Grace
downtown
dust
aside
##urally
persp
cash
##anne
##ulating
nickn
Kon
##sex
Fil
possibility
burned
struggle
Constitution
Ry
Da
routes
tort
detail
Chile
Hungarian
quietly
assass
tools
unsuccess
waste
lob
Communic
##enh
Mississippi
eleven
Express
jobs
prove
sail
ears
enth
##insula
canc
practices
Phys
##face
acted
##SP
drugs
lunch
occasionally
##mont
Argentina
strongly
##ernand
Om
Alban
analy
theater
neut
Fall
promised
Ay
imprison
locked
weekly
Si
Administration
bay
favorite
deck
Ru
cousin
##issions
##iped
supplies
##igenous
##adi
tea
visitors
tongue
Ky
Non
Ian
Kings
danger
jack
Walker
##anner
smoke
##inding
strategy
advice
contributions
gard
rates
##lev
mining
traveled
myst
penal
6th
increasingly
Palace
appointment
##opes
gender
sounded
##oria
Alice
align
sole
arrest
##lude
Admiral
Ltd
seeking
defeating
##inking
Edd
Mountains
##mate
1905
closing
Puerto
Taiwan
##avalry
Without
Christop
eval
##rod
Peace
poly
scholar
Lawrence
##emen
hate
Bruce
ownership
Vienn
clothing
Kennedy
Album
criticized
stupid
Ped
##adows
Benn
string
champions
##rix
Tob
wake
hes
panel
manage
anniversary
approval
winners
Therefore
Seb
passage
liquid
Ib
destruction
##elsh
##assador
rescue
organisation
painter
Lang
flows
Baseball
Cemetery
immediate
complic
##ester
illegal
popularity
##issance
forever
Louisiana
scheme
Edin
##cription
franchise
##igar
parking
smell
archae
Gulf
Gallery
shouted
Fu
Op
Kaz
heading
##ugg
submar
174
Princess
moves
gently
Representatives
creature
whilst
accounts
faculty
mor
provincial
##orship
diagn
ABC
adapted
technique
Denmark
membership
Spr
joy
##equ
1906
pulling
##uscript
exposed
Deputy
anth
Bull
##aver
Donald
120
Having
translation
faster
Has
spell
Independent
shift
novels
releg
Belgium
Rud
naval
##iege
debate
mounted
por
##30
print
considerable
blocks
mob
sentence
vert
##nold
prime
##zh
tact
fifty
Disney
cave
##asters
##unction
hal
Sac
Reserve
dated
Cher
underground
160
##estyle
1907
vessel
guilty
rocks
##enger
##oom
Atlanta
Pitts
exha
feels
##ancer
NAS
meat
suspic
7th
CS
##olph
Ukr
equipped
repro
##stan
Micro
formally
classified
##ewhere
Railroad
Chall
Associ
Ottoman
Yet
burning
Bapt
Unlike
innoc
Sin
shield
Fine
boss
Until
requirements
Ener
##after
advis
##borough
##icial
remove
Mach
brig
Besides
happens
##dam
actors
rib
Gor
##itched
1909
##track
legislation
Nar
somehow
##theless
withdraw
processes
12th
##ivated
wrapped
golden
##ribute
fault
##itable
inch
Got
lasted
##tenance
touched
Lank
denied
Ukraine
definition
ninet
164
##ulous
Set
exists
Territ
Hungary
fab
##rous
Welsh
suicide
drinking
Hamp
Brazilian
torn
##eenth
Hit
Edinburgh
Sport
##rac
unn
verse
universities
Battalion
visiting
Crown
upgr
Garden
Cow
##azed
replacement
Ern
offensive
Peters
crop
assemb
Vik
affairs
Liver
Blood
hosts
vamp
boats
Tamil
Mort
Alfred
phr
reinfor
Dh
dollars
mart
bon
##iller
plain
paused
##21
Seattle
Ext
instruments
Tit
Carter
greatly
attracted
filed
Bush
Rugby
Dead
##amental
Rights
##imore
IN
refere
mask
fulf
Russell
Cry
throne
gest
fict
frequency
##ighters
ranking
trem
relationships
##rose
couples
Tell
tennis
pound
commune
##aders
##uri
Ward
da
customers
Chen
stuck
proposal
Take
burst
##ci
avo
Beth
divisions
movies
successor
meetings
easier
passion
Christians
Cro
##usalem
Sax
li
spark
Judge
##place
warning
assembly
rounds
##amic
Pas
appropriate
Something
horror
org
##cha
juris
##hythm
criticism
mode
hip
Barr
shore
Tokyo
Mission
declined
casual
Buff
##ecticut
##DA
Publ
Connecticut
Rain
Jerusalem
license
alcohol
commanded
Broadway
Gary
##aware
##imp
meets
CP
components
1904
FA
publications
##engt
strip
deputy
Fac
pages
depending
##bles
Austrian
frust
##aron
Nav
explan
Roc
Ukrain
monitor
warri
##itals
synd
celebrated
166
##EL
##icop
AN
##ontin
effectively
gear
beer
##gress
gradually
prohib
birthday
Lith
##veland
Frey
13th
guide
tests
happening
prayer
beating
vessels
behavi
Local
##tha
flesh
Global
##exp
deeply
agents
##inian
listening
absence
slight
##TS
horiz
##lete
SP
Ult
##crib
knife
shrugged
twin
landscape
Nazi
##eling
occupation
##eley
makeup
Muhammad
Singh
manuscript
Hispan
Ton
170
Bed
MS
heritage
heaven
attorney
upset
Iv
Qur
##aning
Lane
Defense
forests
coastal
Opera
crazy
edited
Say
Mack
forty
ghost
pump
McD
Andy
##erg
##DP
honour
waves
markets
Hope
grave
##ogy
Ze
##11
peaked
chuck
##edo
1902
##low
aimed
emotional
Cleveland
rivers
knees
Johann
relie
select
bell
sisters
dreams
Franklin
nod
sav
powered
Seven
mirror
discussion
replacing
Maj
riding
Heritage
palace
1901
##otton
pink
##mates
lip
nurs
expedition
extent
Upper
##ogs
medieval
##rine
sending
Colomb
Liverpool
rig
squadron
##ega
coverage
confess
random
dear
##eps
Agency
Orchestra
Lib
##iece
##certain
signing
hanging
anch
anx
pleasure
manif
entertainment
##state
Round
Morris
bottle
surviving
Thompson
wire
Pun
##gie
Shan
influential
crown
##rm
battles
Along
##oard
discovery
Christopher
Dallas
Exc
Campbell
Vienna
apply
reun
Muslims
Portugal
##iture
circuit
violent
##ultane
informed
##itting
adopt
milit
##astery
Yug
encouraged
trick
plastic
Adams
output
losses
Alliance
injuries
outer
Nep
1903
valid
Malaysia
##bow
tribe
benefits
##aman
guitarist
##RE
crack
afterwards
merely
Orle
eighth
##arant
shifted
personality
IC
permission
minimum
cited
extreme
##net
Berk
identify
15th
Chand
embr
Honor
##ayer
fest
Marshall
##rastructure
##inction
discussed
Dyn
Senator
belonged
creative
Nelson
##alia
memories
whereas
nervous
dynasty
schedule
Knight
Row
competitions
Indonesia
decisions
drunk
Metropolitan
restrict
##reck
Norman
##orus
strict
Nash
Horn
##umph
Crit
bathroom
##AL
convinced
occasions
##bal
Barry
charts
Baltimore
USS
##emies
##cia
Market
smart
expensive
##olves
Stewart
##estone
ow
cow
imagine
##pha
Next
commented
mail
yield
kissed
##oda
description
simpl
symp
artistic
stable
involvement
Legislative
##intend
##abilities
Metro
leather
scientists
alleg
input
##ultan
modified
executed
hunting
roots
bowl
ju
Psych
Surv
sid
completion
grav
apparent
victim
bother
##uable
Stu
##inations
Would
##itate
##sters
Mars
proof
Cra
Lower
superv
memorial
demanded
leaf
gray
SC
gal
Tro
sleeping
commem
Ent
##chell
Mind
reven
Brothers
Studios
acknowled
belt
##merce
superior
10th
argument
debt
colors
insurance
moder
##engthen
1920s
##zer
adults
qualifying
opportunities
##ladesh
printed
##onder
##mina
Conservative
bull
Ald
Orleans
boundary
invent
surgery
swimming
##esis
Bangladesh
##OU
illness
##icking
Carm
wars
##seud
##raph
proport
Vic
emotion
filmed
Hunter
Din
graduating
##ls
departure
perce
168
soccer
anywhere
Voiv
tip
annually
external
ceiling
consp
fasc
negoti
manufacturing
Cathedral
Around
preserved
##arma
decline
Gill
Equ
Orthodox
Hend
seriously
Nort
monument
Jonathan
##oga
14th
designer
##rets
WW
##agger
##tering
##avan
Emer
dominated
##fe
##mother
cul
proud
taste
raising
lists
Ins
spir
competing
eliminated
maintenance
Boys
##nal
Wright
sponsored
outd
essential
Liter
##RC
recordings
newspapers
worn
Rand
Fried
Et
##oped
08
Daily
Convention
orange
dying
##IP
Py
enthus
abuse
recommended
cleared
Pierre
##eing
escaped
Soph
##pent
blow
##rat
inqu
backed
Chamber
Fri
##OC
Anc
Everyone
cabinet
prol
posted
##ographical
excess
Invest
resolution
tear
Benj
Pittsburgh
##orf
##mingham
pod
shares
wides
Energy
##12
Chel
Carn
Dance
##rection
##igible
youngest
distinguished
talent
##odeship
remainder
##roph
09
Ukrainian
Tan
recovered
gay
guests
emotions
breathing
Graham
##iri
Note
Tu
##bridge
artillery
collaps
##igious
Confeder
Environment
moral
Tower
##apolis
statue
8th
cyl
##ials
rit
toss
comfortable
Gray
shopping
recommend
##uated
##issa
rarely
Hindu
##aping
jurisd
Guy
NS
Face
Everything
Eventually
Place
trading
##case
Stanley
outl
Kate
wished
connect
Dak
##lon
##geon
domain
##appy
dub
Voivodeship
Fleet
exceed
heir
missions
enemies
sup
Birmingham
Hebrew
deaths
Nam
##icate
penalty
ash
recre
cock
employment
Robinson
Serge
admin
Glas
obviously
11th
portrayed
##zy
breat
Saf
writes
vul
amateur
Patri
##annels
exercise
Chart
principles
Information
##obi
bone
tex
soundtrack
Schools
dri
##ensis
Originally
bench
Indians
eggs
profile
Vincent
##ayan
render
##IL
##orer
viewed
behalf
##ranean
Hom
Assist
##acht
Murray
tempor
Ka
##stance
tent
CBS
##utely
##ologists
breakfast
Leban
Emma
Sometimes
longest
##asi
##asha
Ivan
alien
##usk
possession
funded
unlike
conclusion
##ctic
greet
versus
persu
latest
terminal
Much
##cement
cm
##pread
Egyptian
displayed
Brooklyn
satellite
controversial
marketing
indicate
detailed
Pin
Yugosl
Finland
##igs
corporate
Venez
instrumental
Pad
Gw
##ovo
Champions
##lus
##ibilities
Neg
Gon
spaces
1898
##bra
Priv
Tol
gross
Bri
lift
simultane
habitat
medals
##ashes
suspended
##orous
segment
arc
Shortly
##sch
cable
afford
##ean
VII
Grey
Lud
congreg
##isition
totally
##gow
Authority
Baptist
##zym
Constant
marks
##di
beet
dogs
##sewhere
collections
limits
span
intersection
Victorian
cabin
##ephone
retreat
Swe
Nord
Champion
Sad
##ospel
Sah
##sea
swall
dat
Roll
##cript
periods
ST
##udes
##xic
tiss
arrive
participation
NBA
Vel
##emed
Bernard
hiding
##oust
##aments
##ivation
1000
recognize
intense
sharing
knocked
##olid
romantic
##attan
##etta
definitely
Girls
THE
genre
Benjamin
Tig
##break
governments
claiming
Mong
atmosphere
##olo
Mason
directors
confidence
draf
##teenth
excellent
temp
smiling
##igrated
salt
Hispanic
procl
elevation
regime
Ori
lieutenant
Shel
err
conj
Lithuan
characteristics
##iciency
Carlos
concentration
shadow
PA
nomination
tribes
Athletic
slave
photo
Hann
##eria
##onscious
ranks
astron
##olen
butter
tub
rated
##pa
accl
##whel
extract
bid
aggreg
reaches
##othy
foss
##otype
##empl
ruling
counties
Food
Sign
attending
##rently
colony
cutting
partially
##25
Arkansas
ideal
infantry
songwriter
Griff
widespread
anticip
##urse
1890
slipped
Charlotte
asleep
index
secured
Carib
processing
##mo
Germans
##ortion
tool
electoral
##eping
frequent
Mak
videos
PS
milk
##oples
##irts
competitive
##onian
##St
cargo
controversy
Susan
ceased
resid
Danny
Protest
##osc
Dub
##bishop
relev
Start
substantial
Phoen
##mers
##addy
exit
sang
##DS
http
desert
subsidi
partly
Alt
dancing
Parker
##stairs
reward
Sid
defending
Princip
Bobby
chapel
button
dozen
defence
hook
distract
Bird
shaking
NBC
Method
Monday
loose
Windows
##LC
donated
careful
ward
populations
##HS
##arrass
transportation
##lock
Bey
1899
cried
Bear
principle
##prise
##iya
helps
Agricult
viewers
##bach
assum
Capital
helicop
audio
dragon
##irm
Near
guarant
struggled
preferred
Story
explo
associate
Salv
laughing
nom
##atus
Pir
Dom
Wrest
networks
creatures
centers
diameter
liberal
breast
##itarian
Chem
##ailand
Nicholas
stronger
believes
##chi
solar
perspective
##ricted
Aqu
##orious
Oliver
patterns
representation
supports
Gabriel
##iop
##areness
167
agencies
continu
##agers
advertising
sufficient
placing
Notable
knee
channels
colored
attributed
practical
Cad
underw
Utah
horn
EU
Apple
fate
excited
slaves
Training
Guine
##acles
generated
commemor
coinc
##elia
Mans
gotten
worksh
##fare
gif
165
##ricane
DJ
percentage
9th
nat
naked
corrid
Rest
slid
themes
##terior
supporters
stim
##hu
electron
Richmond
Hud
Mitchell
07
erected
yelled
700
Vas
Warren
fictional
wanting
shoes
wick
Mediter
ignored
mood
##ectors
##lessly
awareness
conservative
Arabic
Clar
highlight
noble
pursue
Amy
Jerry
prosp
Medicine
dismissed
##iph
compilation
Hir
Pil
param
Thailand
tum
##angle
Ga
overwhel
##ensively
Dragon
IP
descent
##ifies
169
encl
Bomb
princ
swing
##elta
rushed
Sean
specim
Evans
subur
voting
stops
unw
abroad
checked
paying
Romania
Product
championships
Wayne
##apse
agriculture
Lad
infrastructure
confusion
Scient
poison
Wait
173
##19
producers
05
prepare
slam
funeral
convention
literally
machines
##egas
wonderful
myster
representatives
hills
dual
1896
predomin
Natural
cigar
##oca
Manh
je
Portland
Venezuel
charity
Trade
trend
Rico
1895
##last
Broadcast
categories
dirt
requested
##IM
bread
parliamentary
##uman
climbed
Abraham
Put
Mall
venue
##wall
Wing
Marcus
##struct
condem
uncertain
##isb
ourselves
##lie
##master
##andal
##ulu
innings
##mphony
Luther
fighter
Contin
Fitz
##bean
##ouver
participants
Mick
ratio
embarrass
luck
electricity
##ancell
06
architectural
##ulum
apolog
Kan
suitable
consciousness
##graduate
Motor
Emily
borders
Afghanistan
##fire
contribution
UE
sustain
##olve
options
scar
distant
##fa
Comple
adaptation
##opp
Lock
decides
friendship
Len
thrown
concerts
##ahn
merchant
##enson
answers
concerning
pace
Clay
Similar
sne
##15
##ationally
Canal
wealthy
Plat
Box
##eded
interrupted
opponent
electrical
Mediterranean
Mes
Glasgow
##GB
affiliated
letting
NO
confer
##aceae
Ref
poems
enzym
facil
gods
Season
overs
nut
Together
Rena
Movement
1897
affect
demolished
##ivia
component
produces
##ouses
cruc
##car
attempting
Bra
ordinary
Rachel
voices
reveals
Treaty
Scar
kidn
woods
Belgian
inches
isolated
##ugh
##oded
scared
runner
Helen
Theater
releases
integrated
brings
contested
##anga
Vanc
Trump
operational
Advent
ho
vs
Basketball
##acts
suck
##ashi
predecess
assets
mathematics
layer
Barbara
Ko
##yler
Pont
##mund
publicly
Eug
Perform
Ord
bacter
##ygen
Baker
recalled
kicked
##amo
##ictions
transmission
##rov
Harrison
Kil
credits
##ti
Keep
considering
Works
tag
classification
dealing
Aer
Frances
Ric
Laura
lung
conven
##eta
##ivan
sear
Catherine
thinks
farmers
styles
##hard
##asa
licensed
platforms
compens
searching
les
queen
Chang
Fab
FIFA
Living
Orange
##oly
LP
Joy
##archy
ages
Kit
Bert
Small
publisher
Rap
hardly
incred
Fernand
communications
Soul
pointing
animated
Milan
sugar
##esty
Merc
Freyja
Word
cattle
compound
Pruss
reception
NHL
Books
organised
toured
Freedom
Kay
nearest
##opal
##istical
steep
Vancouver
Hyd
Delhi
mechanical
elsewhere
load
##enti
##kee
buck
Mi
Fif
##illo
reass
internet
Player
fabric
##ugs
##TER
forgotten
characterized
##iev
subd
Goth
Ice
Bachelor
stem
Aaron
endemic
Craig
mac
Lov
sized
Cart
##unc
##idal
Obs
genetic
##zes
##duce
delivery
crimes
##ski
##rations
Finnish
Larry
1893
Trinity
Warner
Yorkshire
##iper
Jar
territories
Esc
earning
1889
Tommy
Ve
golf
indigenous
Hampshire
reveal
Rav
##ulus
##nan
remote
relation
##ellion
Eddie
angle
##idges
##orporated
sacrif
##fit
04
constantly
duo
manip
withdrew
civilian
mechanism
##nda
meal
Sebast
Persian
researchers
##onde
##onymous
##onn
##isdom
Gran
Cob
root
links
provision
Catal
##nia
radical
##18
Singles
drum
Bristol
Rabb
##anted
alarm
##town
Being
##endar
ninth
patron
Pete
##omon
##agre
constitution
Trophy
experimental
Kos
strengthen
Lear
Throughout
##azines
jail
agg
texts
stones
130
MA
staying
induct
depic
subt
ol
acceler
tenure
switched
abst
nam
gonna
rifle
Falls
funny
##ication
Zone
suppose
Furthermore
IT
Ral
1892
sentenced
##oven
CN
surviv
murdered
##icle
Record
rect
tribut
Kirk
involves
##uda
##enny
neutral
##abet
ticket
assisted
lowest
##rehensive
Terry
blade
Tib
cemetery
Hig
volumes
Tak
rebuilt
Nation
Saud
Serbian
arrangement
mistake
reportedly
frowned
##OL
##US
1885
sailed
timber
demonstrated
##atched
Manhattan
Romanian
1894
sympt
forehead
fairly
pond
sessions
##ijing
163
zero
Steven
##amework
Comb
stun
Creat
Full
##ports
##ideo
Stars
badly
accord
##uru
##abs
catal
Kum
bigger
terrible
##riers
clar
##arks
Tang
##omfort
connecting
bones
explains
judges
Krist
##repr
broadcasting
Doc
identical
##gate
reluct
Very
##izard
Madrid
##ourse
overt
winds
##16
affair
adjust
##hill
nep
Keith
fitted
Vlad
##emon
abilities
Limited
synthes
jew
junction
increases
continuous
travelled
deliber
admit
fucking
Maine
##acc
opponents
aboard
Caribbean
recognised
athletes
relocated
followers
Hem
diver
Dog
Arena
##reprene
##ompl
##words
attitude
camps
premiere
dece
traveling
immigrants
establishing
ML
##igins
businessman
Does
devoted
annoy
insisted
difficulty
traditions
Code
Jazz
files
Cricket
Fellow
Phoenix
##oni
Section
##expected
Esp
grows
liv
Beijing
rhythm
belonging
1891
##osph
earthqu
Adela
hence
venture
hem
##fish
puzz
deployed
Defence
connections
explanation
departed
Late
Osc
mines
girlfriend
imperial
demands
Clinton
belongs
mans
Christianity
Jama
craft
interpre
##rified
Jen
UEFA
##fers
McL
##bu
diverse
##endment
##oons
Wed
Verm
depression
interpretation
Draft
Sor
##unes
barrel
implemented
arriving
##agar
biological
1888
screamed
Economic
Universal
damn
##RS
1865
Storm
rever
21st
##oba
Gmina
vel
Lisa
##sequently
Steel
restoration
labour
Hawaii
drums
perfectly
Unf
##iler
initiated
Century
sung
enl
##point
locally
Net
reflected
dominant
grace
suspected
chronic
Electric
mini
ongoing
Cold
instant
revenue
##asted
##urers
Greater
implic
Students
Twenty
evac
magazines
settlers
##achment
Leo
##osy
lots
prest
oblig
Ja
indicates
Wang
physics
jury
readers
##lington
##23
##GA
fundamental
wider
sweat
housed
shops
welcome
##owski
Wol
Wes
Pay
adventure
nest
##abi
Abu
disband
##enberg
Standard
forcing
ranging
significance
##hester
Pant
##active
Azerb
beings
Initially
toler
prices
##igo
boundaries
phrase
skill
Glen
desp
##folk
chick
traded
exclusively
1880
classroom
Iranian
suburb
Pow
##sed
eldest
Syria
Azerbai
stair
completing
drivers
prince
##pert
propag
bars
valuable
grinned
##cribed
snapped
Sultan
Lanka
Must
voters
rolling
##aton
Magic
drafted
##OD
##antine
linear
softly
##13
##imir
cream
Beh
Sorry
##14
retriev
Fact
Turner
Kath
butt
error
wondering
##lection
##oning
Theod
strategic
gap
substitute
##loyd
grip
##xual
Wel
icon
Ey
Isab
Cinc
##lines
alliance
##annon
##stad
##okes
1864
Serbia
1861
Ug
Kur
Lucas
tanks
evolved
##azon
shower
Lloyd
Culture
##onies
figured
operator
initiative
py
personally
##eo
config
##nik
03
entertain
excav
AL
##orge
Julia
Grade
Communications
##PA
Woman
shouldn
fee
punishment
Organization
##soft
##roid
conflic
serial
ministry
Sr
##azar
sheep
Reform
##EA
Langu
Years
159
emperor
pregnant
pitched
Attorney
Nigeria
hitting
Speed
confront
Ring
preparation
photographs
##17
comments
1870
terminus
accompl
##bling
aspect
##umped
dependent
Rot
##otyp
sheet
ties
scholarship
Neil
Ny
treaty
vulner
diet
ta
disappoin
focuses
pushing
tons
1940s
tape
inaugural
##uki
Latino
qualify
Vers
Hugh
1887
pleased
Eld
##EE
Barn
Magn
Members
trials
talks
reporter
bent
##berry
##eli
##eva
automatic
spotted
##gorith
Construction
Maced
110
##enburg
Cou
submarine
Eight
minority
lifetime
submitted
##eries
Luis
pip
Bron
##arter
Ms
##gun
fright
touring
ray
##ierra
intr
regulations
waist
artific
dispute
bin
respective
conventional
conservation
caps
battery
##feld
##abe
locality
SA
throwing
collective
##ettes
158
kg
##fly
tested
CC
provinces
PR
turb
telephone
decorated
taxes
reply
##zi
mate
subsidiary
Ruth
Collins
skull
borough
hallway
nephew
properly
Adelaide
pier
bare
1862
##elfare
Link
unsuccessful
##otal
relevant
referring
thereafter
VI
Pack
lowered
Branch
mos
drummer
resumed
##TE
Heaven
##lee
therm
Commissioner
Prad
Nova
tables
dischar
accompany
Athletics
challenges
Insp
item
firing
Bright
quarters
Conserv
##ocation
sigh
Masters
Know
##aha
unexpected
temperatures
suffer
Byz
##ixon
reduction
Isaac
nights
inspiration
tube
##fielder
1863
clan
measured
Abbey
##22
transmit
simultaneously
objective
outstanding
walks
Madison
Meg
managing
clinical
originated
grandmother
Hudson
Ancient
Cuba
Past
Obama
deeper
##astrop
Diam
survival
Mull
counsel
Fem
impressed
wrestling
shots
speaker
##yright
controls
##lem
Mult
Bak
##ingham
client
dict
##rating
monastery
sculpture
oxygen
Sig
honey
##omic
Tech
flex
##iors
ha
Rangers
Mend
shed
##etch
Peru
holiday
Curt
exchang
##lett
##ilia
inhib
##atar
waved
spots
visits
closest
disaster
extend
humanity
portrait
wand
##jar
Action
restricted
##angular
destination
elabor
alter
situations
Trail
##bound
1886
Parish
fert
exposure
##borne
coalition
fantasy
Unit
echo
##essa
beaten
palm
Kor
Ted
##40
Assistant
##oi
##ancellor
##ipper
scope
copper
##umbent
beliefs
chin
bearing
##aja
beam
exclusive
##asses
nurse
Allied
manufactured
Bengal
##orting
kinds
coins
##assy
coaching
Kap
Toy
crying
##olia
listened
Guinea
gathering
prev
craw
collapse
Racing
dramatic
barr
##hent
Thor
Rac
CB
Person
ma
libr
battalion
execution
Challenge
Control
nee
honorary
Alaska
Moh
indicating
describing
##ishers
forb
##ete
##auge
##bie
messages
attacking
ID
##ogle
worker
householder
algorith
YouT
targets
jurisdiction
##bird
reviewed
##rot
125
merger
defended
banned
peoples
##rob
1881
##mun
sample
##terday
Julian
Fisher
harder
servant
protests
sits
Claire
eligible
congress
1884
enters
##osaur
origins
Lucy
instruction
rush
merc
Digital
##unct
promoting
flights
Henri
overseas
jacket
difficulties
topics
thorough
intellectual
Watch
citizen
vertical
activist
BM
comparison
soph
permitted
inherited
Wrestling
##erior
Stra
brill
addressed
ing
dise
folded
IB
##phy
##rific
doubles
##ambig
stretched
organis
##otta
##include
##aco
##oves
accessible
onlyinclude
steady
conversion
charter
Connor
tu
##inson
156
Urban
instructions
Nature
##inning
shocked
##amese
Alberta
cancelled
revers
##incorporated
interviews
Lag
discontin
negotiations
recovery
Springs
##emble
fighters
##eters
traditionally
orchestra
Fant
Sz
reporting
##aba
Bath
Todd
Deep
lucky
carries
scattered
##icia
Studio
corruption
Schol
acres
rabb
Sex
##cling
##alg
lon
Sull
influences
cooperation
computers
Dram
##nered
collapsed
bases
lord
##ecca
Kyle
##EM
Peninsula
warned
municipalities
internationally
##akia
cha
EC
healthy
orn
stolen
Songs
pir
Harold
Microsoft
everywhere
Burg
prisoner
stroke
##iko
pupils
scientist
obsc
generations
Celt
grandson
##osoph
grades
Mul
##pm
emphasis
essentially
Eve
Anglo
gri
##pro
scores
behaviour
155
Yang
directions
industries
cinema
datab
muscle
recall
Socialist
constitutional
Sara
##iry
Fat
amazing
patrol
Stop
angel
guid
RAF
trunk
##hend
legislative
settlements
##ennial
Archbishop
photography
Advis
Self
##mediate
drip
bullet
NA
##ashing
##leyball
Ralph
Aber
EM
Saudi
Brisb
reminded
assume
hopes
petition
Municipality
157
##thy
##vere
Vegas
productions
1882
enorm
canal
pole
YouTube
Eston
cliff
Qual
Hob
Coal
Perry
##uka
subsc
Gent
ease
##mith
Brisbane
Classic
proteins
Dennis
Nevertheless
##castle
##iliation
Malt
Chase
Romanized
##24
unto
thrust
fed
##immer
payment
Pic
Currently
references
stretch
Broadcasting
jaw
##opy
farming
lux
Protestant
Snow
Lan
graduation
exhibited
##brid
therapy
Napole
Pra
##lights
Aw
Bot
Lis
questioned
pseud
Trav
Rat
Fell
Athens
Moses
Dakota
purple
implementation
register
gallery
Democrat
columns
##uez
Barcel
Fun
Saints
Buffalo
pitc
flour
abund
disturb
Bog
Ridge
##lain
CR
ski
manufacturer
Dest
absolute
PhD
yours
shelter
intercept
##arked
Stein
Blues
salv
##achi
Bald
Unfortunately
Soccer
Plant
extensively
amounts
absolutely
Stuart
mud
Jefferson
CO
Bund
##iens
hind
contributing
Icel
Cov
mamm
Buddhist
Symphony
glance
failing
sink
festivals
##gon
maps
##aran
Math
Oscar
##inked
quarterback
symptoms
accurate
tenth
plates
Jamie
distribut
stake
Ax
gardens
encounter
Rogers
Justin
certified
clouds
judgment
##gments
##ido
Tyler
betray
Nan
pairs
nowiki
argue
##onald
Hitler
Cultural
speakers
tier
participating
Um
Munich
Pradesh
enforcement
outbreak
package
locomotives
Rah
praise
Wu
Sha
breaks
editions
procedure
##avor
mainstream
unincorporated
seeds
Philippine
theories
Faith
Democrats
stare
NC
Provinc
##din
writings
framework
orb
Intellig
physician
corridor
instantly
convicted
ruler
##oping
acquisition
resignation
exclud
keys
strang
Sebastian
photos
tap
corresponding
encomp
deemed
CA
##essed
Pel
Element
masc
bats
##eff
organic
##works
##olition
gran
##ucked
##ente
Drive
Cincinn
140
preparing
keeps
mystery
specialized
Holland
Punj
lun
lane
stopping
doctors
fo
##athon
narrative
supplied
lined
couch
divorce
Tag
##erness
perceived
carrier
shake
wolf
tension
Hamb
playoffs
flank
distinction
Side
##vet
colleges
Sony
clients
equally
privile
Hond
innocent
overlook
##chen
##uro
Ground
sixteen
reorgan
##ansk
inhab
approaches
campaigns
rent
Nathan
Iceland
##igger
##eno
Blake
partial
Chester
hated
##zed
Rodrig
universal
Sudden
##ked
##itime
cam
sensitive
Leeds
##ucker
1860
##uin
furniture
##ensional
1883
Based
happiness
Cameron
Coach
coc
corps
tourist
repeatedly
tribute
cavalry
##isha
stored
##itches
Inside
##iti
Gregory
##neath
shorter
pants
temporarily
impression
Former
infl
Talk
##eled
celebration
Hus
Commons
Cincinnati
colleagues
Could
##enton
accum
pounds
geomet
Stef
##inite
tough
Municipal
##arrison
engage
opens
##bes
Nevada
Tab
loves
accomplish
migr
diseases
Syl
finance
##mi
##oker
monster
Tigers
Males
Salt
delight
confident
consistent
tale
holy
explosion
punk
##urst
challenged
approaching
Yank
##vor
thirteen
MD
enrolled
Guardian
Murphy
Yam
##omed
bold
1876
##anim
restaurants
1871
Shir
encourage
Mann
dining
##enos
Jin
##oric
Norfolk
phenomen
Block
Beaut
doorway
experiments
monthly
Barcelona
##iast
Minor
impressive
mixture
True
##ailing
Denver
crosses
signals
Colombia
Model
rice
Cu
##aca
##rox
1878
nobody
hosp
consequences
Nancy
Herbert
Ferr
Pictures
prox
reducing
surprising
lessons
peer
lobby
summit
unconscious
Armenian
wreck
hyper
##away
dil
Gay
focusing
cuts
artificial
plenty
##itis
receives
legit
##enia
fourteen
Spen
width
disambig
##span
depicted
Architect
godd
Lion
distinctive
statements
Return
dirty
killer
Diocese
Pearl
Systems
rational
Diamond
millions
##oko
##holm
commenced
Industrial
Borough
Occ
##roll
cloth
##ded
Nebr
rode
Mut
garage
Shaw
memor
dish
##itic
Log
holes
blog
pharm
Video
Sierra
Hi
Yu
saving
Quest
Cinem
##anie
topic
characteristic
attendance
##orld
Too
interaction
Jenny
##riet
physically
Constit
employee
Sug
virus
Cyr
##ampton
spirits
bachelor
##ournaments
carved
Manuel
##kar
likes
Antar
posts
Cand
oriented
investigate
weird
travels
Moroc
Warri
Term
perpet
Arc
politicians
Buch
recipient
remix
##eted
whenever
##oro
excit
Rivers
Tas
disambiguation
kilometers
explicit
designation
delayed
revised
##ouncill
filming
harsh
##avery
Territory
Ship
##ubs
OS
##ahl
entreprene
descendants
Gonz
namely
##ounce
##rates
proceeded
Political
##amped
prel
Nebraska
##inda
devast
eyed
lighting
Cec
##axy
minds
permit
arrives
Opp
revenge
##idency
diplomatic
##eyer
##erek
gauge
Jesse
empire
spac
occasional
##via
confirm
departments
##27
Edwards
##inum
torp
Hello
spun
na
virtual
Cant
##isen
Sao
lingu
##rav
cheeks
Bond
Stre
##ovich
Brew
bonus
perf
Ess
binding
jet
Steph
##onomous
volunteers
##owship
##ipher
##IR
Nepal
Baby
Rou
##umble
##inated
##overed
##asia
bore
Marx
Mig
##outheastern
Gust
cotton
tomb
bloody
boyfriend
stir
diamond
efficient
Soft
dissolved
relieved
##ealous
##oka
##care
Typ
twisted
Expl
encountered
inject
Truth
muscles
voy
Survey
##itects
guidance
examination
speaks
Kill
elementary
numbered
Hav
customer
concentrated
regul
Fight
Which
transformed
##eto
beast
1867
##wing
##izer
Kenya
Florence
Costa
feather
1875
tissue
beetle
##itudes
neighb
Pedro
3D
Tall
usage
reverse
technologies
regardless
Bun
Sul
automatically
naturally
Half
vital
Maz
thereby
##anni
Cord
Confederate
##ashwords
1872
raw
panic
functional
outdoor
celebrate
gates
collaborated
commitment
convince
Ps
fluid
Historical
altitude
inducted
101
courage
Nine
relay
ber
##dy
servants
Suddenly
alternate
pride
##ivic
Daw
##ificate
##cut
gaining
Pul
shadows
Amster
tasks
Ethiop
removal
Seg
pap
trapped
prey
historians
1879
McM
Type
concepts
allies
##rafts
destro
sequel
consolid
Testament
Sweet
Whatever
solutions
env
Joan
Newcastle
Ghost
creates
scrap
Sut
laughter
elevated
##ghai
Uncle
##bul
##ookie
Ernest
Shakes
blocked
Raw
observation
breeding
extending
Owen
##etown
struggling
Hat
priests
sovere
orbit
##agons
##tar
laboratory
swept
Heavy
##ouch
Amsterdam
relegated
prevented
Kle
CM
recur
endors
##velt
retain
mi
porch
Og
floors
curric
1868
Inv
gigg
##26
Number
##rawn
##iji
cogn
153
Venice
consumption
##lend
##inge
radar
Alger
hungry
extinct
abstract
nickname
communist
##ugged
kings
capita
thumb
Google
drain
Derby
Azerbaijan
##vi
Wallace
basement
##gom
Argentine
economics
##arted
Lions
Computer
maintaining
##opl
##asse
induc
quad
prosecut
Sullivan
Using
resort
Prophet
##bi
Policy
Thurs
Ran
siege
subdiv
regret
##zo
tightly
##sson
blend
Fam
Jeremy
calendar
rod
Petersburg
Wednes
Lux
companion
Professional
##hl
##gus
blame
Horse
arena
Circuit
##acre
Prom
brilliant
Pere
sidew
femin
Filip
Dol
Days
##pear
hypothes
Make
Morning
Harvey
motorcy
sacred
Wilhel
Exper
facts
facade
bankrupt
explore
offs
Suz
Race
Harbor
comprehensive
##edge
Thai
Industry
ware
buses
1874
Chapel
Sof
##ambers
Wa
##hum
Roose
Report
presents
Fig
Aid
Sic
releasing
154
Ghana
Giants
optim
flowing
1873
woke
variable
relatives
mysterious
Karen
##isons
Mol
Sak
wisdom
##wig
Yale
##ampa
compiled
meth
Chan
circular
dropping
Airl
Mahar
##mus
renowned
stere
rope
Haz
cro
Thunder
Thursday
basin
prosper
Cond
##erie
##quis
penet
chrom
Bav
Yellow
Kun
residing
Leader
01
Liga
##ema
vampire
elite
SM
underneath
Newton
Colin
predecessor
Less
Compet
##inted
feud
Raymond
clay
Facebook
squeez
stiff
Range
promin
1866
##zing
widow
contracts
earthquake
Technical
Shakespear
choir
Faculty
##isible
loaded
Gang
firmly
Seth
Comics
##iffer
2000s
sleev
Friends
Remember
annex
cultures
1877
suspect
fewer
metre
Arnold
seized
##acco
fame
tournaments
eager
bub
infer
documented
##mat
Bulgarian
honors
consumer
##wer
engagement
None
##iao
logic
accomplished
Syrian
slip
bitter
##rimination
manifest
expecting
Croatia
rej
loop
historically
##umbling
improvement
conspir
bend
sacrifice
martial
Ottawa
faint
fib
administered
backing
##acking
MC
Anglic
Warsaw
haz
Leonard
Croatian
Wednesday
##vo
coached
Independence
Lost
crick
##icated
105
boards
shallow
cosm
##idad
Bour
##esar
preserve
sew
mit
contents
SH
Lebanon
dawn
wheels
fraud
trap
##asht
veteran
SE
##sa
maid
Valent
Oil
glasses
HD
##ishops
exhibit
Try
crops
Montana
contribute
enormous
Hunt
OK
##osexual
interchange
##ING
rushing
imprisoned
##inate
Language
##gi
##agram
parks
brigade
moist
logo
intensity
samples
Roosevelt
##rep
FBI
Gilbert
##eda
legislature
Room
##agged
nit
Garcia
Hughes
Hein
Watson
##err
##maker
Logan
AB
bridges
Vern
##rup
cad
believing
##kward
examined
chemistry
Bass
assists
improvements
ecc
mild
efficiency
Edition
disbanded
armor
boxes
arrangements
actively
Someone
triple
1800
cu
sanct
spite
boots
Dame
achievement
##ught
Geoff
closure
Malay
Left
connects
##hyd
##eu
disorder
edges
uncomfort
nic
experts
accommodate
orche
##auc
Romans
##avier
guided
favourite
CDP
Kol
##levard
Aj
sustained
Shanghai
overcome
##ults
Gra
##sis
comprises
Treas
##rage
Lil
Spencer
striking
realised
rounded
stern
Guild
Tibet
footage
Wells
AA
Wellington
##ucks
Trad
lover
##eh
##aters
excitement
pian
comed
regist
Syn
LA
##avin
bapt
108
athletic
##ikes
##ilda
##atoes
radiation
##ags
Delaware
weaken
Ober
structural
coaches
##isting
handling
ate
##stown
https
haul
Players
recruited
##icity
Tir
loving
##ieg
permanently
##orne
##ffield
Annie
##enched
bears
dock
incumbent
buff
helicopter
enact
DS
separation
Stanford
Eagle
quit
congregation
balls
Gas
Bulgaria
Apoll
Contem
patri
Dim
cott
Walt
announcement
gymn
Lamb
circles
wrist
witch
supplement
Pain
chuckled
comprom
##gence
ritual
Pod
cylinder
##ste
floating
Jennifer
fastest
##inery
##isle
genes
Linda
vocalist
casualties
blur
Things
grim
1848
##atern
Delta
lakes
aims
1869
nowhere
Lex
entity
##arded
Butler
##addle
ib
Southeast
attractive
blast
feeding
puts
Cut
tours
Lot
Intelligence
severely
travelling
Iraqi
Julie
##tic
yesterday
concur
Formula
hardware
Pand
variant
##28
retro
Planet
Imm
healing
##cht
Jacques
vig
divine
##amics
stead
Chi
Tat
slept
Cruz
Berkeley
mere
detect
displays
introduce
mall
threats
##child
revel
organisations
counterp
Darwin
imagined
invented
tut
fortress
semif
Chronic
acknowledged
practiced
patent
Crime
Financ
Ches
abrupt
Reading
Cel
##ushes
##FF
Krish
missile
awkward
Shin
soap
studios
renewed
convey
##otted
pile
Chad
dimensional
midfielder
Wonder
PM
democracy
raced
Brah
##arus
planted
Dian
eighteen
Nad
##iolet
Byzantine
altar
900
seemingly
##pat
Higher
suggesting
rebellion
signature
pilots
dw
Pick
fier
equation
##OP
centered
##abbing
email
Bened
screaming
bags
chairs
affiliate
complicated
##oj
threatening
installation
##beat
##lif
cheer
volunteer
##alam
##yers
##aho
leaning
Exchange
mainland
Mills
desired
altered
sake
progressive
1850
##alm
##eous
##agonist
spare
Legend
##iscopal
screw
presentation
dialogue
Beginning
Campaign
hearts
Satan
psychology
undergraduate
neighboring
Venezuela
landmark
##sor
academy
##RI
Tong
##oshi
##istent
exhaust
##29
cust
##oustic
resur
MTV
Protection
regulation
Chuck
Anim
Nashville
bombing
verses
Berg
Map
Others
shipping
cooking
magnetic
refugees
psychological
abolished
##OW
chat
feared
ladies
Swan
ratings
##eals
Moz
mutual
##ovsky
pig
Palmer
enabled
##elet
elevator
athlete
intervention
Otto
Rams
##cester
##lining
##isan
survivors
revealing
variation
Phillips
authored
Crow
wise
fence
exhibitions
##urated
Eff
instinct
##etical
Operations
Production
Jessica
climbing
frozen
roster
reserved
bite
mansion
Vent
printing
seated
disg
Sheffield
Ing
Poll
toil
glac
societies
Joshua
resource
bike
thread
##aphic
Private
Looking
Vladimir
Tues
besides
meter
##wright
106
Finance
necessarily
##boards
filling
assignment
Zach
peaceful
##viously
download
fist
Kas
##ovan
receiver
moderate
predominantly
relating
march
convert
tab
##hin
Joint
wishes
attraction
Pav
Tuesday
Dod
##istle
##herd
upcoming
extends
Reed
Price
assembled
##quet
unh
##alkeep
outcome
Cork
Flight
dispers
aqu
##ints
guilt
argues
satisfied
hood
##atta
jerk
stationed
Raf
##rys
suspension
Kid
hospitals
Pent
obst
##ahan
Eagles
clearing
Somers
##iminary
desperate
honored
##umi
LS
wiped
Fro
colonies
Palestine
##origin
Gate
Legion
Financial
Kash
Cair
convoy
dragged
potentially
compat
Altern
depends
sank
absorbed
everybody
##opa
slavery
Anti
Oz
CHAP
retiring
Auck
succession
crashed
##OT
Solomon
Lok
virtually
Doug
Ellen
ft
absent
vulnerable
trace
##ulsion
##ocolate
Sheriff
Montgom
##enders
Universe
programmes
pitcher
tourism
##omi
vow
fortune
parad
##ateful
Fish
##ylan
cameras
assessment
##entieth
discipline
Kab
Montgomery
Villa
ramp
reforms
##found
raid
WH
orient
Secondary
Methodist
possessed
rings
reader
keyboard
Wald
citing
archaeological
##giate
brut
Sey
awake
Slav
Primary
Auckland
##aft
Amazon
##former
Moreover
airline
testim
restore
Vietn
exile
CHAPTER
Kin
humor
Grove
Mik
prestigious
Maurice
Sask
chapters
qualification
Cla
CF
Eugene
Gand
exh
aggregate
ridic
Vietnamese
##otto
##iblings
poured
bout
witnessed
compositions
Craw
joke
updated
Collection
dollar
gifts
horizont
utter
##quer
fires
deals
##idy
curious
layers
##occ
##hell
defender
Aur
Really
subc
victories
##employ
Gaz
Jak
emerging
Shakespeare
spat
crystal
Instit
rocket
reservoir
##WA
denomin
Panama
fract
owns
Give
Shadow
##eper
manages
cruel
prophe
handled
Tax
##haw
runners
hybrid
Franco
AI
Louise
swung
##bye
warn
Euro
eventual
abandon
fisher
Rus
Apart
Lac
immigration
streams
trips
##isch
Lak
portions
Liberty
cricketer
borr
revolutionary
advised
requiring
jealous
Interstate
##ikely
##auer
Celtic
autumn
gover
bulk
seal
Ful
independently
Rhodes
expanding
NG
Caroline
Gothic
heal
notion
Alpha
Guide
kills
exterior
array
Ana
professionals
Spart
governing
##orders
##aund
colspan
memb
ME
trio
picking
Vermont
Bach
breed
##las
siblings
outc
Jur
Lay
##ullah
##alin
Foster
1859
##roe
Elementary
Contemporary
Mang
##esa
compass
Ambassador
barn
Ki
1857
temples
ya
Marvel
Oblast
tract
Serie
topped
routine
vibr
findings
rubbed
Liu
grain
##umer
bicy
reads
procedures
##etheless
AF
##uate
pronounced
##ommunic
riders
photographer
varied
tender
leagues
Junction
touchdowns
##atha
particles
eaten
Chelsea
marble
ridge
complement
fears
ank
sciences
Arabia
frown
surely
locomotive
Cha
substance
accus
Starting
Lily
Mix
##mans
fung
broadcasts
Mam
ambassador
Apost
enzyme
involve
wash
dimin
##race
dialect
minimal
Herz
civilians
##avian
Yugoslavia
##fecture
transformation
##esp
ruins
Claud
Aunt
discl
##igate
##acular
phenomenon
Miles
similarly
Commerce
##hand
Indeed
magical
moll
theatrical
##dal
Miguel
counted
Manager
dealt
aviation
volunt
ferry
Mario
proven
Ster
swift
Ahmad
##vae
##gebra
Anglican
Albums
McN
packed
hull
canon
quoted
glory
##ан
treas
Future
Ronald
evident
Aviation
snake
enroll
Herm
##nip
curtain
Bennett
Coun
fake
ordained
pant
Palestinian
##ateral
104
advertis
solely
washed
##illes
Bod
Perth
Mumb
bast
voiced
institute
wounds
requirement
weigh
developments
founders
farmer
phosph
infection
##oup
Clarke
##hall
realm
Jill
Martha
Bag
burial
Northwest
oak
statistics
rebels
bab
abb
##idding
##ateau
molecular
reh
Prague
dug
Brid
descended
provisions
targeted
noting
revival
Lie
pioneer
##minster
##inks
Ced
MV
Tree
##haus
Grammy
patch
drinks
HMS
##pine
##rock
pour
underwent
Productions
trigger
intens
##uy
perm
Scout
##grade
pursued
bills
remn
##redited
Boulevard
Gir
aggressive
discontinued
Table
illustrated
hurried
armies
souls
Derek
##gal
freight
assured
toll
barrier
##lined
gasped
##cott
Meet
restrictions
authent
grid
buying
reserves
Ethan
protecting
consequence
##ordinary
cathedral
enable
consec
fatal
criteria
##regular
Ahmed
sailing
discovers
diesel
Wag
apprent
hier
discrimination
##uli
trim
Tradition
Sudan
##ittees
faded
unanim
resting
welfare
es
glow
Should
divorced
scandal
variations
Sally
soci
reflection
GT
Eb
Alm
confron
maintains
somebody
tossed
##ento
##itol
hunt
metropolitan
towers
improving
insects
ranges
segments
symbols
princess
Duncan
symmet
Midd
anthrop
##uzz
venues
database
Natal
##original
clo
circulation
terrain
Page
solve
Harm
ultimate
pub
Wilhelm
Tyr
##mill
dubbed
##rina
Economics
Renaissance
Indonesian
artwork
##nut
##holders
specialist
warrior
Parad
##bery
proportion
invitation
##inh
Golf
##uting
democratic
imposed
transit
Aub
GP
Crystal
##munition
thunder
Hamburg
Student
##hev
##umm
ov
define
blues
##oland
Fourth
tourists
NP
Liv
##rator
128
##bek
##rus
revol
tang
diversity
##Hz
redes
##erts
Ign
##oding
curve
identification
advocate
farms
##leton
Dylan
##60
clerk
relaxed
goddess
02
Ach
reop
recruit
Suff
##byter
rust
interface
Cardinal
Pink
##pit
cheap
Columbus
senses
artif
engineers
Friedrich
Conservation
##ussion
literacy
obser
Almost
dorm
##itious
Kerala
rage
##ppe
Twitter
Circle
Gam
pupp
##isely
##LE
colours
Nak
Knights
##yll
Rif
cartoon
Saskat
doctrine
Armed
punch
privately
consent
anchor
OF
referend
Cabinet
inhabited
Citiz
##iblical
Rut
Fly
autobi
publish
1854
Gospel
transported
allegedly
Article
collecting
silently
Essex
##eme
philosoph
Transportation
goalkeep
Wend
warfare
authorized
bol
obey
orph
Devon
Lope
stranger
##ocity
uncon
lifestyle
enjoying
quantum
Gerald
panels
removing
Duc
consideration
103
tributary
intim
ministers
Dy
##anca
Napoleon
Abdul
Adrian
polar
##iciently
1855
tune
BS
scan
rape
predict
Source
avoided
##aukee
Cox
##rity
yeah
stability
Francois
irrit
acquire
##var
Rever
prompted
Workers
conflicts
Exped
##MC
##inus
Writing
precious
Arr
enlisted
handful
Giov
##alling
sixty
##onomy
morph
Heath
arguing
Devil
creator
rivals
steal
imagination
##atra
##etti
Jamaica
drives
Fear
Nas
Environmental
##tingham
Sold
Rebecca
banking
los
##do
sunk
##riages
pine
repeat
Gol
Edmund
presum
auction
Bil
##inae
Mathemat
Indies
Partners
##opol
##atorial
psychiat
##swick
Provincial
107
jumping
##kind
SU
muttered
choices
cub
elderly
Flying
warr
Representative
##apur
slammed
##itus
animation
Punjab
accent
Reich
reactions
Thir
Wals
Bryan
ports
##quin
shame
creek
overwhelming
oct
safely
##sole
Ard
Stakes
##iu
##nell
grants
graphics
Harper
Mumbai
##ountain
manufacturers
clergy
##onica
mature
gram
matrix
Revival
Think
editorial
Revolutionary
analog
escort
Voice
##caster
integration
pav
Liam
cleaning
##istani
aunt
1858
terrorist
pursuit
flames
##Station
mock
Chin
##inyl
aest
duration
medic
##duced
streak
pistol
republic
##sche
##ungle
gravity
##colm
##ourt
searched
detective
##ellation
##strong
Tasman
toxic
centres
nomine
Agriculture
Drake
remarkable
Raid
til
cant
rested
View
generate
Outstanding
1856
commentary
pipe
instructed
weakness
Kurt
##bus
Rolling
nineteenth
appreciate
##uddy
##imo
##boro
irregular
Lon
Data
##usive
pm
##umni
bio
activated
thesis
NASA
Liz
Quarter
Railways
unlikely
##cat
109
Saw
##zens
decrease
Isle
Oakland
Franz
Malcolm
touching
##power
investors
Compan
conductor
##avi
##ensen
BA
Cred
oral
##fol
dwell
Java
##tor
parked
##IG
Artillery
Hank
Weekly
reasonable
Milw
torture
Georgian
colonel
corp
varying
Pret
##eca
bree
eag
##umberland
##core
##iago
##enna
dense
fossil
journals
hometown
dread
##MP
##cano
Categ
lasting
cord
##top
beds
alph
##insky
enlar
##uns
Lopez
##rance
conducting
Tiger
Troy
aster
Dj
knight
##len
##iaz
Betty
Congo
ignore
Forum
##ewise
audiences
lawsuit
PD
##furt
unemploy
Airlines
##senal
ERA
secular
fog
pleasant
Dob
uncomfortable
Philosop
boarding
mentions
inscription
##star
Cuban
prototype
##amation
Phot
outs
##cz
disappointed
ES
ammunition
painful
flooding
belly
abbre
Stockholm
PlayStation
Clear
neighbouring
swallowed
Hass
Cort
curriculum
Ya
blanket
350
jeans
##iary
adequ
##ourg
warriors
##front
Roth
commanding
spo
NAT
occurring
##cos
Triple
##eor
Milwaukee
##UC
Vil
chore
distinguish
cens
Lakes
bark
hasn
149
acceptance
##icious
Somerset
##elyn
exhausted
declar
silk
Brunswick
Preston
##liga
Mine
inev
comics
lectures
contrad
poorly
intelligent
vault
Maggie
operators
115
neglect
priority
##ocal
conjunction
Leices
interpreted
Friend
hydrogen
Tunis
Belle
loos
##hou
Sergeant
gut
Amanda
##omo
imper
Ek
upright
eleg
respected
##ellers
intermediate
compact
##omber
drawings
indoor
tempt
Hous
Neither
##oken
chicken
Stevens
Sang
essay
Gardens
arguments
varies
##alymp
witnesses
marched
##ichi
Bark
proclaimed
##ecraft
##vy
##amy
mineral
##vas
Rice
##overy
##irling
Myst
##pherd
##piece
considerably
1851
##ologically
Track
allegations
submit
syndrome
Haven
volt
nominations
Durham
journalists
casting
Literature
digit
loudly
culmin
brow
##vironments
arose
swear
cryst
Presbyter
activists
Manila
singers
blew
bra
chorus
Zur
##alis
smoking
##inter
acoustic
garrison
##onso
ESP
lovely
Gene
##iology
correl
twentieth
Rush
consultant
comprising
thigh
##illon
carriage
##HA
codice
Bosnia
currency
Cit
##ław
135
arbit
AG
Felix
disgu
##backs
##IDS
triumph
disagre
Simpson
predicted
Yan
Heights
##adier
Riley
tram
eternal
Ferdin
freely
##uto
°C
Hait
Andrea
##erves
offense
##uba
Sophie
capabilities
Path
dwar
##cons
withdrawn
observations
associations
strikes
Gem
Marines
referendum
##uine
boost
romance
kilometres
Gul
127
##izations
dried
LGB
Piet
##andra
manual
governed
Mobile
monitoring
alumin
Similarly
Artist
destroying
Wake
smiles
lesser
frog
accidentally
rises
elaborate
chim
rally
Advanced
CT
scent
spreading
interven
openly
dynamic
##ugu
##ju
fart
##bank
entrepreneur
Ferdinand
##family
##ieu
Bradley
incidents
Armstrong
##attering
Stri
Relations
##egraph
Albanian
Sussex
drift
specimens
contempl
legendary
##ede
Brandon
##eri
Reid
crucial
##arten
Volunte
Stage
Total
batting
kit
backwards
Holmes
unve
##ен
chains
##pers
preliminary
cancel
keen
volleyball
Rene
##anthrop
explaining
Woods
##brook
Westminster
wagon
Nottingham
##nat
##othe
##veill
Rab
Sit
Drew
angels
determination
##hibition
##oku
monarch
Hannah
Buenos
Ages
AFL
nationwide
controlling
staged
Ellis
inherit
HIV
memoir
Shield
reconc
click
Brooks
Cun
Herald
codes
trailer
voyage
trucks
communicate
Aires
flick
Agre
1840
vegetation
citizenship
Paralymp
precip
##isi
##agne
Hod
##DI
metab
Pakistani
Cypr
condemned
Excell
Resp
perception
deriv
Damn
lighter
Highland
ascend
theology
disappoint
graphic
Zhang
##imination
sporting
##eni
Cann
fees
Michelle
Newport
nan
Johannes
##veillance
Andrews
Schw
overhead
interactions
Prison
##gio
customs
##run
##tershire
om
rubber
urged
tob
tribal
Expedition
1852
Kenneth
Folk
conferences
pianist
LGBT
neighbourhood
##aneous
Belarus
compensation
Gur
Dawn
Indianapolis
Pam
Davies
Examp
judicial
##writing
devil
slide
##enzie
firms
trump
attribut
bypass
##raits
CIA
Mold
##ubb
hammer
Kend
lib
learns
##po
intact
##imity
pedest
##anta
Va
Lance
nationally
##enhagen
##acey
pastor
corporation
deposits
sulf
telec
tackles
sor
conceived
storyline
immun
##reated
##esters
##mare
##orse
sheets
environments
Publishing
Kingston
headquartered
Viol
migration
Bruss
breathe
dimensions
righteous
united
##aque
embrace
lineup
Poet
Chancellor
Cornwall
Site
consensus
fairy
stalk
manor
##iscal
##agi
Rank
Trent
Desert
bombs
##fr
demonstrate
Jal
unre
probability
chances
ignor
Plus
##artet
refuses
##urel
##ewell
Against
Viv
responsibilities
Lynn
##atories
##oslov
draws
styl
larvae
129
##RT
Paulo
Dw
luxury
rendered
gamb
##atics
mathematical
reel
Monte
hect
##enne
Powell
##thouse
Lodge
Rib
##inos
amid
##ieve
Performance
onwards
Scotia
Diana
oh
diocese
##ancers
anxiety
cigarette
IF
achievements
Worth
copyright
ling
discussions
1853
brush
lightly
torpedo
spear
bonds
PP
Motors
magnitude
smirk
##inas
Benedict
hurry
cheese
algorithm
SN
agrees
Trevor
ul
Laboratory
navy
collar
missionary
competitors
##encia
corners
Grande
adoption
upgraded
Ng
##enzo
Ecu
contrary
laser
Kem
paras
Leslie
Manit
##imm
##angered
##iots
scales
vicinity
##ucc
hosting
nerve
##ilian
fights
registration
##boys
ric
Behind
epit
Fay
Category
Glou
bund
Guards
##aku
Rhode
ibn
excuse
dimension
##rugu
Ports
Money
dancer
menu
councill
rebel
spine
opposing
thy
performers
vector
##held
Curtis
drops
gig
##ashire
Kiss
##intendent
Prob
##ensing
##nty
cataly
##stable
exploration
adds
##urbed
##itative
118
underlying
midnight
disl
Joel
Lancashire
metaph
bust
Kw
Canter
accordance
Nintend
bits
maneu
spectrum
lou
tickets
configuration
Tru
estates
Hull
frustration
Angels
##itively
biography
bacteria
Iss
##sworth
Hindi
##borg
demons
Rabbi
Sox
Bailey
##bone
salary
Sandy
Beyond
##inging
disbel
spur
airfield
##elong
Bears
alley
export
sometime
##ilion
libraries
Save
Lem
verb
modest
premier
Idaho
southeastern
Films
##erals
##aji
Apollo
rescued
Nintendo
faithful
Sent
kin
militia
Dana
##oop
Scientific
1849
Lic
disabled
Continental
deer
Original
bang
##ellar
Ply
##uxili
Drama
practically
advisor
buzz
##achers
wrap
challenging
Gael
populated
Cauc
##ulates
##ogg
supporter
##math
specified
EN
secretly
##eddy
Belf
Banks
exempt
pilgr
legacy
Principal
descript
##uj
abbrev
##market
goalkeeper
Princeton
axis
XX
##icular
##force
Store
preservation
1500
transpar
checking
117
##stead
patr
##heng
##aru
Cool
flies
Bros
warmth
affection
Geneva
everyday
proximity
dign
privacy
##ea
##idays
surfaces
embed
##iffe
Brussels
##oque
##actic
molecules
compounds
anybody
XV
Jas
Ming
1847
##zon
##zig
##ictionary
brew
cov
Claude
Happy
lease
extraordinary
rejoin
##engers
Formation
consumed
Copenhagen
doctorate
##itory
Czechoslov
ingred
decent
147
custody
##opic
Cardinals
Porter
forgive
territorial
calculated
Train
blonde
resolved
upstairs
##BO
RS
legally
Ranch
Evangel
minim
appl
suggestion
Mum
joins
##ilo
NE
stabil
lightning
##olics
Reds
flee
verte
robot
Edgar
##arre
##athi
##oux
unions
Pi
interviewed
chase
##kov
laps
Kad
biology
Diane
lesson
demanding
Noah
Zimb
expelled
Emb
Giovanni
148
Ecuador
##olith
##amas
ancestors
##mented
lamp
rotation
laying
rainfall
##itating
scout
Taking
pressing
Rovers
Urugu
wickets
Script
cere
bunch
slowed
anime
alert
chocolate
forgot
##oints
Trin
imprisonment
Allan
opinions
sher
##iking
Bloom
##nels
Spider
varieties
decreased
Glass
mercy
Break
Ig
Rex
145
##idelines
SO
Cyprus
catching
tobacco
sequences
##asan
slope
119
##ophy
fet
Outside
Guang
marking
##umps
rows
handsome
variants
repairs
estimate
ranch
vine
Dale
##azi
##erving
enhanced
invisible
fruits
GM
bush
zomb
Kra
listing
Kurd
murm
consistently
Richardson
fever
tactics
auto
homosexual
planes
dull
##gement
Rodriguez
strings
harvest
Trip
##antle
Notes
##oline
chlor
Uganda
Gan
remarked
halt
##ainted
Smashwords
##manuel
Kazakh
northeastern
harass
theoretical
innovative
vacant
XI
manufacture
##pin
Marco
Month
360
Morocco
divide
Artists
SD
Palm
Luck
Body
138
unclear
##uta
mechanisms
stained
bind
AIDS
directing
##prises
##ropical
Presbyterian
Double
##arians
quot
integral
vit
##comed
Nac
##ficial
testimony
arrow
##BL
bitch
zones
hostile
algebra
Study
Notre
forew
naming
refuse
Marian
Milton
ain
Santiago
eyeb
genuine
promises
developer
Bever
Angela
Estate
Crist
gastrop
Pine
Nu
portal
cared
layout
Thr
##IF
metall
deny
BCE
##phis
Tampa
complained
##boat
Divine
Basil
Metal
instructor
workshops
Henderson
##icus
Mist
trusted
Nice
vest
murders
##oller
bassist
##rium
paths
criticised
promising
horizontal
Wr
Lithuania
Peak
journalism
carpet
113
alright
Canterbury
##ija
Transit
slopes
separately
console
##ahu
locals
fulfill
horrible
sinc
##mir
Dear
radi
Beau
anten
Blu
##steps
primitive
Amendment
humid
Prof
1846
Bradford
measuring
Working
strategies
Individ
Sister
##inguished
##alysis
sealed
Jackie
explored
squeezed
##ando
##kan
123
Machine
Pract
Casey
TC
102
Wesley
##onial
Schm
##arez
Heat
Wow
Job
worlds
suburbs
Kumar
pause
Fergus
depr
deterior
curved
Volk
sends
##elin
##mail
hub
Gy
Istan
##icon
homeless
spray
Travel
undertaken
forec
matching
aerial
Timothy
greeted
sphere
Corp
Reynold
Core
portraits
##atem
Khal
supern
orch
developers
grateful
gastropod
NR
Leop
Istanbul
Cardiff
tooth
rulers
motorcycle
##oya
##rative
Gibson
##imeter
Ley
Feder
Clif
Subsequently
bru
preval
lecturer
exclaimed
##ighthouse
loyalty
Lords
##aky
##gly
##apor
Ashley
##ifier
Baronet
##ancement
caut
lungs
sounding
Malta
dors
cluster
runway
Parks
Evan
accepting
Anat
investigated
WC
Better
proposals
Editor
ensemble
Constantin
Wool
conspiracy
premises
withdrawal
subtle
blacks
##ylum
Ein
##amine
##iosity
##ocene
RP
welcomed
ballot
conquest
##anor
##antha
hurricane
continuously
Clement
prayers
haun
revived
Annual
courty
##hears
Wildlife
rebounds
assassination
Gru
Cly
##chewan
Veter
mes
Given
spy
##eneg
detected
Cave
foods
precise
wildlife
Hurricane
teammate
flame
##ennium
crowned
lend
illumin
##role
indirect
dozens
Salvador
Proper
epic
cater
considers
conviction
reliable
Champ
McDonald
Gren
##olls
Tow
acclaimed
##eville
Saskatchewan
Dominican
Erik
Safety
##alions
##abwe
Cavalry
parade
Memphis
Orland
unrel
##VA
##ophone
##berto
##oyle
##ormal
oxid
lacked
##usters
NATO
##fri
RC
Pomer
Fernando
Agent
##igue
##iminal
Catholics
helmet
Lutheran
airing
mentally
Help
backs
##anyon
Advisory
secrets
crypt
reconstruction
Campus
abortion
Fighter
Emil
shaft
Merced
##arin
##verage
Luxemb
Sep
companions
errors
mouse
Complex
##artz
Moss
induced
Comedy
Nobody
Joey
viewing
Lyd
Competition
Dynasty
##hal
chaos
Gamb
dishes
Tul
abruptly
heroes
harbour
contacts
expectations
##uer
Zimbabwe
##zhou
Shop
Saxon
1845
surrendered
##ishi
utility
orientation
Finals
Winston
disgust
boxing
rocky
Headquar
impress
Quinn
##rant
IBM
1812
Episcopal
favorable
qualities
Shen
##canic
marsh
##awi
continent
Glenn
Riv
drif
Crus
autonomous
worthy
observe
rend
sensation
cement
Rox
##etics
Ri
Brien
##aris
Armenia
interrog
entries
##iffs
Bea
inclusion
brows
freed
Located
exciting
Strong
concentrate
workshop
##shine
tackle
Nikol
##loaded
Windsor
monks
Pall
Rather
Sleep
Vick
##awk
surpass
Fifth
payments
rider
1830
Surrey
##oan
sunlight
Sisters
Leaders
Dund
Mechan
politically
treasure
Rid
Cambod
eleph
Ost
Eg
velocity
Hero
Republicans
acclaim
Cert
##bian
Martine
jewel
antib
##asis
Aboriginal
Oslo
ESPN
rely
##unal
137
Pon
##ardi
Chal
##este
##holder
pulls
Lif
##lay
##icism
Diet
Fuck
Meh
estimates
Distinguished
heter
dare
Anyway
achieving
##unda
Archae
Griffin
expense
Mercury
nicknamed
##icles
desperately
choosing
hatch
rivalry
##iott
fut
##ounted
resolve
##onation
Reynolds
heated
hips
124
lawyers
114
Rocky
surroundings
Engineers
seeks
##edia
##gary
gesture
ego
##orde
preventing
##isive
Vij
##EF
finale
SW
unity
teenager
diving
ion
Balk
Change
Janet
##long
Gat
Yah
limestone
##ovina
philosopher
Philosophy
Appar
chess
continental
essence
suburban
Filipino
reck
Basin
##appa
BR
##rams
Shut
pregnancy
Plaza
immort
##ION
suspicious
MG
coloured
alphabet
Muk
avoiding
silly
Param
##jud
spinning
twins
discussing
##apa
commands
habitats
##eur
performs
##chron
batteries
UP
Cos
invaded
126
Dew
irre
##asma
counts
Rosa
##istence
deceased
Nath
averaged
elimination
Maxim
smallest
Brighton
mistaken
Plymouth
Cho
flashed
##acker
examine
Clara
£1
Manor
Lithuanian
##imer
Molly
eliminate
southwestern
ups
##icals
##asting
Detective
##ighty
tradem
Katie
bounded
prohibited
##III
scratch
Cloud
shapes
Marion
darker
##opr
Genesis
##HF
taxi
Albania
optical
Mail
advancing
mosque
Shane
dup
flav
Hugo
##anya
Own
##ding
halfway
Lah
adjusted
Monroe
##iman
jam
decay
vinyl
##agic
atop
hypothesis
aftermath
##elect
Burton
sab
religions
cottage
Lun
promotional
Barnes
depicting
Warwick
deliberately
Eye
Contest
##ocate
Actor
carn
##ulture
horizon
freestyle
tracking
##uffled
UA
membrane
propaganda
foundations
##shore
Canyon
peninsula
discipl
socialist
upwards
lecture
brands
theorem
relegation
Marin
wives
hugged
Alexandria
realizes
shade
##hurst
Theodore
lean
teachings
cease
Guad
desires
hotels
##lass
##rise
Glad
breeze
organize
Hang
lengths
twe
syll
##tegr
flagship
Bagh
Monteneg
responses
piss
curse
134
Uh
renovated
Hab
Hess
##uum
epid
Capitol
reconstruct
enterprise
telev
presidency
##EP
Vale
Ez
interim
##utz
##istocr
damp
conform
architects
violin
##books
allocated
Bent
##uxiliary
##restrial
##abilitation
Qing
tales
tens
Belgrade
##icz
masters
##dan
##urities
trails
surveillance
Manitoba
sins
##ifax
Kane
##roke
##species
matched
server
Speaker
144
bankruptcy
lion
bug
neighbors
Charter
posthum
Orlando
boom
bored
manuscripts
##anti
lifting
##nar
fond
glared
strain
slot
strictly
Ras
protective
1837
TO
Bast
Learning
admission
proceedings
analyst
##omatic
Bend
Than
od
wool
entities
##agedy
##olar
Richards
Vin
intentions
trait
disk
accuracy
straw
Mis
proc
burden
Case
Easter
infant
Carroll
##usa
porn
Dum
presenting
embarked
diff
Observ
traced
Heather
##cu
commerce
Said
Poly
Emmy
backup
Dud
##ados
trigg
##onal
ON
Access
exercises
receptor
RNA
projected
WA
Por
tornado
renovation
##iston
settling
facilitate
116
dispos
##etically
skilled
Hak
##gage
grief
##arse
Legislature
Colonial
##esy
Sabha
infected
Hil
Julius
reflects
profound
Robertson
Kot
invested
##ebrows
##cul
sob
Mohammad
nursing
preceding
Arsenal
infinite
##linary
holder
Helena
Ned
diagnosed
seventeen
NSW
stab
Lyon
Nem
suited
supervision
cher
##chester
##IO
manga
Globe
unoff
finest
rectangular
Fraser
pic
##lord
##estock
Lub
Mob
investigations
Patric
Cinema
##omple
Sham
Randy
Tanz
##org
hollow
Cohen
USSR
##ounge
##mercially
Kang
Pros
##hero
Trou
saint
trophy
stance
Physics
costume
##awed
Musical
##ogo
Stefan
IM
bod
Founded
northwestern
##CAR
Batman
inland
Hood
Pos
evaluation
139
VIII
##thood
Lenn
Parliamentary
cats
photograp
##kinson
##anium
portfol
Sue
Want
Additional
sizes
exchanged
encouraging
##agonal
certificate
demonstration
##hole
Sofia
burnt
Alv
Critics
traces
Guatem
exhibits
fragments
eyebrows
##arat
Calgary
##lace
kissing
##uffed
gam
labels
dome
sponsor
bleeding
stub
managers
Kenny
Presidential
Eva
brass
shy
##affe
##asium
Vid
##astics
Directors
Dipl
imported
grasp
##arta
sax
protagonist
Athen
##adh
recurring
surgeon
settings
blessed
insult
Actress
math
powder
##sted
Coalition
orth
##rition
1841
rays
Brent
introducing
Halifax
Frankfurt
Warriors
Hoff
##ften
risks
Sed
##etary
reson
liver
Ens
wheat
750
##ounded
correctly
Tennis
planets
agreements
Sugar
sustainable
Standing
consumers
##airy
Acts
Stafford
umb
##pring
##makers
##chair
Official
tatt
accompanying
Maya
Nass
##cr
Need
##foot
complaints
logical
degr
Salem
snail
interf
133
Kre
##ylon
valued
Tah
plural
ugly
Hopkins
##SC
stepping
unaware
enclosed
acceptable
comprised
Buk
Lancaster
loans
interrupt
1844
supposedly
guarantee
prospect
Sou
stripped
Task
##oft
thermal
contracted
Albany
warehouse
Resources
merchants
thres
##ML
sliding
Brock
missiles
toy
cage
##lia
compassion
Calvin
Dre
voltage
Edwin
artifacts
Daddy
gly
Hors
proceeds
courtyard
##izza
Name
Burns
exploded
Terror
Harbour
flown
Bedford
lens
sophistic
Morrison
catalog
Rhine
##woman
bowed
RBI
countryside
Naples
maj
pulse
brushed
Zen
Raz
screenplay
Peg
##ripp
Nixon
Springfield
odds
sculptor
strongest
Popular
##stock
Certain
harmony
iP
SL
dumb
philosophical
ruined
##enary
Planning
Inspector
Liberation
organisms
profits
Made
committees
Emir
pel
Interior
pref
##avo
##eches
butterfly
teenage
debris
penn
Volume
performer
phon
intrig
Arn
recreational
aristocr
Prussian
cum
hab
particle
##annah
conquered
stumbled
enthusi
Fo
reinforced
hamlet
Katherine
altogether
seas
administrator
1836
capability
USC
##imental
veterans
streaming
flooded
##eric
governmental
##igi
civilization
delegation
Agreement
Support
botan
differently
rapper
scram
Cosm
stall
shells
interference
Moor
encompass
Kind
successive
Marl
Edmont
Peng
##istically
enrollment
editing
##bin
gym
whit
GE
MB
Vish
researcher
crews
equality
Olivia
##ometer
1838
##rians
Hels
Level
consc
Deut
Americas
realizing
Zion
subordin
audition
##tes
hesitated
##ст
hint
Kann
innovation
declaration
##stadt
Cay
vacation
deadly
##penter
faction
##beit
organs
Anders
requests
##abling
Account
Buddhism
objectives
depicts
##alus
Sharon
mistakes
Eden
hid
Shore
blinked
##ambo
sculptures
Headquarters
knocking
##ilee
steering
Churchill
1839
##ifferent
##gae
Drug
##UT
Duch
jointly
Progressive
Hunting
Cycl
SF
sus
cake
Factory
violation
Belfast
Slovenia
motif
Custom
composers
RA
146
toilet
inaugurated
Architecture
Willie
pollution
##hey
Sons
##aceut
##anian
shorts
##asian
hatred
Index
granite
emigrated
Carlo
framed
genera
McA
##DC
IL
incredible
Cod
##oqu
##mons
anticipated
maternal
##ascar
Bundes
breasts
Opt
practition
endangered
Boeing
basically
##houses
##iggs
Das
##ablo
Wagner
dwarf
Nadu
sharply
monkey
Various
##idian
fierce
allied
cafe
Associate
obtaining
stew
Thames
Lomb
assert
##iker
Slow
suppress
Writers
speeds
Reagan
celebrity
decree
Portsmouth
questioning
spelled
undergo
teaches
Amber
Blair
tips
raids
tubes
##ør
Examples
upr
##ht
Tina
##eem
bishops
thriller
Roland
Bohem
##alez
Xavier
cruise
editors
Monica
hob
##umping
Burke
##fold
AFC
Edmonton
positioned
##asive
##ipur
1835
mirr
athletics
struggles
orchest
Hawk
ty
Middles
Movie
##rella
vegetables
careers
Crawford
statistical
##wyn
depths
gospel
breathed
##umen
##walk
halls
##osystem
substit
regained
reflecting
Iz
tended
Prussia
##imson
##rand
mentor
dent
glowing
Sacram
Depression
neat
lacking
chip
Mater
transmitted
##odium
vacc
Tucker
apost
seating
Tet
machinery
geographical
expenses
statues
tense
##actions
##iery
wicked
factories
##yst
museums
##cock
suite
##arms
Zurich
##ben
##andro
##iad
ambul
highlighted
Listen
##aternity
ben
cracked
143
fiber
believers
Led
unveiled
Bj
Boris
##akk
Ling
Knox
Abs
Corpor
Marg
##word
##rained
Drum
Nah
Nicolas
Kids
Enterprise
momentum
synthesis
Bras
massacre
##iasm
incor
presumably
footsteps
##ircraft
Lap
##wald
unm
echoed
Elliott
precisely
grat
ripped
1842
legitimate
##rimin
subspecies
villagers
##irable
ram
bunk
25th
Rochester
useless
##isure
Shi
navigation
Tonight
136
Honey
##criptions
hunger
Fan
flipped
##iership
novelist
cit
##heric
lig
Utt
sectors
Prefecture
thou
commercially
Mercedes
satisfaction
Arist
Chess
purse
philanthrop
##lesiast
##ochem
##asped
Seminary
ceremonies
maker
subfamily
lawn
shoved
navig
Dayton
IG
advocated
##iba
Uz
crushed
Superior
salvation
Celeb
Fut
ladder
##lance
singular
blamed
##itorium
##lings
disappointment
overth
##plane
gameplay
depot
##orpe
disciples
Falk
Laz
unsuccessfully
Krishna
accounting
lod
blown
nationalist
1832
Luxembourg
Scholars
donations
swords
Pars
##arrow
insight
riot
##ар
recommendations
Stay
Buddha
##elsen
Build
##atin
genres
Hayes
MW
##dad
ded
##rafted
specimen
succ
incomp
Southwest
##rove
##anus
##acion
deployment
Fen
pension
##tail
sworn
##000
Statistics
##etz
Wyoming
essays
##mal
ancestry
accommodation
Eis
tunnels
frames
widened
Dorothy
rookie
terrorism
deciding
##onne
ore
institutional
Mama
Arctic
Large
##alli
Screen
perc
Weather
##inisc
##hart
revolt
immune
Corinth
##yon
gorge
talented
pad
warrant
Estonia
alike
Cull
Edge
mobil
Nobel
Commercial
postp
lanes
##quest
Jag
protocol
Scand
##ORD
gravel
bicycle
Fellowship
1843
Actually
##otypes
shifting
awful
colleague
hydro
sway
variables
organizing
##TR
wrestler
storey
CON
dancers
reapp
Hul
Lip
##inski
Sard
Baltic
Relig
awaken
##elly
##rice
vanished
corrupt
apartments
##oys
Rosen
static
Spect
##HC
blocking
pec
Herzeg
sanctuary
ballet
brack
##uclear
Ish
feminist
reunited
contacted
ruin
Macedonia
mythology
closet
##xi
Cul
inspection
Were
Eleanor
Sv
applies
persuaded
##cence
presenter
heels
tet
Marshal
oath
timing
branded
feast
staircase
Maid
flowering
##iw
Strat
##hematic
##iden
adher
##through
beloved
semifinals
Indo
expertise
drifted
bride
telep
engaging
Melissa
driv
employer
batted
deserve
##ов
##iox
Martinez
Gavin
delegates
categor
adventures
##list
screens
Koh
rigid
##elihood
hast
Current
bordered
bottles
pursuing
loading
snap
cannon
sorts
disorders
##assis
Except
##usic
Theory
WWE
stole
ster
##ril
unders
##isers
poets
##irmed
Coff
Course
advances
peas
##storm
scor
Gonzalez
##irical
longtime
ende
Wei
Antarctic
complexity
Thirty
##hra
##ramid
endless
mph
##rosion
irrig
uniforms
preceded
pleaded
Paradise
initiatives
Flet
invention
crater
Tracy
mold
hire
mothers
coupled
blessing
Below
##chin
newer
drank
graduates
contestants
mechanics
Birth
##iere
##heart
nevertheless
##loe
urge
suits
##elfth
automobile
Aberd
Font
##atti
ally
##ulent
##vant
##esome
##orum
enhance
referee
disputed
limbs
Cock
critically
update
##alla
cure
deaf
##EG
detection
neighborhoods
Bash
sided
glob
##uder
embedded
Yankees
##velope
tendency
Zar
Forbes
##hammed
MacD
frightened
Maxwell
outlets
remnants
SV
Exhibition
Kai
Meyer
sar
supervis
narrowly
rav
Laf
##ods
ATP
Dong
Nigerian
consort
fails
Picture
forbidden
Superman
Raven
Visc
##otherap
Estab
volcano
Agricultural
##athetic
Classical
chron
Dust
Kom
##omical
stunned
groaned
suspicion
Bess
##olan
Employ
Charleston
##ommon
Ruby
Congreg
availability
Seoul
##ritic
##rehend
threshold
LC
resides
nost
brave
##ocaust
purely
ITV
ecl
##harm
virtue
Ethiopia
sooner
##apest
##say
111
elector
Herman
unnecess
steadily
propriet
grun
troop
investigating
rehears
evid
Eli
finite
##enches
##wait
Software
herb
volcanic
midst
readily
filter
##ivo
acre
##ME
Cassie
crafts
esp
##uchi
PL
anxious
Ludwig
##entric
Berm
Hook
ampl
coordinates
farther
shouting
Christine
punish
regards
sinking
curiosity
##strom
cruiser
DA
##armed
nud
##qual
##egie
mandatory
visitor
await
Scots
inquiry
Winc
Adri
Shawn
heating
spelling
##icts
cognitive
Marcel
WS
quantity
monsters
marketed
##onda
addresses
TS
telesc
attributes
Hundred
lyric
MLB
fusion
Mt
integrity
tin
provider
doubled
##akov
##hh
fitting
masses
backward
##uku
Flag
Lynch
tech
##shot
instances
defines
missionaries
##uffs
comedian
envelope
frustrated
screening
pupil
Combat
spider
Num
applying
##children
Mongol
Apparently
websites
Arms
Johnston
Revel
##sing
possibilities
tore
healthcare
foolish
wage
##DR
endorsed
##ondo
Dry
assuming
counting
incorrect
Hut
Baldwin
Yemen
Fantasy
prominence
protested
##hist
reper
Chick
honours
Creative
progressed
SEC
antiqu
Alc
tumor
slender
surge
clue
##osity
talents
lac
sentences
tapped
Priest
crowded
Carson
##idt
Boss
##adic
vib
Cornell
semin
sanction
Phillip
##hee
Belt
exploring
reconna
##mel
##pack
mammals
Cancer
happily
Ble
Hort
sheriff
misc
harbor
##ei
Cros
Miranda
Quick
Gaelic
expressions
Mikh
Cairo
Probably
Adolf
fiscal
Nacional
noun
opted
unse
Gujar
spawn
ell
Herzegovina
incons
Cyp
Winnip
doctoral
##lette
Kerry
attain
##atri
Kosovo
GS
container
Fiction
ankle
##inqu
Criminal
Ladies
freshman
gains
veins
##cin
intimate
ignoring
prints
battalions
Female
Sounds
embarrassed
##venth
Titan
##send
Feng
reopened
##usement
Dart
trainer
fossils
Legal
transmitter
overnight
Sherman
immigrant
reconnaissance
excessive
Hence
bowling
Newman
##ingen
highways
Jeffrey
goodbye
complaint
Imag
anat
encounters
Batter
regiments
dys
Carnegie
Leicester
scorer
Sag
wicket
##eka
##oub
Paper
Hast
Wade
sniff
##ordination
##oining
##iformes
vampires
enthusiasm
Previously
1815
##berger
##uana
##RNA
evangel
grammar
lengthy
retreated
Berry
sketch
une
explicitly
limitations
develops
pockets
Dee
albeit
##anto
##LL
Toby
Tank
mim
Kop
livestock
Godd
Smart
adequate
etern
Homer
##rahim
scenario
carriers
criminals
delicate
Donna
conclus
diplomat
attained
melod
apple
##ilogy
Tin
stealing
Institution
investments
##eleton
professionally
##roleum
traits
Tribune
correspondence
experiencing
##amous
tremend
Sind
Raja
amalg
Dul
platinum
##iative
##ioned
lateral
sensed
Wolver
narrowed
##owo
derives
prosecution
phones
##ovision
Winnipeg
Ulster
kicking
wingspan
##ificent
Virt
Industries
##anco
fus
UCLA
Johns
Gates
Aircraft
marginal
##keeper
##omal
nominee
ridiculous
supernatural
insect
Deg
##iability
corporations
revelation
Zero
##iping
collector
linking
intimid
lonely
shining
##uity
conversations
downstairs
discharge
enacted
Vision
Sanche
##wen
default
##olving
measurement
Doll
Caesar
##ayed
##elage
toes
lied
Santos
canton
reversed
Slovakia
Cherry
minded
growled
appealed
recy
outfit
incomple
Empress
spacecraft
isolation
emerge
Sansk
Agu
Britt
dun
drained
sket
stint
peripher
diagnosis
herd
Algeria
Minne
emissions
##ych
Perez
HS
booth
Potter
##ulator
congressional
pleas
Eyes
wal
horm
Kara
##elo
Louisville
Glac
Online
technological
ineff
insuff
ribs
##sten
##anas
inval
##angs
Male
adul
termed
##arthy
lapt
Laws
clever
##aa
scanned
nobility
feminine
Vatic
Gut
terminated
rim
ts
voluntary
starter
##chant
whoever
##inating
foul
##ischer
caution
Flash
##agogue
functioning
Sanchez
IR
bil
Gymn
gul
reiss
distress
monk
sofa
Adult
##oos
schemes
##amon
##arl
Overall
Bronze
Constantinople
Falcon
juven
Elis
fragment
aston
Russians
Nicole
miser
Progress
commanders
regain
Beatles
Butter
monuments
##imi
##80
##erman
danced
##ductive
sponsorship
Tomas
##hea
450
hunter
stack
elbow
##atsu
dramatically
weakened
motivated
parishes
##world
reluctant
formats
Swim
Lob
##izable
Samp
1814
cob
##aram
Skin
Rum
##atham
similarities
Dow
mankind
banner
conting
##itars
##lore
Elder
cylind
1834
screened
Solar
Munster
substr
##uded
exceptions
civic
boxer
tends
Walsh
##iently
Shoot
Regard
Haj
maneuver
Fed
Often
clut
Cyn
capturing
peered
startled
Sophia
aided
Canton
Chronicle
Gle
Ricky
reviewer
Yugoslav
Built
jungle
combine
##iche
Mickey
idol
quarterf
beats
Sanskrit
##rans
sleeve
favored
broader
Tomorrow
Leh
melody
Nun
disputes
##aline
equations
Scandin
Poor
##aines
agenda
regulated
Host
accredited
modes
Yuan
Coming
themed
##amba
electronics
destroyer
##oyd
##sburg
ethn
shipped
mast
##bot
Choice
##luence
##aternal
sailors
Kimber
decorative
Griffith
Nate
Bug
##ingle
leased
##zel
escal
Pitt
vend
redev
##rities
Mia
sect
Trinidad
enlarged
lust
Quran
mixing
Malaysian
##sty
indie
##obic
Bac
Yard
##oner
unfold
Victory
##ashtra
Greene
Streets
Achie
##aceous
occupy
##mitt
hectares
##nu
##alties
crowds
chaired
Reverend
locate
insane
Ernst
archive
Fast
Strateg
licence
partnered
##omena
aug
distances
Maritime
designers
villain
thoroughly
beta
descendant
Wer
##ecute
rack
incarn
##vic
serge
practicing
curves
Geoffrey
Budapest
globe
Rein
Border
gentleman
##opter
Dubai
Stalin
Clare
Burma
mascul
reminisc
informal
undertook
identifying
vacuum
duck
NH
cultiv
wart
makers
Kok
kidnapped
Fresh
Eurovision
Ci
Lucky
##post
drown
Hip
equity
Grammar
##andi
troubles
governance
bombers
judged
Megan
confined
Consequently
feedback
Search
cass
troubled
inception
Read
Lal
##group
Fletcher
clutch
meals
Humph
Brooke
##rinted
defunct
Hed
##iks
constitute
##ritz
utilized
amendment
Ballet
##leigh
rip
dens
##aden
##TH
tragedy
Monument
##inched
ought
symbolic
Insurance
evolutionary
Southampton
resemble
##sha
Sib
redesign
alumni
Scr
Chak
##ultural
##oots
Bard
##emia
twist
##cestershire
Bruno
Pierce
geometry
##arag
Ip
##ignty
demo
kne
boring
portfolio
1820
spells
##rary
##quez
##tz
commissioner
parameters
autobiography
Jenkins
##oton
Newfound
Seeing
##ango
##itivity
##ref
stems
refres
Hammer
catches
prolific
Emergency
Theres
##TP
##abul
stamp
Heinrich
gazed
dressing
Madonna
phases
Myr
certification
embassy
##olin
mills
112
##igm
tactical
borrowed
ink
dealer
Percy
providers
sophisticated
##advant
securing
Hack
UFC
Whether
conserv
acute
cursed
exceptional
##nai
Chilean
bail
Wit
fundra
excluded
consecrated
babies
comparable
pear
Speedway
overh
Georges
springs
compromise
Sinc
measurements
Hap
Traff
paved
appreciated
1831
stretching
Beautiful
Bavaria
Agnes
picks
Yun
##ienne
padd
combining
trafficking
analyt
Lill
##NS
juice
Treasury
Amateur
ecosystem
improv
enabling
resided
Letter
Shiva
Zam
explosive
##eption
cycling
wherever
Dock
implies
throws
##ogene
Hardy
haired
substantially
##ommission
Lauren
celebrations
Ask
generous
nerves
tucked
BP
thirds
##UR
Covent
distracted
##lesiastical
shrub
Ace
sidewalk
##daughter
arise
subtropical
prayed
Browns
metabol
Paragu
Ibn
##heimer
Syrac
Single
Stories
segreg
translator
fitness
##ryn
pathway
Colony
summoned
Match
clinic
YOU
publicity
preference
cooling
upward
Ferguson
Produc
##neum
shelf
Venus
ideology
sexually
##ribe
illustrations
mol
##nton
Chev
Stern
Newfoundland
Rica
folks
##ahr
Violet
Cheng
Travis
Academic
fountain
translations
gown
Physical
##avity
caves
chef
abbreviated
specially
##lav
generating
realistic
refusing
NASCAR
##anan
confronted
meditation
atomic
nons
Baden
Ferry
battlefield
Rafael
Juda
##ifa
Minneapolis
popped
##illion
shrine
corpse
Concert
reef
##inged
abundant
guidelines
Innov
Fighting
affecting
##vals
1833
aliens
illusion
grabbing
ER
summar
rifles
bolt
Copa
despair
compatible
cops
seam
Rule
foster
KC
Holocaust
Summit
Use
Afterwards
tuber
##GS
percussion
##raints
Aberdeen
Constitutional
launching
Waters
Commod
3000
canvas
suppl
Animal
Vall
##isse
##oco
chromos
possessions
meantime
cleaned
balanced
fu
systematic
spher
Mathematics
charted
spokes
Janeiro
##estead
archives
Pull
void
VC
Chiefs
curled
regulatory
seventy
Programme
Siber
Silva
spectators
Vatican
crest
quantities
Vit
Jiang
Nurs
unemployment
Jup
##lit
stip
Amp
Wilm
Edu
##ostic
##rust
bastard
submer
Fuller
##ithe
##lication
GC
##amph
Steam
Bib
Fest
Kod
hears
crust
liner
Raiders
consulting
blowing
##rag
Recording
Patricia
maritime
##alore
musc
acids
##cliffe
##anmar
Mitch
electro
Koch
chips
##path
insurg
TR
unofficial
overd
Dion
Morton
oval
uprising
annoyed
Gian
bullets
##olithic
Wik
galaxy
Uttar
Dais
##atz
guaranteed
constituted
cyt
selfish
Kul
impair
Uruguay
continually
Syracuse
##leen
##arsity
Sacred
MY
##erical
Whitney
##wind
trademark
speculation
Duff
loses
placement
answering
##usions
analys
##rea
##ledon
charitable
railways
drainage
dean
PH
##anked
wards
##hs
##ono
Maori
Amar
chassis
##abel
Northeast
##bear
Always
refurb
inheritance
loosely
tide
Kaw
##nings
Find
intensive
graves
prolong
glare
Generation
shoots
treating
##opped
Brom
Greens
Evil
Communication
destruct
valve
heavier
LLC
mathematic
peaks
Cash
halted
Vernon
##inkled
Lut
Kuwait
Hampton
plaque
feathers
##cats
Fiji
diary
Ole
interactive
gren
LL
bomber
##ESCO
insign
Philippe
Downtown
Jung
##orian
kidney
wishing
pillow
recreation
##atum
##initely
commod
teamed
Brady
amino
##gins
Castro
Observatory
mortal
COM
Wick
Mohammed
wages
Morm
finishes
##atisf
atoms
eman
gle
##ivities
Bin
teens
Confederation
Collect
clip
Kau
##elic
Wid
shirts
plaster
rented
WN
disadvant
##yu
Fork
alignment
Samantha
Pond
Sicily
##adequ
Poetry
Greatest
prophet
##inki
ke
terrified
effectiveness
Leip
punct
##ardment
##ariat
alpha
Gibral
microsc
locks
##uke
whisk
disturbed
##arf
Vander
##ipse
damages
interc
skating
Brain
shuttle
outsk
Discovery
##ollen
Pirates
louder
reluctantly
beard
Providence
Anything
Joyce
armour
arrog
1880s
##zan
Letters
Augustus
Hawaiian
furious
Marqu
skirt
productive
basket
aesthetic
Nig
motioned
220
Kazakhstan
Housing
Manufact
##arp
computing
loaned
Qatar
ambitious
##mud
Roberto
##guard
cuis
Natalie
plum
SK
Und
Denis
Teen
##oso
rankings
Myanmar
Dragons
personalities
mumbled
inver
##UN
##now
cute
garb
Gross
Mons
##oting
Auto
Leopold
##aren
Rust
Nuclear
overlooking
disbelief
##azy
sandstone
idiot
shortened
prizes
offspring
##izards
Taj
Rao
theaters
AK
Neigh
parted
##atro
Conrad
Patriots
celebrities
incomplete
##ikk
Interest
##hran
Nest
##evo
Linux
chambers
digging
##icist
holidays
cort
escorted
anthology
decoration
skept
plasma
Nina
labeled
ingredients
Intro
Terminal
Jerome
Shu
shoe
Neill
##ogical
pottery
##odynam
Plain
Shirley
determining
Tristan
ordin
slapped
garnered
##overing
Associated
accessed
Deal
##ogenic
triangle
chill
plantation
Gerard
Wi
tire
encoded
ethics
##VE
asteroid
thee
Adventure
##cycl
blades
disrupt
##orns
Dixon
smugg
Sacramento
highlights
Thomson
Chrys
Success
##getown
upgrade
dive
penalties
Norton
Indoor
guessed
##Os
breakdown
Lebanese
Sidney
miners
##ulative
slower
outskirts
##ommunications
Pale
spont
##ogl
Mord
Jorge
Xbox
protesters
RO
erupted
fres
graz
Wimb
sadness
NW
Mant
##jord
accepts
Rip
##iza
##mediately
advers
##zyn
sued
sweep
##cony
waving
outline
knockout
anonymous
##aston
disciplines
##heads
retaining
Religion
Allison
advantages
gambling
exagger
TD
Citizens
helpful
##terson
Hector
bure
Shit
Pione
Luk
Tian
Strait
Graduate
landown
watershed
peek
Cind
Boyd
redd
dwelling
##insk
1825
##arte
Fi
Tales
Bulld
Gandhi
##uras
ensuring
publishers
inex
Tara
Welcome
Electronic
caring
Telec
##urai
Guatemala
Shannon
terrestrial
liberation
Immediately
surprisingly
##season
##jin
##roft
Plains
collision
Webb
tan
##iked
toys
##electric
acknowledge
##idan
##flies
Epis
##oces
Dag
sacrific
Madag
discour
watches
Sikh
eagle
##ipel
Wander
Gott
Beast
dances
##giving
Leigh
differs
Merit
beaches
inadequ
Statistical
##jiang
##drop
sovereign
fraction
emphasized
compuls
##acies
jersey
playwright
##rooms
facial
Pride
miracle
stays
subjected
Hits
griev
##loo
submission
##lamm
Cotton
switching
##aniel
Cecil
orphan
##bons
Toyota
financing
mum
##eroy
delivering
##unciation
Gibraltar
Ching
sprint
unrest
##orphic
Isabella
Vaugh
Species
mice
peaking
##agging
##urable
partition
Perfect
##hus
competitor
compare
Ji
Jab
preparations
mighty
Loch
##enza
amusement
Telegraph
prone
enables
admired
chemicals
Appeals
Ibrahim
Gardner
Chu
Election
abolition
Stella
Jet
Alexandra
pretend
##umbers
showc
##eros
washing
metals
anarch
addressing
##alan
palms
declare
Klein
abn
##ieri
Nay
lets
driveway
relate
maiden
nervously
reasoning
trash
AND
revenues
##py
meteor
Philharm
engr
LORD
dar
tug
Pok
Vamp
mandate
clad
##iances
las
displaced
##amination
Europeans
UNESCO
Rita
satisfy
##acious
cooked
assumption
sandy
anticipation
##ups
deity
wholly
Gloria
Patriarch
IX
Twelve
sovereignty
Cav
correspondent
Stephanie
towel
##aic
Tasmania
##ewater
repet
gripped
arched
affects
retrieve
Cumberland
Bolivia
contributor
Ain
Penny
wartime
Elena
Chennai
Suffolk
Tanzania
sufficiently
pled
Heavyweight
Yuk
##33
##iatus
Nazis
Marina
plug
dedication
Bombay
##uliar
weekday
councils
##ische
Wings
rud
##orman
modifications
triggered
Zamb
Santo
remarks
HM
remembering
uncommon
nurses
Lisbon
defining
Pyth
##chel
incorporate
nas
tonnes
radius
##estan
Til
creep
Counties
Kais
seasonal
reformed
plains
Wan
##uca
##pered
Mys
verbal
Usually
synchron
Basic
##hao
Guadal
Educational
inevitable
##enic
rubbing
1821
##lighten
undef
Dat
broadcaster
lumber
geographic
iT
tasked
Sche
unnecessary
##iggins
##izers
passages
Midland
constituencies
Inton
smelled
##inia
recommendation
soup
invite
dorsal
Astron
##umper
huh
##oche
Underground
Madras
ED
pilgrim
Pharm
caf
Rost
genius
##AAF
dialects
teenagers
screams
wolves
DE
MPs
##ijuana
1828
Lydia
poster
1810
teammates
afterward
bun
Twin
McI
##LS
generic
deeds
striker
buttons
Intonation
froze
brutal
Bit
dash
##erner
Cowboys
disin
Yo
##licted
detached
wireless
Davidson
Strike
ancestor
Making
storms
dissolution
##rio
sheer
cycles
##chy
##izzy
succeeding
Turks
Aleks
lovers
surveyed
swiftly
balcony
complications
Stad
Tibetan
Towns
Kamp
consequently
Erin
outcomes
overtime
differential
Nab
Leone
Maharashtra
interfer
counterpart
Wins
Bengali
Cell
##ride
Gn
Carey
Mikhail
Rifle
Powers
pard
rumors
indication
Bub
dip
technically
relied
Jupiter
Lik
Neal
bob
inning
breakthrough
devote
Noble
migrated
Mald
praying
##adays
Stark
shattered
metallic
woodland
clenched
Freeman
Oliv
nightmare
kisses
advisory
Population
RE
##lair
valleys
Telugu
nap
##lynn
##oine
decisive
Coleman
Meeting
lounge
trustees
Slovak
Particip
Karnat
unsure
##eback
Gus
motiv
associates
Euc
deserved
##oving
DM
asset
Hutch
resistant
Hyp
Madagascar
embraced
bothered
unhappy
##cidae
scrub
owing
Sach
Willow
destiny
solved
submarines
polymer
Carmen
MIT
educator
cel
adoles
unfair
Engineer
Cham
Webster
underwater
asserted
##ethyl
flexible
necessity
##uga
##parents
##yg
wilderness
remake
cultivated
##hardt
##yards
Ce
Close
Honda
backst
Marathon
lan
1824
##nian
Alright
inequ
Pt
##FS
##Music
Hew
##otherapy
Greeks
Ceram
paired
precurs
uncertainty
Gel
pp
coordinator
Religious
publishes
incent
Tunnel
Ist
##eated
##jected
##upp
Recre
whereby
lith
noon
tray
Haiti
Individual
Koz
##enstein
Check
contestant
fancy
inferior
barg
1829
breach
weighed
burg
Europa
sediment
cloak
##omore
resembles
Teresa
appreciation
tricks
Democracy
Excellence
decomp
Saturn
diox
Till
##pot
disability
solic
Metac
Cliff
Bott
##igon
natives
##emann
FS
transaction
pose
purchasing
##erick
peers
mollusk
Adventures
Leave
affiliation
granddaughter
infilt
Kob
Nicol
Chemical
financially
Beauty
Leipzig
professors
Norwich
##atan
##tlet
verd
##anged
Elvis
expressing
scholarly
Chapman
incredibly
Oriental
countless
frontier
##ouncing
fox
coined
Question
##ascular
decommission
Jub
Mile
##ako
Hour
Kell
baron
Lars
plac
Ti
GA
Process
sergeant
sponsors
Mercy
##abulary
##ippers
ISO
designing
Venet
##landers
##anners
filmmaker
demise
iTunes
penc
retrosp
yearly
Sanders
jerked
Sod
Floyd
Asc
Shak
Hyde
Brett
eyebrow
sings
Caleb
MI
Shepherd
Boat
##rosse
abbey
inserted
fists
imagery
McCarthy
Clyde
magnet
savings
deposit
Honorary
##stones
##antes
Bates
Tears
recl
##gs
Beats
##ulin
##abh
Karnataka
cough
##ilib
##ologne
Sanct
unified
inmates
employers
Yar
bubble
Senators
##version
##aeus
spectacular
Gods
##sover
Evening
Duchy
angles
Raph
linguistic
serm
Literary
twelfth
alk
Indigenous
sorrow
barracks
hazard
niece
tremendous
aligned
Abby
Toul
Francesco
Judy
grandchildren
Dil
##ал
Noel
extant
senator
squadrons
acet
Going
frequencies
MVP
surveys
rituals
angr
patience
##arity
Bergen
evacuated
Wimbledon
refr
ambulance
tallest
pent
amphib
delegate
saddle
taller
Hyder
##erd
classrooms
Mats
expend
##itational
phenomena
Nut
olive
##building
Mih
Iris
ordering
accusations
wandered
abundance
Regular
Away
autonomy
##oye
angrily
charging
Clan
Negro
descriptions
Frost
Siles
forgiveness
Jules
Lav
##cover
Pablo
Georgetown
laughs
detention
exotic
immense
Lindsay
##rill
shifts
Tou
##inde
Inner
eleventh
Jets
freshwater
##fu
Huss
##gang
psy
negotiate
collegiate
Northwestern
gifted
ceremonial
Settle
humanitarian
formations
Panthers
Cambodia
optional
##luded
spiral
HP
Govern
elegant
Sharp
scal
trauma
Document
surgical
commercials
Kolk
wears
Period
Title
stuffed
posed
ensuing
crush
Libya
Hermann
##lation
Vald
compliment
peculiar
Chemistry
##lide
Lead
Present
confisc
Visual
stressed
examining
module
##esses
Strange
attitudes
Avery
realization
RCA
Events
DR
Zoe
1813
podcast
fathers
Lands
stamps
scrut
Ivy
pac
Czechoslovakia
Volunteer
rides
elong
negotiated
Saul
##kers
Pill
##adia
supervised
marriages
Rising
indef
habits
##GP
supreme
Arabs
##mn
transm
laptop
Concord
DO
Hollow
Doming
tensions
fertil
arrange
lev
Gustav
violations
Kens
blond
Thur
aging
treatments
Enc
summary
##onomic
observing
##manship
repaired
Lines
Frem
podium
Fry
Archives
dre
Swift
##DE
nave
##onaut
##BE
Shim
promptly
Chambers
Estonian
nu
Bolton
celebrating
dose
eyel
##athed
pools
Jade
Cafe
Didn
##Family
guitars
Savage
Glacier
conscience
Dres
doubts
submerged
Benson
##itia
Worcester
commentator
executives
##asth
pounding
Kerr
sip
Glory
AV
Sheikh
precision
escaping
Credit
piv
##bycidae
assessed
binary
declaring
beef
Mao
CL
reporters
sack
##mu
Kiev
Papua
Gentle
Monter
##uters
Achievement
chasing
##beck
Ov
Dru
anthem
Jed
suspects
Mud
plag
##eke
domains
sucked
##rocery
Constantine
Grac
##onts
##wal
virgin
inability
Cologne
confrontation
Lana
gluc
##ongh
robust
Wyn
convincing
Teams
Flat
Valentine
narrator
prevention
inflamm
Nin
Clayton
unwilling
comeback
Alicia
##oors
##uria
Phase
charm
landscapes
Phant
consolidated
jewelry
Judaism
broadly
marker
positively
Cameroon
commemorate
Surely
Mell
HC
deserted
Buckingham
nucleus
Kashmir
Dix
Islander
snails
escapes
1818
bells
conson
Vijay
badge
supers
Clem
embry
##ombo
superhero
Mund
Fields
##ART
1826
advocacy
##prising
Hastings
##ebe
##oran
costumes
Palat
1890s
Stoke
Rotten
##oulder
finalist
##gart
crou
Au
methyl
##awks
Jared
downstream
cultivation
PK
Tud
jokes
magnificent
murmured
nasty
##ifiers
##gender
Baha
vag
Ronnie
Dominic
##afa
##opath
microph
Paralympics
ethical
Cerambycidae
resume
##itas
diagram
traders
theft
addiction
Helsinki
betrayed
puzzle
Sho
Revelation
squir
Darren
memorable
hierarchy
pity
Sandra
screenwriter
passionate
GOD
Brick
Wong
biblical
CNN
reduces
clause
Duck
Latvia
##ytechn
sticks
sitcom
50th
Motion
fork
posthumously
##bys
Dawson
gaming
Above
##raul
motivation
Conv
nonetheless
Cindy
nods
cuisine
sexy
##rescent
Bryant
Sty
##rak
##anson
Isn
FRE
##icht
##antically
Ket
pneum
##enko
##elius
damned
roller
##ebook
Shell
inscriptions
um
##amar
##IE
##acio
saves
dealers
##isy
robe
##olphins
lighthouse
##izarre
##eon
underm
acquiring
GDP
##eloped
strips
Canber
fals
clusters
demolition
Albion
tortured
sympathy
Rules
Kick
Lund
##ankar
##ologic
arrows
Archer
helicopters
##ер
Neur
calmly
Wo
annexed
Either
recovering
Initiative
operative
Montenegro
Rough
##rift
Sale
captive
##abl
Witch
implications
lesbian
Naw
demonstrations
gotta
collaborative
Matthews
mistress
##eneration
Jacksonville
unanimous
Hernand
Allies
underway
checks
sacked
Saxony
Majesty
encompasses
Embassy
##RO
luc
Neo
collectively
Tropical
Rag
magist
##ometric
keeper
facto
##fulness
Juliet
needle
molecule
tracked
Yosh
motors
offshore
##lywood
pastoral
chant
##eco
marching
Mate
##uish
rh
accidents
rats
synthetic
Crisis
##appers
Assy
demonstrating
Leadership
##bern
receptors
Abbas
Constitu
Odd
hairs
Rican
reside
wit
cellular
ambig
rental
##fi
strengthened
hex
sympathetic
Iber
Mau
##eut
Abdullah
toe
worsh
importantly
Rudolf
Colombian
##ningham
Walking
lineage
successes
##ulously
Metacritic
beams
resemblance
riots
rejection
fortified
Ans
modeling
Tac
##grave
##ewide
Exeter
thanked
monarchy
Reserv
##iatric
##ibal
Mare
Appeal
donation
Cities
disappearance
Officers
homeland
mortality
RT
Honours
Dodgers
dagger
additions
##45
##erville
##iformesFamily
Slavic
Cott
Heroes
implied
##uddin
exempl
guerr
Grim
flut
repeal
canceled
Miz
accurately
armored
##wara
Judith
heavens
rolls
##iani
##card
announcing
legends
##ronics
FK
##ocide
##with
##appropri
fare
##lessness
debts
McCl
oversaw
vom
crap
portrayal
Barton
maxim
Sterling
survives
Benny
hut
##afia
##isans
Churches
TN
vivid
Pole
##opoly
Thorn
attractions
##rade
##making
##onte
grandparents
inflation
##SE
expired
30th
participant
Herr
employs
##osaurus
##impse
Bene
5000
Normandy
Rally
Chloe
transp
Siege
Electoral
##ermo
mush
Baroque
Canberra
##onist
leisure
##arios
insufficient
forum
plateau
suppressed
Crom
Wendy
Cao
240
##birds
meg
##diocese
horns
##ucci
##ropolis
Hers
amended
Sales
Thous
auxiliary
Bih
grit
##rika
realise
soils
OR
rehabilitation
##aird
Hearts
reunion
MHz
contempor
##plant
##odz
1806
prejud
Jude
Byron
Paramount
##ocket
Warr
financed
downwards
WR
##aland
subsid
trends
##umbered
24th
Sutton
forewings
Aviv
jumps
Barber
listeners
prevalent
punched
loot
lur
needing
Turning
Brenn
shotgun
leth
##uni
Recon
Mister
unusually
##ruit
##kok
##ilies
capped
##eze
excellence
Winchester
dominance
Rak
Deutsche
bir
Muller
Dup
bureauc
Tusc
Hipp
Declar
progression
Flem
MO
dynamics
declining
Guitar
Veronica
televised
neo
OP
motto
liberty
compliance
reperto
warming
Rele
shri
Kah
##ueb
outright
persecution
##retion
helm
excluding
Diaz
##ipt
incorporating
Gov
Depend
polished
plague
Lambert
arche
parody
dissip
Bax
Consult
Sap
disposal
Patterson
galleries
newsc
##opedia
tiles
outward
Sixth
eternity
##romagn
violently
1816
Hallow
##church
Beverly
dairy
Grass
##olley
lifelong
##adel
unev
Clarence
Pool
Historically
##hya
interd
Sinclair
Canon
seeded
overwhelmed
defenders
Ud
skiing
acquaint
precipitation
adjoining
theological
Dors
Quint
shooter
##gil
transparent
Leaf
Mey
inventor
relates
Messenger
##arth
gloves
hissed
punished
##enes
AAA
Gret
Omar
subscrib
Battery
Inqu
Murder
WB
Toledo
interval
rotating
Dudley
irrigation
incorporates
1827
strained
Lep
##ibia
##70
comparing
unbel
##elles
colorful
claws
barriers
energ
Tourism
combines
Congressional
Madd
Pasc
##ctica
percept
DP
observer
##uating
##riot
Slam
glimpse
##ewood
adviser
wizard
Alleg
lunar
Arg
Ultimate
rhet
cups
pioneering
##hausen
Peterson
##unta
cyclone
Ely
1801
Alg
Climate
Pred
nuts
automated
Rash
##WR
##lov
Psychology
stam
FCC
##GE
hiking
##assic
comply
medication
Evolution
dump
processed
##asaki
Ik
physi
##actory
occupying
summers
passive
nonpro
specialty
Coch
Vikings
devotion
##irled
rebuild
##occup
Piper
disqual
markings
pipes
perimeter
Valencia
Panch
Pseud
daylight
obed
interred
Journey
Madame
trembling
masculine
beneficial
contamin
torch
##flow
hunters
##ipelago
bias
Krak
patted
Gazette
emergence
generals
targeting
Kub
Vul
Flower
##ectives
##bourg
Bian
BMW
##pace
factions
##omorph
##aurus
giggled
Prair
imaging
persuade
merit
honestly
##hampton
bye
##ycl
Broncos
##UP
Viscount
fulfilled
##tures
1819
Strategic
activation
patrons
Touch
shiny
##cements
Monster
nutri
transactions
hiatus
chased
Levi
Sporting
Baghdad
##DF
Uzbek
murderer
flowed
rejoined
Jerem
Garrett
Fernandez
##35
##dorf
##heed
Wen
Willis
prosperity
advocates
##ocyt
Singer
##hor
individually
freezing
Johan
kinderg
cooperative
wandering
TA
promotes
privilege
suffix
##ews
skeleton
Impact
Kolkata
swamp
Hawks
Investment
viral
nails
Hok
Alberto
Tort
tissues
posting
float
Lect
##ardy
##icol
fantastic
Android
defenses
marathon
pirates
Especially
##ogram
Hub
Vince
Galaxy
Pomp
lodge
##owth
Biology
coordinate
yelling
ecclesiastical
nightcl
lacks
##recht
1803
##aceutical
bushes
Whilst
Fra
documentation
saints
Papa
Civic
CBC
speeches
lone
occurrence
rebr
alcoh
ah
triangular
Philharmonic
gloss
replies
##alypt
Returning
leap
goss
hesit
Fashion
amend
immers
drill
Duchess
Malayalam
victorious
continuation
crawled
Buc
##rosc
guides
Seventh
Companies
bury
Erie
passport
incap
mapping
Carrie
dot
##rews
Pyr
sexuality
Charity
rewarded
puzzled
##alom
Jacobs
Ware
sophomore
simul
sensors
Nair
ecological
feeds
##uffle
insert
##orah
wield
Cret
inclus
intend
schooling
1822
##NC
##uti
proportional
##UM
uncont
tones
repertoire
catalogue
Bella
defendant
socially
Pag
solving
weekends
Ski
Gaul
tilted
tattoo
Caled
Jacqu
wax
Carlisle
PT
Conservatory
coeff
emotionally
Lorenzo
obscure
Irene
refusal
resisted
Nou
##atile
Barack
vain
UTC
concentrations
tightened
aloud
Jonas
##shop
exited
Doct
quarry
Josef
discovering
##ibald
repr
cries
Hassan
revision
1809
authentic
##urgical
##lightenment
ratt
waking
##isphere
holders
Magnus
Cram
Gos
hopefully
Amelia
volunteered
Newark
merge
##illas
fellowship
Omaha
Eup
Zagre
##ahi
##chard
Cedar
Tap
Angelo
##rifying
aiming
Ecc
Arabian
lightweight
Spin
##wy
Counsel
Ges
Roma
Jesuit
Blind
22nd
conventions
owed
##ussy
Nielsen
deposited
##zburg
1793
##sein
handing
Declaration
##ат
Manch
projection
Auburn
Pied
Zeus
Shire
Scouts
Alternative
##ilibrium
Ferrari
Hyderabad
##just
geography
Norr
##shaw
Politics
Easy
tires
notices
conquer
accumulated
misunder
derivative
Manning
Torn
freeway
nineteen
##vous
swinging
asylum
notorious
resent
Elliot
Cove
medi
Vand
rhy
fleeing
Barrett
Zhu
##Ar
##orthy
justified
HR
##cutta
spanning
Urs
23rd
occupies
entertaining
indul
Gob
Nordic
inventory
##iban
Applied
slim
nitrogen
gem
minerals
##arya
refriger
tragic
Collegiate
Aston
Pratt
Rhe
drowned
Calder
Frankie
Encycl
postal
Won
assim
Internal
apologize
##qi
##erting
genome
Torah
##bred
Warm
##aea
Evelyn
Gwen
Hick
##egu
discharged
violated
counterparts
Patrol
ICC
dignity
grocery
Hartford
aluminum
goodness
styled
aspir
##ин
Duk
##atu
herald
fashioned
FL
Elisabeth
##stick
Slo
Bhut
spit
destinations
##ilis
Calcutta
campuses
paternal
Tut
devastated
Nicarag
wholes
##ortunate
##adan
Tehran
likewise
Theo
Copyright
Zoo
##imited
wheelchair
1823
KS
admits
socio
prefix
Tate
Sob
Mits
bred
fuselage
Osw
##iuse
dioxide
Lug
vein
##hm
Von
##alon
Ort
concludes
Ranger
Gloucester
whites
href
approxim
patches
Atlas
knelt
##48
snakes
##thren
posterior
abd
Aless
Cald
Corner
Alec
tipped
batsman
Elm
outlet
Specific
aka
devastating
##abetes
stain
eighty
gestured
##atur
Lima
mug
Demon
Carlton
intervals
Investig
Ella
Hos
Resolution
NJ
raises
Pend
bald
Luna
perfection
sensor
##rite
recognizes
Nonetheless
confluence
garbage
Dodge
Edith
##rels
Zagreb
Brigadier
Roads
Irving
updates
visions
pageant
cockpit
Zak
ignorance
humble
Salis
pizza
Marty
##ocus
Torres
trous
##racted
seiz
peasants
Rig
racism
depressed
Bermuda
##nis
##lements
##othed
##arton
BB
##oki
martyr
unnamed
##onshire
##hof
##ilingual
prehist
Seneg
Bran
substances
lately
crude
quarterfinals
dissert
Leah
solitary
whistle
swimmer
Prec
Daisy
Rach
##ribly
Perm
##weed
detained
pseudonym
upstream
sideways
Basel
Chip
possesses
##bil
convenient
Yi
injection
Viking
prose
Carpenter
Pearson
textile
utterly
duet
diploma
mutations
Normal
electorate
Monastery
offerings
Figure
##oise
unchang
##unate
Magdal
assisting
statute
NL
Giuse
Vera
##ioch
intu
limiting
miniature
commissions
umbrella
Booth
Antarctica
pinned
gru
Mered
Names
RM
##acia
conceptual
##raction
tran
incon
Chero
admiral
sweeping
immortal
confirmation
##irs
guardian
continuity
similarity
Herc
Regina
concealed
Ll
Parade
Kras
antis
attachment
ballad
transferring
Traditional
Christina
Randolph
Fern
elephant
mont
Bhar
viable
enterprises
Schmidt
Aside
##ailable
Tunisia
Gujarat
floated
columnist
damaging
Drag
Andhra
Mog
chord
Doyle
skate
moths
reinforcements
Bols
selective
emblem
1808
Angola
crept
##odus
wasted
##olation
dispatched
1817
##omez
Antwer
##inting
juvenile
apology
testified
disappro
fiance
displacement
atmospheric
delays
athe
Mini
competes
sam
##kie
##ellan
impacts
exceeded
Vanessa
##GC
Occup
theolog
impl
Brittany
dispar
flags
##otti
Macedonian
Fow
destructive
sketches
solemn
##agara
hurd
CW
Moving
Mood
Interp
plaint
Autom
freel
wagons
##ynom
generator
specializing
bog
shiver
beans
uncovered
owe
Illust
metro
innocence
Hanover
ACC
Giant
##imeters
handic
metric
accounted
endeav
exiled
rept
bounced
##ivered
daytime
Olive
FR
##izon
introduces
Kov
##ospace
Alps
leapt
pillars
##far
Unity
erosion
quote
onset
122
robbery
##99
risen
Different
##retched
Hammond
NK
evacuation
Ultimately
crashing
inadequate
##lot
zoo
Hmm
contractor
##etus
##mour
mound
osc
Gaza
##spe
##rays
##uen
Venezuelan
circa
Abel
oppose
painters
destroyers
Pretty
Yas
conclusions
##rators
Sust
lymph
composite
intake
aisle
expose
Yak
Cherokee
reminiscent
HT
backpack
coordinated
Wah
sandwich
##inch
eccentric
##osi
remod
Text
##tn
lid
MT
Tuc
##otrop
Forever
Quartet
bizarre
Fuj
Ellie
refugee
pamph
Augustine
121
Brend
Parkway
Nur
intric
Resc
##udi
compartment
##afts
cavern
##osaurs
trilogy
obligations
cope
mascot
Theological
Donovan
och
predators
Resist
outlined
swallow
Echo
Guru
inact
1794
Veterans
drought
infect
##hov
presumed
Arlington
Bulldogs
subway
##imar
##minton
Middlesex
Nora
Pip
##onen
dragons
Running
behaviors
Midlands
failures
Dante
Sched
Landmark
physicians
Gould
##ihad
##yi
##will
Ack
Starr
whist
boil
Bangkok
Coventry
Maple
controller
anterior
Ministers
Same
##iae
enthusiastic
Synd
unpre
##fried
bucket
hay
Baba
Known
Teachers
Reilly
arcade
viewer
Rahman
displaying
aquatic
##KO
Rath
premium
transcription
permits
##ipedia
plots
##ieces
obstacles
absurd
identifies
Cot
sauce
brightly
marrying
Bio
installations
borne
Elite
##endra
Icelandic
Basque
##esian
ps
Mk
strangers
Christie
detachment
Dreams
stubborn
Ident
1798
hydrox
Knowing
Recent
1807
1805
miserable
Prairie
airports
healed
Crazy
blessings
Vor
##ancies
Dunn
stretches
spans
profitable
1811
praising
cinemat
Autumn
reinst
antenna
1804
dismant
tolerance
werew
circuits
eighteenth
1795
assignments
tablet
Recreation
Words
##odi
trailed
Brem
sodium
fertile
Sidd
overhe
calcium
Hours
Speaking
polls
Zel
Gomez
##agraph
pretending
Jagu
Antoine
Meredith
casino
RF
##fax
1600
Epic
Jing
##uding
shriek
Personal
unexpectedly
Sheila
Slowly
pouring
hostage
winding
Thing
ghosts
simulation
Suk
##gas
ashes
Import
Everybody
keyboards
Boliv
Simmons
structured
guarded
Dundee
Scripture
retains
folding
Holt
Rouge
compelled
Ide
merchand
##ieves
kindness
atom
bays
##ontinental
chimney
separating
1790
cousins
##iplinary
amazed
sperm
wavel
fury
##uming
awa
Wave
##anol
##pta
##fred
statewide
sanctioned
##hot
exports
Schl
recruits
organism
pertain
confessed
Tracks
##ogues
##ombe
recount
##wings
pending
bricks
sparked
Dresden
WT
Convers
Recently
sensitivity
subdivision
monetary
Tran
averaging
observers
extinction
conditioning
Archie
locker
Dang
iconic
debates
##cedented
processor
Hes
algorithms
Ich
Grad
Conservatives
urgent
Turin
Thess
confession
Bolog
picnic
Reservoir
reddish
devised
Tes
Giuseppe
Antwerp
elders
cane
Trek
kar
##esta
Cunningham
reactor
Parsons
Schne
motorway
slogan
Ank
Claus
chancellor
Salisbury
begged
##athlon
berth
operas
tenants
CV
modification
Francisc
stabbed
1870s
approve
Raphael
corresponds
Property
Ary
Bing
Rw
Paula
Jessie
##the
contempt
Lena
##ße
balloon
##araoh
mathematician
##inster
##gard
ringing
obliged
soaked
trailing
Mackenzie
advertisements
##antan
canoe
Fritz
Commodore
##lis
##ologue
WP
Augusta
polynom
robots
liquor
Mongolia
##emi
##osphere
ideals
gorgeous
Birds
Hag
##achute
floods
prominently
cyclist
Solid
Ecole
##ENT
Bahrain
dy
Rear
##anza
knot
pirate
EL
restruct
spatial
ga
Polytechn
recruiting
##iona
organizational
Honour
muscular
Titans
Howe
##ointed
Holdings
transfers
Daniels
yell
explores
Aurora
Feeling
decommissioned
Shay
Cheshire
pays
Forg
vague
Casc
##ophys
##grat
nonprofit
Soviets
potatoes
exploitation
unprecedented
informs
spor
Voy
Beaver
Bres
sentiment
matric
narc
hydraul
crystall
##riz
##worthy
inclined
Sunder
##arest
unstable
##ilight
##esque
shark
FIBA
lav
asym
rector
Shot
awaiting
weld
entirety
privileges
paran
disturbing
minorities
OC
Barker
spill
builder
persistent
touches
recognise
Sek
230
##ол
scare
exams
##iliar
Mets
Aval
notebook
Hert
Generally
Schwar
copied
Buddy
edged
jar
##aso
##vian
##olds
Savannah
justify
inscribed
Unless
Nigel
##domen
melted
##gee
Riverside
##oug
Ub
##ilus
RI
deter
corrected
Wizard
Waterloo
##yen
signaling
VFL
straightened
instituted
conclude
anchored
flashing
grouped
subm
Performing
Byr
encirc
disappointing
Frontier
PBS
Ramon
Bundesliga
Tot
Poz
Andreas
superst
vicar
condemn
Kyr
£2
deficit
##fields
Extra
retrieved
unrelated
##ın
tyr
Swimming
skelet
Mugh
flip
Einstein
camping
sickness
arches
portable
Chet
Vehic
##iciary
dispersed
slaughter
##tm
defeats
Midwest
basal
Dex
Neb
Luft
pipeline
hopeless
wrestlers
lamps
Mozart
supervisor
##igma
Seymour
Style
lever
nobles
##hoon
zombie
Witness
adorn
worm
Wein
##geons
Ava
Somehow
Draw
digest
Idol
decorations
MM
##afi
Bonn
brakes
pedestrian
constraints
Isabel
syndicated
Chop
melt
Weber
Tomatoes
residences
##esi
envelop
rabbit
Hale
Pike
cros
##kel
Okin
##HT
duplic
kindergarten
Connie
Purple
Rama
Integr
Lau
##ridges
plun
rendering
infring
Paraguay
Bally
Lans
##abis
Hernandez
Angie
Chance
rall
smashed
hiring
##person
##aldo
chew
scrapped
explor
ribbon
Dalton
resembled
Bullet
Helm
dragging
suscept
enforce
##olla
mountainous
regulate
auditorium
undefeated
SB
Wheeler
Dover
undergoing
Ashton
oscill
Cors
Chir
Believe
##asso
pitching
##90
fixture
Bulls
Wet
unfortunately
Lec
##robe
##gerald
Bronx
210
assure
caste
rebuilding
photographic
shores
##intage
Viktor
Rainbow
heights
fortifications
##evol
privat
pressures
equilibrium
lantern
Hansen
Pius
##frey
scanning
sneak
##ulse
Huang
##wana
obligation
dental
scary
Knowledge
Camden
Hilton
##headed
Ravens
blows
##plus
Miy
##auts
gasoline
Lester
modeled
UCI
Barth
travers
playground
pie
##ertiary
meaningful
Jain
Nim
batch
Farr
ours
courthouse
Laurent
candy
##ilyn
mates
brains
paced
poetic
##umann
nationalism
##adio
appeals
superintendent
awe
Katrina
crystals
vowel
localities
holdings
Organisation
hypn
spokesman
eased
Impro
Fitzgerald
##irus
Mystery
lineback
##inished
Choir
Harriet
Dictionary
nonsense
Pure
##etto
Damasc
resol
metaphor
mars
cigarettes
Cable
##OK
firearms
popul
Guerr
Tiff
Nell
Kry
Lightning
cliffs
Ved
firef
laund
Mae
asc
Niss
ditch
interfere
canopy
invalid
traum
Countess
inappropri
Payne
obliv
Stevenson
##ipple
##esti
denial
Jasper
Furn
sap
Kak
originating
##icultural
envision
forem
partnerships
Parr
Els
##opus
satellites
Tess
##onduct
Graves
HBO
##atches
Few
licensing
downward
##actor
yacht
##aan
dod
strongh
casually
##music
Weston
Robbie
economist
Aly
Jeremiah
speculated
##ools
Germanic
Surat
Variety
Hyper
NT
Catalan
Lorr
necklace
Mara
Episode
Qa
Sabb
Arrow
Approx
theatres
terrorists
##hele
##heus
splitting
dos
Yus
Universities
Absol
##ongs
kingdoms
##kow
chunk
1802
##hesis
Dwight
specification
safer
patents
BY
Wanderers
Ready
cartoons
procession
##imet
Blackburn
##inkle
appointments
##eddie
Fres
Relief
Galway
slate
Walton
1792
geometric
scripts
Aus
##zew
##66
feas
##isky
thief
suggestions
carb
Porto
##fo
Reformed
##utory
Isaiah
squat
A3
Loss
##akis
Ethiopian
dissertation
##ublished
unfortunate
announce
##idia
##dr
attracting
lava
##jor
illuminated
sarcast
Cullen
##eared
nominal
gat
Randall
prophecy
Alam
btn
Peruv
Airways
##adian
Wire
Standards
apex
destined
Emirates
Comic
Emmanuel
snar
Libert
sticking
##base
inviting
Warrior
##thia
##oprano
coral
governors
##itism
humorous
lent
encouragement
excavated
redist
GB
Mormon
abduct
Downs
Kitchen
surpassed
wanna
tenor
prolonged
Million
granting
hyster
Romeo
bundle
wells
##bahn
Bonnie
compression
alcoholic
Dial
Zhou
##gone
##istries
candle
##uations
Piano
verdict
reflex
outrage
reconstructed
##ressing
Bangalore
urging
Nom
abnormal
##ceph
Italia
##reach
Anniversary
##abo
Gore
##bidae
Broken
unanimously
##ilated
fireplace
HE
McE
Suther
cameo
spraw
Habs
##ancel
##heid
thickness
mobility
Coc
Hof
##onese
tops
Australians
Emm
liability
##amboo
Evangelical
Kannada
precursor
forested
Braves
coordination
##emma
accelerated
Sain
Cubs
morality
##ounding
Wheel
##ет
Flanders
##alach
##erver
BL
councillors
##awar
prompting
##obia
##yla
grabs
whip
ال
SI
##uala
Sundays
haunted
neglected
harness
backgrounds
perennial
##ayana
##iseries
GN
leak
node
embarrassment
gasp
Oy
##ayat
Tao
Quad
##imedia
proving
noticing
electrons
Halloween
pa
rude
crad
pits
Sieg
Beta
IA
##conn
##rish
og
##chief
besie
bureaucr
Cey
Perkins
mant
##rils
Prayer
Nit
##ellular
##opsis
Alfonso
Boul
deed
abdomen
Ride
disag
Cain
Stutt
1796
incoming
rooted
geological
nodding
reproduction
Fou
excavations
arous
Carbon
Murd
##sm
orbital
Entry
Baj
resurrection
Marse
invari
relieve
pix
##ceans
AllMusic
Gior
Horace
##rique
villa
Lucia
##WS
economically
catastrop
Holiday
flatten
Oss
panc
shortage
banker
Pasha
##ushi
extraction
Wis
Cic
tinted
messenger
eponymous
Myers
responding
sprin
prescribed
##rared
slipping
heel
Cody
Esther
NZ
##combe
Gin
Holden
##но
Fleming
presently
folklore
presidents
##omers
undisc
Shelley
Kand
pyramid
Pastor
preview
axe
mortgage
##lew
airplane
repeating
Blessed
Clive
Flint
##nas
Sword
angular
affirm
jog
cone
##log
drawer
Lamp
Tub
absorb
nodes
Pep
glorious
packages
Rescue
chooses
harassment
##resses
gra
##eday
Williamson
##oids
##isciplinary
harmon
wander
Mosque
##57
issuing
Sunny
comprise
Hasan
gaz
brake
interpretations
Biblical
consume
polite
distribute
postponed
reorganized
stirred
Cars
gi
Rupert
Associates
premature
Analysis
treason
Hands
Abbott
##mod
Silence
##ventions
Ces
##uddled
footh
doubted
planting
##ppers
sadly
Muss
Dmit
tiger
Multip
Creation
1200
1789
Marvin
aggression
Damascus
##teg
resembling
Isles
Moy
1776
KP
Quant
pissed
discrimin
##bows
Mirror
hymn
currents
hipp
referenced
duel
Lig
presided
Nile
Intel
allegiance
definitions
Imam
1799
communal
sympath
definite
bees
investor
raped
noises
##phone
Fortune
CG
reservation
Acting
Object
MacDonald
Aristot
infamous
standings
reproductive
physicist
Greenland
##ayette
AU
TW
fel
unchanged
puff
beasts
Adults
compulsory
Wine
ashamed
sincer
Greenwich
Anyone
Bolshev
infections
##ophyll
##herty
wipe
dared
patrols
reacted
intentionally
discusses
Newsp
eliminating
##leased
Admiralty
Sutherland
imaginary
Cran
Vi
recapt
Sens
##baum
poles
Niz
apprentice
Holding
Haus
##asmine
Earlier
sq
Highlands
##mere
##horn
##uo
transcript
##estial
overhaul
dominate
Narr
McKin
chiefs
Cats
HIS
Hanc
trousers
kidding
Kaiser
adverse
Chandler
##awan
##print
neurons
##raint
##opt
Sau
ost
Kathy
advertisement
Melanie
moisture
numbering
disabilities
semic
plantations
ancestral
stunning
##othel
posters
preaching
au
##amoto
##eve
snorted
subdivided
26th
Giles
##SI
seize
Administrative
academics
##oslav
mas
Fasc
implementing
##plate
Bam
Smy
##grass
Brotherhood
Carth
diminished
Wise
empower
##orio
Lj
shakes
accordingly
ensured
dismissal
Habsburg
apparatus
mins
##andan
##rehension
consuming
Casino
bump
Hawkins
Midnight
##eves
probable
extracted
inherent
##ptions
prosecutor
##urrection
marvel
Colleges
glancing
Cover
Problem
##kill
Feld
lamb
##grove
Mohamed
pagan
wildly
Creator
Bucharest
Oman
gable
creativity
##falls
##ureate
##inced
Nathaniel
##engeance
swore
Quality
Dz
Vista
Instr
wavelength
pend
##umar
##oire
refined
humili
appet
subordinate
Eliza
developmental
Egg
pilgrimage
Technologies
puppet
##rocod
##estation
limb
Stones
Purd
discern
Somalia
trades
##CE
spoon
##green
Laugh
Otherwise
Cron
Refuge
Vig
staging
Via
workforce
Kass
enjoys
applicable
armoured
##iating
##100
Samoa
evaluate
Malik
congrat
execute
debated
##pes
##islav
##onge
Gerry
vacated
##KA
sacks
grape
Resident
##arcer
Weap
salmon
Cir
##ibi
##atical
overly
wed
Pig
modules
colonists
Architects
Nil
Clifford
councillor
Innovation
intercepted
shareholders
limp
combinations
Eleven
discarded
squeeze
##BN
##fits
birthplace
finalists
Spot
hesitation
cush
complexes
Typically
Honduras
Points
Tact
disgr
repent
Tuls
matt
charming
encourages
discoveries
delicious
townships
mortar
mirrors
transcend
terr
lumin
unlocked
##omas
shouts
preserving
voter
Angus
##erget
hered
Rous
amaz
tailed
loads
newest
##abar
stripes
Xia
##marine
rer
figur
Teddy
obso
Gone
Osaka
Capt
##romagnetic
LO
Pleasant
Argy
practitioners
Alph
Higgins
Alexis
collectors
##chaft
offence
tast
descending
##layer
650
unav
##matic
worries
coastline
Fors
sul
Cannes
conferred
captained
burns
waived
Beir
Schu
PGA
##acity
synagogue
foremost
##vik
Ves
fade
cooled
amused
semester
Baxter
blunt
neural
Rhin
Strip
Stuttgart
AJ
mason
##nance
27th
hurting
filing
depiction
agony
##reditation
deliberate
fragile
representations
circus
erupt
proves
kW
handball
Guer
succumb
Tip
Botan
abused
##anu
1797
Era
##sts
travelers
##ulla
helpless
coher
##culosis
visa
knights
##ysc
Nikolai
trumpet
Pueb
##unga
Cannon
airs
harmful
##inely
cardinal
Antioch
disguise
Lafayette
Marxist
dictators
sailor
##loads
tying
##astrous
##azzo
##bral
Micha
##ipei
Fischer
Lazar
Zo
telescope
Numerous
negl
dresses
prostitution
Plate
hauled
implant
earnest
administer
gratitude
Fol
demonstrates
Depot
Territorial
clearance
foref
wires
beetles
neighbours
dumped
prolifer
132
Alison
flute
whipped
##hne
Cola
racist
##aret
tributaries
Anita
jockey
turbo
MGM
complain
VA
Renault
curator
Jh
Ipsw
winters
Bahn
Harlem
Anch
##roads
##girl
Chamberlain
Pors
gn
phrases
Kant
Ara
Kru
##eldom
baptism
Irv
Rebellion
exported
MLS
Krakow
Approximately
ump
Buzz
whim
Shri
Braun
Ipswich
Steelers
Sail
##ор
Released
Burm
##urian
networking
ranged
extensions
contingent
##ivision
receptions
McCart
Dimit
fraternity
flavor
##raphic
foreigners
patriarch
energet
gradual
tearing
Supporting
##igrate
una
kh
Taipei
##glomer
disastrous
residency
##rades
##ographers
##ijah
##zow
##court
evaluated
piercing
Mish
##erne
##ahar
##flower
surfaced
Kee
employing
Bhag
flora
della
constructing
Pioneer
campaigned
logs
melting
Emerson
humour
##Ps
cyber
dreaming
Austro
Mining
Abe
chuckle
##stop
##37
lump
##onga
unle
texture
spiders
Robb
Dise
Bologna
##witz
Spy
disob
Marcos
Peruvian
Valerie
Latvian
Ruf
##iidae
DD
az
1860s
judgement
mutation
##gars
hey
Freddie
Opening
meanings
rans
recognizing
preacher
billed
Owens
Hague
cocaine
astr
GL
gast
Sylvia
rag
##lich
uranium
##ongo
1700
##uling
Als
Guin
##wear
Carmel
Ricardo
dioces
gentlemen
Avon
ninety
Lough
MacL
Resistance
##ensic
provisional
##rab
##ogi
Colts
committing
prevents
resurrect
ants
thighs
heroic
identities
mural
##writers
##ipes
opener
Superintendent
##kt
steals
GR
Semin
tavern
flung
##uctions
##47
enzymes
Kurdish
frig
psychiatric
uh
redund
Romance
##odied
Monk
papal
##itud
impat
Eck
peasant
barrels
reciproc
##asteries
obsolete
Becky
Snake
assumes
analyzed
temporal
homosexuality
Marilyn
Keys
##aggered
incarcer
Pom
pills
##loading
##fig
predecessors
##owment
curtains
##ships
forear
##emption
Mai
dangers
prophets
kidnapping
Flemish
fungi
determines
Chern
Rivera
Lexington
Flynn
reminds
Lia
Kost
Beer
meanwhile
##asus
greeting
amalgam
misery
Ave
objected
Mozamb
sabot
Enough
##arius
honoured
##ooped
shudd
Lawson
mosa
##vey
##inians
##ativity
exposing
Tea
congest
protector
feudal
##anj
##ecourse
Attack
sights
enforced
arbitrary
JP
Maker
UM
Apostolic
KM
##byshire
Flood
Norse
blankets
Dancing
lag
Wolfe
Primera
Getting
Grandma
Archdiocese
##iches
Rodney
protr
Tek
unple
Lankan
Adj
utilize
WM
convenience
font
slumped
Elections
freak
##38
##VN
plea
Gap
symmetry
gymnasium
wherein
Pras
##alle
dissem
Deer
winked
turbine
##enian
##uctor
##ornings
##uben
##etr
Lark
roared
alternating
Jennings
##nick
Coss
exhaled
##frame
Bavarian
Oc
##atal
##ande
seminary
disappearing
Crew
hards
soprano
Devils
readings
roar
Monaco
cares
Cory
Wyatt
combust
secre
GO
hearted
roofs
Ryder
CPU
bee
Naj
conception
##iso
Mega
goat
Shui
Feel
Domain
remar
Giul
Hanna
expans
customary
##aires
ropes
Vy
##emberg
##aple
teased
Spiritual
V8
##leading
deadline
Hancock
cheaper
warnings
Catholicism
Done
stunt
##flix
explosives
McF
##hai
Azt
venom
Sasha
##ulls
Weiss
Chong
sou
notation
homage
##umont
Sew
behave
Phi
##omme
motive
Darkness
inward
cables
Pemb
Knock
##pow
numb
lifts
append
fading
delighted
Wikipedia
Steele
concluding
containers
NM
##lake
functionality
splend
legitim
apprentices
Hitch
##yar
surplus
Wide
Bold
vegetable
fits
Rapid
translates
Himal
junk
incur
##odor
Trem
righteousness
Babylon
Packers
##46
##atore
promoter
smirked
##opot
##ifiable
amen
Bury
inspector
Mayo
trolley
Version
alpine
Sunderland
ECO
Jaw
expresses
##ithm
sensory
desirable
onward
Laurence
packing
judging
Hawth
Flora
subscription
##eti
##esha
Orient
Derbyshire
mg
Tudor
strode
htm
probe
Stream
bestowed
##park
##ogne
Liberals
Tribunal
Consid
Oll
spends
Shall
Shock
Sammy
serpent
Salam
BE
rails
bip
Chevro
awesome
Cyrus
Lahore
Rider
expeditions
replay
prehistoric
Restoration
##olom
##agher
Nationals
Buchanan
maturity
Nazar
Eisenh
documentaries
packs
##apo
Coul
squares
Atlet
explorer
550
befri
Likewise
microphone
iter
Reports
Hau
hij
clans
propose
bombardment
##49
westward
sunset
IGN
diabetes
weaker
Nagar
##zzo
##amus
platoon
tempo
Landing
supportive
likelihood
Goddess
Orion
cubic
1900s
Gabe
Sadd
donor
ashore
Wigan
orchestr
Witt
Devi
upside
##heme
Marketing
Shiv
assassin
##36
Lup
Jakarta
sober
##shit
announcer
Lennon
showcase
vigil
Thornton
##umbles
sells
awoke
latitude
discourse
courtesy
Towards
28th
##law
imposing
knives
simulcast
knuck
Volleyball
renovations
centred
unreleased
orchestral
Coffee
fluct
bests
Venetian
##bilt
psychologist
Pepper
##atas
Sams
bew
##ochond
Freud
barred
Mari
adren
migrants
lining
Opposition
synth
##xx
Ding
stocks
Persia
genuin
Elias
##obil
##iov
##estine
Anast
Ner
##ementioned
##arine
winged
Teacher
gases
Hercules
Phantom
wines
Vac
astronomy
XII
Wey
proclaim
Chateau
##jee
lethal
culminated
Tad
Lorraine
Autonomous
Sonny
dots
Pilot
sociology
Millennium
waterfall
ambition
ceramic
Havana
predic
Serena
Namibia
Ngu
Expressway
bowler
Darling
header
£5
##icho
Looks
coh
##spoken
globally
servers
patronage
wrath
unint
stares
##iotic
##ometry
Reh
slap
fundraising
Messiah
Bram
Nassau
Consider
degrad
sensing
Brenda
Poin
Circus
blockade
eur
##fordshire
Forty
Nearly
comprehend
Falcons
Harley
Passion
Gav
yourselves
programmed
optimal
##otive
Tomb
Went
Mayer
ET
##mor
Asp
consul
Talbot
grazing
Zap
Watts
##ollah
Innoc
sore
unfinished
##elope
threaten
adopting
boarded
Established
pharmac
scrambled
engineered
relent
inclusive
Perman
laundry
begging
slightest
Tau
Kirby
Settlement
encry
ads
##hound
##esto
Kier
yields
Brod
whale
fried
##aney
Truman
frigate
hardcore
Edmond
vicious
##omans
GPS
Rosie
legged
Audio
##iratory
##nesty
Xin
learnt
afor
IRA
whispers
Rin
Kathleen
quadr
undertake
##ographs
Miriam
Gad
Dorset
climax
##bag
##uddle
pigs
favoured
Dug
heirs
Rapids
moor
Lives
Nikki
Jubilee
clues
turnout
Netflix
seldom
##rs
pavement
Vine
Psalm
tunes
Yaz
##adors
cooler
##abouts
Daven
##ourning
cos
##forth
madness
headache
superc
pope
Laurel
Rajasth
Khor
Vaughan
Assam
Christchurch
franc
##raper
1850s
Corinthians
Kilk
Goa
##zzy
Bound
lowering
MR
diamonds
sarc
Taiwanese
Poles
hooked
##prints
reasonably
Governorate
Trustees
Gina
Coastal
##ishly
contributes
Dome
##ecker
Theresa
breaths
contests
parap
Fortunately
polo
weighing
robin
Mental
##hara
drunken
Chevrolet
gust
Mansfield
Kip
renewable
greed
##gett
grossed
Poss
therapeut
Rise
mourn
Elaine
troup
crawl
Coy
leaked
##aye
Hoy
##ixed
Written
coffin
dreamed
rebell
Medina
commentators
Kram
Hild
Aren
eminent
Pek
bliss
Rocks
##FM
Joa
photographed
Farmer
partisan
stranded
grinning
Bosnian
80s
Sina
ausp
##enter
renewal
Peggy
marijuana
bloss
wrists
coward
arter
Verde
recipients
Reformation
dictionary
EV
ions
Salon
Sunshine
inappropriate
spokesp
Busch
##losed
Plateau
intensified
oxide
agreeing
confusing
scratched
reverted
Naomi
Courts
warships
PN
miniseries
Lus
exting
ambush
1791
illustration
Karachi
heavyweight
##written
markers
Pomeranian
captivity
inflicted
Pau
shine
Hogan
sixteenth
millennium
grossing
aven
##ел
aluminium
Into
HA
##anka
certainty
Crane
pillar
productivity
Mouse
Certificate
substrate
reigning
Boot
Esk
##isson
incarnation
quartet
FOR
policeman
famed
##shi
surreal
latt
Benz
Genoa
unseen
Vanderbilt
Burmese
chartered
Electrical
Alpine
demographic
Xu
lasts
##omat
##enb
Smithson
calculations
pioneered
1775
endured
candles
farmland
cartridge
Bihar
Boxing
Claudia
converting
Polytechnic
turret
finances
crushing
pioneers
##entin
##ietal
Lights
Debbie
Welfare
chiefly
tapes
investigators
interception
Chil
Crosby
imprint
shelves
Lowe
pledged
hailed
deton
##igl
Levy
Huff
replica
Vari
sting
Bowie
Challenger
##ayers
Fowler
tuition
Lenin
Okinawa
##onut
##arting
USD
feder
popularly
monitors
Bant
Beatrice
biod
staggered
##thorpe
##itably
constituent
Nicaragua
consortium
Spark
censorship
##ignant
Pec
guild
petals
culminating
ba
Factor
Tav
depict
princes
Paz
suffrage
Caval
trench
assumptions
signatures
280
chop
##gets
##ibus
hunted
gaps
closes
Beirut
costly
Producer
reminder
##grav
Sources
semifinal
##angi
BT
Candy
Goodman
amass
Sheridan
Mercer
Guam
Stephens
epidemic
kicks
cautiously
##ricanes
Paige
##bet
inequality
exchanges
Torr
Push
duct
boiler
270
earnings
Complete
federation
upheld
Twins
##ounty
theirs
unused
lenses
eh
forged
##inement
Lum
Flowers
snout
bou
Playing
Sustain
mouths
mandated
Milk
##onson
appealing
##inges
##shan
dess
reliability
##jun
packaging
##oway
##ographies
Bee
takeover
Limerick
overthrow
wonders
Harmony
insists
trustee
Yong
Byrd
Eisenhower
Tick
forwards
conceded
Bev
##door
Sioux
##pense
aforementioned
relinqu
Copper
strand
momentarily
blo
##ahon
poker
genuinely
##ievers
lords
Exact
##athing
evenings
openings
##soon
inactive
##otechn
Berkshire
Iw
decreasing
Economy
Phyll
communes
Kiel
tasted
##agus
Axis
grunted
offset
TM
##soever
Mou
unpleasant
##owitz
hydraulic
Stur
differing
##space
Rotter
responds
##itations
Farn
Everett
poisoning
##arina
yawn
##WC
discount
Stras
statutory
intently
TF
Deleg
mould
Barney
Publishers
Citizen
##yah
##mares
Mali
Canadians
yanked
Eh
##ennes
throb
Practice
relies
pist
Beeth
##acao
degradation
##points
shone
Lucius
Taliban
sulfur
logging
tighter
##imus
medalist
##icacy
Robot
qualifications
Allmusic
waitress
snatched
simpler
##odrome
aide
Wolfgang
commuter
nursery
Resort
Ou
softball
Stirling
dove
225
Aiden
##itha
Dillon
Lotus
grounded
killings
##ographically
EMI
distraction
Image
sanctions
##zman
##39
Tribe
freelance
Cobb
Saund
concession
##ku
vacancy
sincere
MBA
##XT
validity
Livingston
advertised
##itional
tile
##boats
tutor
Conway
Castile
endure
licenses
Subur
Browne
twisting
Temp
recruitment
kern
Nue
##odont
builds
eB
pickup
originates
ebook
receivers
activism
Tier
##jing
##scape
protoc
260
canyon
enjoyment
Almighty
mounting
gossip
petroleum
hairy
Satell
Gif
Valle
quotes
Cesar
Obviously
shades
Nes
stroked
specialists
##urry
Birthday
##ivial
elf
songwriting
Lionel
forts
administrators
psychic
titular
Bring
timeline
trout
Counter
mating
flanked
##ит
##aler
printer
sacrifices
uniqu
Wak
assassinated
##evich
Gibbs
Trial
pepper
scenarios
defences
##haven
##HP
Kali
##ulton
##qa
##smith
definitive
Guest
farewell
Results
thirteenth
UF
Dash
clips
deport
Reven
analyses
illustrator
DB
Kris
Solo
##ndon
pony
departing
Clean
expectation
monumental
Keller
unfam
Lening
##atorium
yoga
##eport
##ogenesis
Niagara
Scholar
null
cracks
131
Lagos
##fici
MAT
Restaur
caliber
rains
Destroy
suprem
treasurer
fearing
nun
##iem
1780
Indy
brewery
denominations
Pitch
##dar
Urdu
Werner
CI
consultation
arises
linebacker
Interc
##oza
Thinking
Atletico
cardiac
##UL
impose
dynam
Xi
Zack
tuned
Alist
merging
guiding
Electronics
Congressman
splin
29th
characterised
##yang
imminent
Alma
Burk
##rar
seller
##earing
Vog
##alog
monopoly
premiership
##oks
Across
shields
##ricken
vocabulary
hindwings
specifications
retailers
##fest
threatens
clicked
##gem
Already
Nationalist
insist
Olga
potato
##yrical
indirectly
laboratories
Ensemble
Zah
airborne
##hetics
chancel
Johannesburg
Symb
Eddy
##lifting
Phillies
merchandise
restoring
gum
swarm
tails
gel
Bord
Spani
Rookie
crus
Hin
##usz
suppression
undergone
Laos
storyt
motives
postseason
examinations
socks
Burlington
Vert
FF
Kut
translate
scarc
pathways
Chat
##nica
flaw
sunshine
HK
Anj
Tram
fug
Wurt
Pauline
strokes
Nept
principally
##emis
##32
##anity
Nichol
innovations
approximate
##riesthood
##agonists
ballots
halluc
glances
confronts
Rover
Tart
##oult
Samar
##ported
compelling
501
Ping
##ificant
##ylogen
fungus
rockets
Plans
Bollywood
fined
vern
emission
covenant
Appalach
deputies
##iola
automotive
Gwyn
##brates
Treasurer
##yam
##plex
Calc
BO
Hole
whor
nutrition
pumping
educate
emphasize
proposes
suffers
Sok
Pf
stormed
focal
immigrated
breeds
hack
lia
ornament
varsity
EA
Dell
Humanities
Subject
fresco
hereditary
##gren
##ustomed
Ment
Hussein
##rez
switches
pretended
nause
accusing
Dane
ruth
Welles
Suzuki
correlation
Sung
branding
Contents
setup
flicked
Quinc
Dir
ODI
##EST
spokesperson
##chet
Winners
contemporaries
##oubted
cows
candidacy
Danube
potent
temperate
Mandy
Kri
##iard
Italians
handles
##oser
dramas
Animals
Combined
darkened
##ourge
Sanctuary
Olivier
Foss
NI
torment
redevelopment
Lizz
Assess
disreg
Pey
coincidence
##ucus
ridden
Feather
##ansen
Aleksand
dividing
geology
RN
alterations
clash
overlooked
Archive
memoirs
##да
##eliness
redesignated
yielded
deities
strat
Roch
strengthening
survivor
Amos
absorption
String
manipulation
##adar
Lowell
ideological
##gos
rowing
Gros
##ozo
fauna
mun
##icuous
Swansea
Congregation
scoot
coated
spilled
##acha
capitalism
Algerian
Sta
Chung
Schneider
Hubert
behavioral
Marquis
engraved
dissatisf
cosmic
nightclub
satisfying
cripp
moaned
Riding
conceal
##nor
Rotterdam
Gertr
##idas
Gis
astronomer
respects
glut
arid
Lump
Chatt
propelled
Gloucestershire
pharmaceutical
##eny
Mathew
doctr
pencil
Yep
surm
pushes
exhaustion
pavilion
Phel
FO
correction
Tiffany
##ocating
genocide
##hop
##waters
masks
Elijah
Byrne
Fate
##formed
Vivian
Afro
Sonic
deflect
320
##AND
Ceylon
Bills
accomplishments
dwellings
reissued
lazy
##zone
usher
mantle
denomination
Brat
ket
cancellation
Gug
##cerpt
Leningrad
##asim
Marriage
Myth
##married
##86
realism
admiration
enthusiast
Sto
rhythmic
Nickel
mammal
Gale
##igibility
holog
congregations
advancement
booked
Provision
Zambia
tuberculosis
##alese
workplace
##eks
caret
Tulsa
wrapping
Forward
##irez
tugged
colloqu
Alistair
Traffic
NHS
fellows
Destiny
polyp
##moil
Rajasthan
Zhao
##otilla
Send
##offs
clarity
##arro
entrusted
fixing
hath
portraying
Bone
##urgy
##yth
recalls
XIII
Borde
iv
Eugen
Wess
##ulam
WWF
##onnell
reelection
##uxe
Gear
fusc
Alto
freeze
##enov
1783
##quarium
excavation
denying
gor
Dirty
##olate
##oder
Damien
patented
##ра
nail
Catalonia
spared
confiscated
##55
induction
fixtures
Cyber
miracles
DT
parameter
pert
Nir
Wolves
integrate
classics
Mixed
Cage
cruisers
Writer
unpop
Northampton
Esper
nationals
affordable
Aragon
Vishnu
nests
FDA
Verd
casc
composing
explanations
Beethoven
objections
transgender
Raff
Thought
exploit
##lash
Serbs
Tale
consulted
detailing
Bryce
conject
##jas
Reyes
disturbance
swam
Dot
icy
visibility
Leinster
spouse
argu
brac
margins
Alone
unhe
Carla
duke
Mozambique
Humphrey
Jensen
##iterated
defendants
cleans
##thal
##liner
Wish
attach
Berger
Stam
Presidency
paradox
methodology
Igor
##itored
pige
Llan
specialised
Vest
Lara
AW
exercised
substituted
Regin
simplified
curb
GEO
##kop
oversee
introduct
Pia
homestead
allocation
##listed
northward
Wemb
Date
Journalism
biting
Consort
DF
histories
Loy
friction
Observer
##icker
boiling
Burr
comparative
tidal
##cot
Stanton
bic
Ayr
Senegal
##pora
Happ
taxation
flats
Strang
Mash
prospects
shor
Liang
filmmakers
Platinum
intermitt
VP
152
shimmer
subscribers
suitc
enqu
##oufl
adaptations
##iste
pleading
intellectuals
warmer
Lilly
monastic
unfamiliar
constitutes
peripheral
Candid
buddy
wooded
isot
Publications
Rit
PE
illegally
bulb
exaggerated
polym
shelters
nationality
Constance
Kes
##hetto
arguably
##illary
Kall
Sitting
fi
MAC
Dhaka
prohibition
##eteria
Astr
alternatives
Regent
Directorate
chemist
Proc
requesting
promotions
Jol
Horror
Hazel
Hare
##ayas
wiping
EF
Clifton
literal
Frequ
choked
Kuala
McB
ech
weary
Neville
exceptionally
##ouk
##occupied
##rically
##estown
##idium
ignorant
premise
Leonardo
aft
drone
nurt
pawn
Brack
motions
jealousy
Vampire
deported
dissent
reviewing
grasped
##ocer
Wilderness
Hobart
Oswald
numerical
Boone
##ijk
believer
Offensive
1788
##pal
injust
Wille
Dunk
uneven
seventeenth
fishermen
##wr
Tanner
Worlds
Kemp
Truck
unlock
Deborah
##rax
standardized
##uds
Ismail
arrests
Soldiers
##pend
Blo
immunity
naive
Wii
repay
##croft
additionally
Clair
fibers
circulated
supper
scenery
Marks
periodic
Rosem
landings
internally
dripping
famine
propeller
smoothly
##itta
##urate
severed
lizard
##ismatic
scholarships
smells
litigation
shepherd
LT
141
Hindus
JT
establishments
Eighth
uneasy
##throp
attribute
sadd
Belmont
biom
archbishop
100th
compose
mirac
##akin
commenting
retrospective
Mask
narrated
disagree
discretion
slice
drifting
Const
Critical
stove
Drop
##imps
Macau
##uler
##onds
manned
Wildcats
##ERS
##horse
##eterm
Chit
Brennan
toast
Denise
norms
Monmouth
Dro
SG
paragraph
##olulu
Caucasus
Investigation
Quincy
##isman
##outed
Colombo
Maw
cc
Schwartz
neatly
Norris
bureau
shred
Evidence
stricken
##breaking
##itsu
##bad
Woody
denounced
whitish
aggress
philanthropist
Cooperation
sho
Platform
Memory
Numbers
discomfort
Hog
Oaks
Totten
##ythe
Sega
locking
crossover
manipulate
baptized
Pang
strands
scrib
##cip
Hoffman
##idon
disguised
cents
Cum
Arbor
weaving
Sergio
fatigue
##odon
discs
pumps
Rockef
whatsoever
Para
reviewers
Willy
monitored
vapor
Medic
reprinted
##hythms
##opia
smug
strangely
Kitty
49ers
zombies
erotic
exits
Guill
##zza
Timber
Hayden
40th
Zimmer
Luigi
Geological
Ion
Apache
##chal
confid
##udence
##oti
robes
flexibility
moss
rebranded
purchases
omitted
Vie
drilling
Barrow
Wisdom
broker
Cyril
penned
Wilts
Archaeological
turmoil
restriction
2021
avant
intersects
Alvarez
overturned
Raul
perceive
##eworthy
Madh
ultra
Africans
ecst
railroads
senators
searches
energies
dams
rewards
vagu
Ramirez
##gt
bamboo
annoying
Honolulu
##ighton
##letter
Quin
##olini
overlap
chromosome
Door
stationary
Rale
Hide
swollen
Linn
##lı
telecommunications
##lander
variously
depended
Tec
##olphin
creators
goats
glam
##pre
##comer
##akan
ratified
Move
##aunch
Porsche
Bernie
claw
##screen
##oler
Prosp
heroin
##bat
rests
jurisdictions
Thanksgiving
##mart
Nish
vocational
##iyah
Imagine
influx
BN
stray
CDs
LN
Kilkenny
Saunders
##idable
##ulo
Wakefield
traps
encycl
worrying
Hubb
Laurie
BW
invasive
##had
Brandenburg
##bol
Gao
chaplain
packet
Northumberland
eastward
vowels
noticeable
Laksh
##ricting
Calv
##avez
pept
dismantled
##ronym
##oubtedly
amidst
supplying
generators
TT
monasteries
Fuk
turbines
Weaver
winger
##uber
utilizing
##note
whispering
Loth
affinity
smashwords
Experience
redesigned
Killer
stool
logistics
labelled
Glam
nude
Lincolnshire
budd
Soldier
90s
tertiary
Cromwell
hurling
Deport
##his
Comment
Irvine
ridges
Fail
Brendan
specializes
persisted
Jasmine
##temberg
Judah
Łodz
philosophers
Moroccan
assaulted
interceptions
Joanna
clashes
tapping
ensl
Ultra
Mild
constellation
Orb
Loop
Paolo
castles
Advert
tam
Hash
##pike
seaf
ducked
rainfor
Bia
##build
daring
##vex
##wi
countered
Ottomans
airlines
Unic
Yuri
clone
groom
scenic
clown
Harding
##urgery
##emaker
##bernatorial
Anthrop
##PC
crem
Legends
segregation
##acs
Tsar
Maurit
medall
businessmen
NYC
Revenue
disconn
roses
flourished
Permanent
Bridget
Teaching
explode
Active
buyers
eruption
Sigma
Matth
Partnership
orthodox
Yv
antique
Dodd
Frederic
##OE
Wembley
##asco
##achy
impacted
Smithsonian
considerations
ub
Huntington
Anh
discrete
Amir
prestige
fiery
Finding
exceeding
Damon
Rockefeller
skirm
bugs
musk
annoyance
##elman
frank
Henn
armament
analyze
##esia
Andres
##itone
denotes
energetic
Pax
investigative
deprived
Siberia
##patrick
odor
Terrace
obsessed
Archibald
Domingo
patiently
Royce
Peck
##ajo
respiratory
Leaving
##bruck
guerrilla
protects
priesthood
##udge
##urtles
therapeutic
Jinks
Lich
betrayal
LE
Rhythm
##jani
cassette
##eson
cooperate
vigor
elongated
##acan
Theology
motifs
Amazing
Jump
charities
esteem
Herb
Colt
Pavilion
beginnings
Customs
flattened
Slovenian
Borneo
namesake
Kyoto
unic
petrol
shuddered
##uire
vows
##forward
illustrate
proudly
seals
corridors
Kav
germ
Requ
prosperous
prisons
librarian
acceleration
smok
remembers
Courtney
##oyer
intending
Mast
Sank
remed
complaining
##ungal
weights
pronunciation
Cathy
CJ
coding
Sis
chalk
##44
subun
slides
##idelity
brighter
fascinating
205
Zhong
Fury
tox
##ESS
Pharaoh
spinal
loft
archaeology
rugged
declares
herbs
##omac
##zt
thankful
##ulatory
##adin
advise
##eanor
engulf
Humans
notor
RFC
treaties
persecut
commitments
JC
disagreement
butterflies
Bremen
Crossing
Gd
##inck
Kish
##keep
Depending
Ninet
Councill
ist
hurts
Spike
Select
teasing
##zzi
Granada
Consumer
##ARC
competent
Airborne
unite
Diss
Hillary
eagerly
Gunn
Balkan
UT
Unknown
obstacle
Hudd
investigator
##chan
moonlight
comfortably
subgroup
##casters
Sik
disciple
derive
edit
yellowish
drowning
##ии
frantically
heavenly
inad
Cornelius
FE
##evic
Bhutan
preached
Monkey
##phones
rubble
##ibles
posture
priorities
ecology
##esse
Bez
attackers
##phalt
glor
##heny
##ilic
Bentley
digits
Baz
Tipper
cautious
scrutiny
Wurttemberg
Britann
initiate
fortunate
Corporate
Bacon
deception
##uble
scow
##EEE
Soci
Dartmouth
gateway
psyched
Seek
collaborations
Savoy
##omorphic
Aristotle
hastily
Terra
torso
KN
Ae
flushed
Bordeaux
docks
embark
invites
decreases
vibrant
Recordings
Medieval
charting
offended
litter
silhou
envisioned
##inka
enduring
Prepar
##oppy
outpost
##ogie
pulp
lyrical
deleted
##jak
Spir
Rs
backdrop
cavity
Spit
Farrell
##function
Davenport
##gel
moderately
Staffordshire
rpm
sorted
revive
darted
arising
hobby
##ilin
forfe
accidental
Bruins
forthcoming
##urus
Scarlet
Whenever
stark
voluntarily
Immigration
31st
##uggage
Tory
Lizzie
Excuse
Alvin
satirical
arrogant
Manufacturing
142
POW
##exts
lowland
whiskey
Rubin
Signal
sustainability
kits
Avengers
##hir
Luftw
Banner
coincided
Scorp
Parts
##utsch
sprang
XIV
Rocket
attacker
terrace
knots
oun
McCartney
shear
borrow
impending
hides
admir
worldly
susceptible
Dominion
Sergei
Jeanne
##olecular
supermarket
Confuc
Kern
Oval
##assium
Interactive
catcher
plaza
crisp
intervene
##jana
##su
##oleum
##atist
##week
Chatham
harp
Satellite
Mug
Sabbath
spontaneous
##astically
Hilda
Cooke
hostility
vendors
randomly
besieged
wallet
Eduardo
##asper
Frog
tant
exclusion
Heidel
faults
Mughal
hp
socialism
Wilmington
##osynt
stronghold
instability
Dogs
institutes
##asping
##amel
Exactly
iOS
shivered
Lyons
ACT
tents
Dut
dehyd
Ariel
Products
inert
Southeastern
vintage
Morse
simplicity
attracts
Libr
Suzanne
##arium
##aryn
tenant
cath
##non
Ashe
hedge
Famous
disappears
alias
favourable
chir
participates
Hubbard
recol
Wad
##aras
grapes
sampling
Nichols
Fiona
Geographic
Scandinavian
HQ
##loid
Bohemia
Hoover
punt
tastes
Fifty
Gim
fascinated
Alej
Pietro
Strauss
Crimson
Bots
aura
unpopular
transporting
Mab
distributor
transplant
Chun
##rama
joints
Crescent
##ifix
apt
Royals
Named
Mok
lime
Wheat
##ignment
##ignon
superiority
incorporation
textbook
Romantic
pierced
mah
Moldova
rematch
bak
##elier
Chavez
sped
Lifetime
Clinical
reins
Jamaican
Disp
spawned
adject
distorted
remot
Brune
##opposed
##hone
##ppo
undisclosed
wakes
##urnal
##56
treacher
Meng
##ocy
persona
proposition
Breck
Anand
Doris
tombs
grains
##orno
##xton
syllable
ros
Ars
##aghan
Kimberly
epithet
Bryn
botanist
upt
gubernatorial
Oro
Volunteers
##imated
witches
hardened
pneumonia
stereo
##opsy
tramp
##ypsy
Scholarship
researched
Blackpool
Animation
Temper
cler
Dahl
greenhouse
evolve
Aar
##rath
licked
##nington
Overse
Nolan
Intermediate
subset
Cretaceous
diverted
Wilkinson
Location
biographer
£3
##ск
##oulos
Thereafter
Quar
dependence
circled
knob
bacterial
Nguyen
Forrest
illegit
Cumm
Gund
Silent
adorned
Reginald
problematic
Ore
guarding
sleeves
bart
apologized
funk
unwanted
fores
imports
McGill
##ır
##hoe
##imon
Bree
shack
comrades
Quiet
##ska
Luftwaffe
Bray
Jong
compressed
Aster
Chaos
Pune
contributors
royalty
intoxic
lb
Ally
Guerrero
Hoch
Borg
Simple
nuns
intricate
Dies
radial
militant
70s
RB
Sculpt
Barbados
manners
##ovian
inauguration
Networks
Presley
fost
Pug
browser
##heit
Constituency
nowadays
Enterprises
Qaeda
##adowed
precinct
plagued
amplif
torque
woven
Pho
fertility
amounted
unopposed
Seal
Mandarin
Published
##chus
Certainly
Myster
A1
Monitor
zinc
mystical
##otch
##osta
Winner
##ivist
Baku
##anched
Shelby
tablets
Za
infrared
Towers
prospective
Redskins
ginger
oven
Preservation
verbs
1777
veto
Sie
contractors
shov
##human
para
reinforce
vass
##avis
Aye
##quisite
belongings
urine
fierc
Portrait
champ
Hark
accessories
Mek
negatively
Compar
ISIL
##ieft
thw
Merchant
Premiership
proprietary
pounded
lance
contexts
selecting
Ada
delivers
politely
##ulas
##obiles
militants
##arthen
relics
amendments
skip
##estrian
Osborne
##proof
roadway
lemon
##ibu
fingert
PB
ensued
Traditionally
cafeteria
Hesse
##ificates
##ayev
interconn
Wester
pardon
troupe
Clint
Bahamas
Governors
mentioning
mitochond
electromagnetic
Timor
##nard
Koppen
projecting
Caus
Tobago
##bright
Faust
Watt
Raleigh
ot
Moody
mattress
Desmond
Matilda
rearr
bowls
1787
elevations
willingness
##ds
hostilities
paperwork
Mafia
embarrassing
oversight
ventures
Nursing
stakes
##lat
##eways
bending
Hadd
Dap
Gilm
WE
UAE
capsule
exter
infants
petty
cracking
fantas
Commissioners
Fortress
##IST
##ibb
Unable
overc
##ylie
insignia
Somali
Panzer
Wur
portrays
##oit
Simone
deepest
taxp
coma
Diploma
recipe
supplier
prick
blink
##ossa
combustion
Chey
fluores
Mesa
Wich
UV
flush
flock
ponds
PV
##fin
whales
routing
Ramsey
skies
##gev
reputed
##embrance
derivatives
concurrent
Panther
melodic
Classics
Fairy
terribly
202
invading
SUV
Mines
endurance
oppression
Houses
litre
inquired
##ursion
buyer
##araj
##aliation
##itates
desktop
treats
##enk
phylogen
darling
BJ
##pendicular
Therap
turf
##worm
weighted
KT
##but
##eason
separates
dashed
##enties
unbeat
Ptole
Bye
##alu
Josephine
awaited
##stage
Appro
Protocol
perspectives
assistants
##odynamic
Edison
accustomed
Joao
##YP
Gide
shaken
valves
##icans
Covenant
insec
calib
glacier
Workshop
raz
##DM
##see
##vester
Hai
##mind
##iland
##uran
entrances
Bala
vaccine
sticky
##ος
Reno
inspire
purity
attendant
Getty
##ego
Humb
##owden
##anking
Analy
Sami
comforting
Guinness
prevailing
Hair
Sass
Lao
Carnival
##pop
##hrer
plunder
alloy
Sout
zool
mechanic
stif
trek
##eger
lions
Plato
Wiltshire
Dah
Younger
Vocal
##ecki
anatomy
draped
Chor
##agin
crouched
Feature
Paralympic
Territories
Dumb
Novel
embroid
securities
##keeping
reproduced
##ogeneous
spreads
magistrate
spanned
computational
ale
##lag
multitude
indicator
sunny
Monthly
Melody
wors
Bret
facult
Ambrose
scars
protocols
someday
Greco
Marseille
axle
drains
Skyl
Julio
RV
exploited
interrogation
Schles
forc
ascent
Twenty20
Darius
efficiently
suspicions
Dolphins
implicit
cannons
Sting
Belarusian
##uced
beautifully
Encyclopedia
Weekend
##jet
Tyne
carriages
Prophe
Petra
Saraj
bilateral
Gest
Target
##uela
underwear
scouts
camoufl
medley
API
Rory
reassigned
##icable
Multiple
prost
Uzbekistan
Casa
Abig
horrified
Bahaʼ
butcher
Sunset
##igny
Osh
Carly
##oldt
pall
republican
Focus
Antiqu
Fulton
##opard
Shia
rainbow
critique
##ymns
Boyle
Meadow
Grange
attorneys
AH
topp
Io
Confess
calculation
clutched
Zomb
postgraduate
Middleton
metabolism
captains
Lori
invade
LDS
##sev
proceeding
Sunni
stacked
veil
fearful
violinist
Shang
Budget
##yna
clung
Boom
##edoes
dictatorship
Bishops
Denny
Gop
visually
cites
##ulled
reinstated
Klaus
PI
hopped
genetics
Legacy
##gill
pork
enclosure
##sequent
Colise
Cynthia
##andem
Ernie
sinister
VHS
successors
Prat
Reason
garde
McMahon
##store
desperation
retreating
liking
DL
stables
luggage
Siem
disasters
ambitions
bravery
Russo
discography
melodies
##hari
##cheon
attested
##dong
prevailed
anthropology
Kron
disco
##aer
deserves
confidential
donors
Goodbye
Aurel
bilingual
Talent
Garrison
##los
polling
Drac
disagreed
Grandpa
##oxide
frightening
##eus
##ibo
##obacter
Danielle
162
##erun
contradict
##inational
minimize
cellar
drying
##ungs
Ivory
weed
villains
verge
Fang
Latter
##roller
Breton
##ST
Reality
Nicholson
unsc
richest
DI
Ere
understands
Paso
##jack
inacc
nostrils
Forget
Rai
pH
slated
Chronicles
fifteenth
shrubs
ARIA
sparkling
paradise
lively
baked
##coat
viruses
Colling
Siv
heap
Nok
fortunes
longing
slab
transforming
undertaking
##ochemistry
digitally
lament
1784
Hosp
eligibility
Loyal
##zek
Lucifer
skipped
password
##UD
simultaneous
Audi
occupants
Heidelberg
crafted
Sector
Belize
1778
##hak
avid
Refer
##echt
symph
Chandra
honesty
##oum
##emar
Tipperary
Tottenham
##hift
Gertrude
perme
procure
cheating
##vens
imply
campaigning
##ivism
calculate
##ridae
Townsend
Courthouse
Manny
Chiang
##marked
Ech
masked
Rabbit
Ligue
##acas
quicker
##lasses
151
births
##uper
compensate
Yoko
Romanesque
##erion
Samson
bordering
tractor
Hex
Jod
outst
listings
paraly
Eleph
Everton
##fle
raided
accession
abort
Documentary
Seah
Ruther
intends
Polly
Troop
##whe
##ondiss
JR
Piedmont
sipped
NOT
mixt
Sprint
periodically
##pole
emerges
revolves
gunfire
concentrating
##ocalyp
##herson
turtle
Ezra
Clap
Richie
consistency
##evolent
chor
##igne
Pist
Charlton
ti
Bucc
MN
sweetheart
Chrysler
##asta
stellar
regent
206
##ouched
##celain
pots
Alz
glacial
probation
shoreline
PG
##qua
warns
acquainted
Dexter
##achim
Secretariat
Subd
##eble
Kus
##itives
##about
Scream
Provisional
bait
Sapp
Normally
ni
McP
walled
##iquit
economies
Lys
##eod
Jian
nec
relying
algae
##ensation
##jon
##hama
##raphy
Burt
Prep
McCoy
sandw
niche
Blade
midway
##uously
##eting
Meteor
Sexual
##77
hovering
retaliation
thoughtful
Voc
jets
fluor
NF
Pamela
gangs
##ewa
wheeled
##quil
diagnostic
reset
Rae
bikes
loops
Bid
strap
affiliates
##avour
Allahu
##obo
##ла
Chain
##ooks
Districts
Flaming
wast
liberated
##MI
subjective
spherical
inclin
severity
Nissan
unmarried
justification
hanged
##artments
Lone
Contract
mornings
Doubles
subdu
dur
whereabouts
shuffled
##ilde
Sle
Peer
confirming
skysc
pertaining
outreach
installment
Sas
Pens
Outer
Communists
traject
##inel
Hanson
Employment
Virgil
Clock
infectious
unr
Sharma
Rwanda
Corr
propulsion
inspiring
Fah
canals
harv
terrifying
Societ
joked
acquitted
Poe
##inker
clinics
cylindrical
Yankee
Mint
##ailles
vaguely
Boer
gymnastics
disliked
benefited
mourning
Shap
Huh
soda
##ebu
##enthal
wetlands
Virtual
fumble
##AD
Mansion
Andes
##ooner
Racecourse
Farmers
Whereas
##illan
pledge
Abbot
Peoples
Riga
differed
selections
Abigail
##ulia
Judicial
pacing
Subsequent
Kappa
undoubtedly
##step
Watkins
##ipers
concurrently
ethnicity
Kensington
sheltered
Ile
Kro
cowboy
hormone
##RL
Purdue
Vega
terminology
intert
evidently
cocked
Hicks
preferences
Fuji
shipyard
##atable
WK
Metz
welcoming
deposed
schiz
##uins
Agn
##atching
dough
##bull
flor
nightmares
meadow
Groups
convex
collaborator
##ayo
TP
##olish
convinces
Yel
##itudinal
growl
Lass
contention
Wies
brigades
myths
earthquakes
DOS
bidding
##eburg
Sny
gradient
riv
Bridges
##comb
Merlin
##alford
unemployed
Tz
Peel
blushed
Peterborough
Vend
##entials
Dai
Roche
Incre
nutrients
torpedoes
##anguard
##intro
Exposition
Mighty
muzz
glucose
##unched
##fs
Crete
Hodg
##rency
flashes
Regardless
penetrate
newborn
acquaintance
##iera
Elle
seab
threads
Joaquin
##ffiti
##luent
reconciliation
##assadors
Introduction
Natasha
catalyst
Derry
Reader
##staff
artery
remnant
Chr
##udder
Finch
illegitimate
tally
defects
Lod
##annie
boiled
paperback
possessing
Tucson
##SS
Tiber
##го
piles
##ayn
##issy
Erd
ornamental
imperson
##alde
##onium
Flores
Prak
Soy
##stood
Martins
##ecost
Petro
honorable
Fairfax
##cled
Prevention
Emeritus
IEEE
Daytona
extr
purported
Coordin
##mination
##lift
##was
Uns
ordination
ons
glaring
lifes
Waterford
Neu
330
seminars
##lane
safegu
##elian
##ocalypse
cyn
Riders
testify
tempted
reorganization
Gail
ascended
electrified
##acock
Shankar
Conan
OH
convened
irritated
beads
Reese
Edg
acronym
vengeance
ambient
##oplasm
##adas
taun
repuls
famously
##inta
coats
Stick
belts
Resource
Cag
majors
##VB
abusive
owl
saxoph
sighted
detain
Clubs
##rational
##omotive
Benton
hats
conflicting
Jah
mattered
Toni
172
Sark
organist
induce
incidence
Shrews
Doom
Bij
Meck
trivial
##gyz
hopeful
Ethel
collided
applicants
Caliph
asphalt
Mechanical
rhetoric
Lublin
conjug
poisoned
##ageway
rainy
fuscous
Trio
##quel
##zb
caravan
straightforward
provoked
negotiating
Pascal
Career
Shadows
Haf
pronoun
##wreck
Crafts
##iaduct
lattice
empirical
##wang
##quist
Graz
##ipples
##ikos
Javier
##lla
##gue
asymmet
##31
ND
Teatro
##fires
Audrey
Tactical
ny
downs
##trak
gramm
presentations
phosphate
fourteenth
refurbished
Bienn
curt
##aroo
scarce
##idine
Poc
salad
##raj
##utant
##istice
prejudice
crocod
steamer
Coin
Goldman
Lesser
poked
##bid
Alley
Polo
##vation
Rodgers
polynomial
Bis
##oused
nm
asserts
scroll
##brough
sails
##tenham
Strath
Ajax
restructuring
Hinduism
clutching
Kyrgyz
##unami
Sage
preparatory
Baptiste
das
scattering
Titus
astronomical
##ventional
boycott
1840s
##ын
attic
Gymnasium
Gong
Mait
archer
centimeters
Lois
XVI
sermon
##urem
sorcer
##itching
##moor
##oshima
cue
termination
NRL
baseman
Straight
grenade
conducts
TB
EX
KL
airplay
1781
nickel
Muse
Recogn
comparisons
##rification
Ston
Petrov
humidity
shareholder
dipped
##rador
bullying
farmhouse
Corey
disple
Pry
##ivorous
Aman
Semi
##bee
linen
##tym
midd
multiplayer
Ai
Liberia
##estab
telegraph
Rutgers
contamination
Akh
Sym
Cornish
encompassing
Aztec
communism
##allo
fins
Dip
headline
Punk
Beaumont
LED
trance
Emile
##buck
Alumni
textbooks
Yoga
Sloan
facilitated
1782
Mohan
cannabis
Jonah
fucked
McCorm
Bloody
orchid
kernel
XL
Schwe
densely
commemorated
brightness
Dickinson
Fey
Enrique
annexation
Ida
Strategy
Reun
kindly
recorder
Demet
filters
Quaker
Amin
##identified
handc
proportions
hello
dislike
Sands
coronation
##enaries
WG
Explorer
Specifically
bombed
Tos
Shep
Konstant
entrepreneurs
Fran
Supply
waiter
##lop
##text
diversion
Nico
insights
crawling
imagin
fencing
Mamm
Clinic
Coral
symphony
seniors
Scene
##estro
formidable
##igator
Presidents
Sindh
##ikov
siding
militar
##ieres
Bean
##PD
Cypriot
Bowen
Neck
Zheng
##orean
hitter
prediction
##iom
resonance
850
ornate
Tup
thor
fascist
fundament
Expo
Speech
Pentecost
domination
piled
foli
evolving
Bly
##hawks
saxophone
##ourses
macro
##ecd
preach
Reggie
Funk
##stitutional
skinned
IUC
##encer
forecast
##iku
Dab
Synod
##owe
communists
Kendall
Leading
integer
##pi
Samb
playable
mutant
Toulouse
masonry
##idis
reintro
tuning
Tash
airst
Lamar
Neighbor
expulsion
genetically
explosions
watercol
Supervis
bewild
cortex
citation
Malawi
Grig
Militia
##orks
##ahs
##lectic
vernacular
Bravo
adulthood
##aina
Summers
##estinal
Protestants
##XX
muddy
lending
Brab
##idental
antagonist
unac
Pix
mounts
reservations
Caldwell
uphold
halft
relocation
Aidan
hurdles
##oreg
Commanding
microw
motel
beck
##cus
caretaker
Enfor
Connell
Stro
EPA
Moll
Blanc
Oldham
soloist
##34
bask
Ville
##urious
battered
Basilica
gazing
ventured
oblivious
Yesh
swirling
dusty
Kart
seeming
Rosal
##auss
synonym
Burgund
##adena
giggle
Shrewsbury
Managing
Multi
nem
##zeb
##umba
organizers
ferv
Atari
brib
##igence
##eart
lectured
1800s
LD
bouncing
pumped
impaired
Patt
Duss
Libyan
owning
massac
##iak
##opathy
landmarks
Privy
Salmon
##onyms
Donnell
wasting
Paw
Constable
Daughter
##garh
Whoever
neon
Crypt
Ecl
Crock
akin
fills
##ilon
husbands
cans
Seas
Turkmen
remarkably
##erns
jaws
obedience
withstand
contaminated
Godfrey
##ogly
208
evenly
formulated
Oracle
CK
##icana
EB
vowed
##acements
carving
##ominal
pulmon
spectral
Pilgr
excerpt
Companion
sliced
penis
versa
unlimited
Sarajevo
Capp
tolerate
##urp
snarled
spies
autobiographical
mediated
preserves
dude
joking
wigg
Hulk
KK
Stacey
unpro
barked
iPhone
disemb
fulfilling
elephants
Goss
archipelago
landlord
unification
prod
fluent
Aru
##nagar
planetary
coincide
##zong
practitioner
conglomer
prefect
##anova
Noct
Het
256
upgrades
Facility
Adel
vibration
Keen
crimson
##aldi
Maver
continents
tweets
##orical
strains
goose
reminding
##aneously
parallels
##axies
##deacon
yer
Bourbon
stal
mapped
wrought
##IX
Vad
leans
careless
Briggs
Mith
impulse
epil
##αι
soothing
Malone
revital
dwind
instincts
psychiatrist
Pes
extingu
Jury
Seine
Quentin
thieves
Shad
kHz
hospitality
deteriorated
##ihu
flashlight
Nicola
Thy
squads
Urb
Luckily
meta
Lea
Guth
License
deficiency
Odys
seizure
pes
reco
routinely
Gideon
##olm
Yor
giants
affirmed
##retation
##opotam
activate
Mathematical
algebraic
Rim
lingering
wrecked
##ruz
Fus
html
WHO
indec
elves
Katy
inevitably
##owell
Jace
##ophren
truths
Cary
Atomic
ting
transports
metam
##bly
punches
##wid
willingly
##stitutes
satire
IUCN
Macc
Stephan
##tenberg
##osia
preseason
bib
Sharks
##coal
Lillian
coconut
runoff
pins
aggrav
##oughton
##edin
Oj
Aziz
blacksmith
chewing
McKay
elbows
Shuttle
Nights
MacK
transparency
errone
Eat
Skinner
werewolf
##cars
curls
Guns
Alive
McLaren
hardest
skinny
##ان
Juvent
Napoleonic
radioactive
##tegration
humming
KY
OM
Mauritius
stylized
Degree
rejects
Ninth
retailer
vines
builders
##jer
Gallagher
##ffer
aper
Ethics
announces
enrich
attent
outdoors
Shark
##autical
converts
##broken
encoding
Lille
violating
profiles
winced
streamed
Daly
Sime
##64
Deputies
##iferous
Potomac
muffled
Lakers
teleg
##tan
##acer
Eliot
KO
battleship
defer
##67
Carrier
consolidation
MK
Roses
##mand
brownish
WL
zu
Session
parole
hates
##ghed
screwed
improper
overseeing
gigantic
Cote
Goes
Herod
##enham
##regn
unbeaten
thrilled
lifeless
##ustered
traction
dishon
Risk
Eaton
barb
underside
notified
Qin
potassium
##cup
Experimental
inadvert
##intosh
gir
Blacks
Guangzhou
heartbeat
generates
Michele
##umption
Maure
railing
unex
delta
Aeronaut
minus
authorised
classmates
Michaels
curv
Corrid
USAF
outn
Bunny
processors
Merry
Louisa
pornography
Protector
Lacey
Locke
thrill
plunged
Viz
antiquity
hangs
Mow
wary
proliferation
prow
eclipse
Nicky
Athena
Pard
Damian
Average
MLA
eup
##atio
practised
Mona
Thorough
forensic
brid
##upe
##zin
##pill
slamming
undercover
Radical
settler
Barracks
Vod
covert
Jakob
unison
Compl
TE
gestures
Aden
##avers
Fog
prefers
objection
Resear
dye
stature
##wave
##PR
Spur
Gly
##gorod
hydroelectric
Coliseum
mastered
Occasion
panicked
Mec
remarried
##rh
evapor
1785
databases
wrinkled
Guardians
ineffective
Accordingly
##coni
cerebral
Expeditionary
##mentation
Lola
##perors
manipulated
Strasbourg
amber
275
homework
Czechoslovak
Therm
subconscious
Chant
Horton
shocking
tactic
##UE
pseudo
initiation
Upd
Parkinson
##ritt
Goldberg
##anov
##fal
Split
advocating
fuzz
inconsistent
Jaff
##ucha
Sheld
inspected
Saga
extrav
pathetic
Sims
disqualified
Grab
##85
Barcl
pinn
erod
brushing
Omega
Jenna
si
Tajik
##assa
##agements
uttered
Gaming
seism
slug
solicitor
##lund
incub
sacrificed
Eust
Elise
Tanya
Sino
##uven
Loud
transitional
Kud
corpses
Rhy
Antony
Pulitzer
##apuram
lace
Rend
Abram
CAR
prostitute
ka
Jor
Ravi
botanical
##yme
parental
remaster
Warwickshire
##zzle
Fellows
##dain
analysts
Zac
investing
exert
##ceptable
sucking
unjust
unfor
verified
pedal
##redict
##LD
rocking
Thal
recycling
Labrador
Dynamo
Smack
##gha
Marino
McCain
Gry
canonical
Rowing
##estones
Vicar
Mongolian
foothills
Cruc
unin
Foley
##rica
##itya
relocate
Fein
Funny
##coe
##idea
##essing
TG
##illac
Assyrian
1779
forearm
involunt
Mitt
verify
Cordoba
Emanuel
##kas
Restaurant
researching
annih
Citation
Vicente
rocked
##igated
grinding
##CAF
stats
##ussed
215
Ragh
murals
sedan
##andum
Cartoon
Driver
1774
Sick
coughed
biographical
Fountain
Zan
Kis
rushes
##orrh
##ilateral
indict
Monarch
nasal
disrupted
##lehem
Stratford
##henko
ng
##undi
Jericho
heats
##otism
chloride
smuggling
undes
amphibious
dick
daddy
terminals
Axel
##CH
Volksw
Trick
Saras
Alien
##prom
mayoral
##wei
##ully
##UI
Pis
instrumentation
removes
##akar
shun
cylinders
##inen
Nos
mutually
routed
theologian
faculties
spirituality
Tyson
intrins
Jacqueline
erad
CFL
Hutchinson
##aido
Continuing
hugging
towed
Utrecht
FIS
##moon
angered
attire
##obar
nearer
Musk
frost
Mecca
mu
Lumpur
Tik
Areas
nobleman
monkeys
Coca
appetite
Ramb
Bethlehem
pains
Skating
Prosecut
denoted
criticisms
Zab
Somewhere
##giene
##tef
Greenwood
orbits
Burgess
Himself
Liqu
##psons
tumors
Gaut
alc
Prote
Snyder
Worm
##isal
disadvantage
incapable
##notes
Edo
hearings
fueled
bathing
Moran
categorized
Subc
foliage
Louie
stalls
modify
##ormer
prevalence
Agg
resentment
Kramer
dow
Etienne
qualifier
peacefully
Rancho
choral
unconstitutional
Chicken
emphasizes
rendition
adhes
obstruct
bedrooms
161
Reporter
Musa
GAA
##liness
##icher
USB
Maltese
##des
masterpiece
##gau
glist
progressively
fridge
Rolls
ceded
Jays
Chargers
Them
Erich
Treatment
Priory
stamped
transverse
liaison
Punjabi
Kilm
Vu
insol
disciplinary
AE
ala
##retto
weakly
Laguna
denote
ANA
Talmud
Surviv
##oros
chaotic
Wex
hierarch
SAT
stealth
fireworks
##otional
starving
Sinai
##rico
thereof
##rone
##aying
exasper
Saturdays
slowing
traumatic
rabbi
flux
1770
unequ
sib
sep
abbot
certificates
carp
Becker
Dixie
##lords
buffer
Bingham
Buildings
Versailles
##ocytes
bounds
robbed
Dora
Albu
##ijn
Talking
spines
youths
thro
cadet
FIA
Alexandre
Wichita
trader
prefecture
halftime
##grown
stimulus
Kauf
ample
##once
Twilight
Amen
Karim
ankles
uk
Pomerania
Faul
Welch
1830s
Woll
Mendoza
Doncaster
##asu
##umpled
surrounds
Orn
skeptical
##eau
MacAr
remixes
ochre
Alejandro
oceans
##Ts
Gog
glowed
Polyn
ceramics
Ying
##aculate
Kunst
##vre
populous
commissioners
Morales
reassuring
cadets
irresp
Nd
##fork
Adler
respectable
##mani
garment
curling
Doesn
Bain
Initial
fingertips
##planes
Narc
rumours
Rapt
Cottage
mosqu
nominees
Salzburg
battling
Illustrated
Answ
painfully
Confederacy
##wu
treatise
tunic
DeL
Goals
##inov
hazardous
scripture
Atlantis
Lindsey
Cheltenham
lobbying
boo
##ographed
spars
Irwin
WTA
Minh
rigorous
gravitational
sniffed
Thessalon
Kahn
##ryl
deposition
Silesian
Mode
Foods
##iken
furnace
precedent
bodily
costa
Appalachian
##avar
Brass
Respons
Unc
##eys
morale
Palatinate
allev
##arty
predator
unsett
Andalus
Olympia
##onductor
wre
##straße
Poznan
christ
foam
oils
##hoff
admitting
##izzard
##aira
ragged
sharks
Schul
mercenaries
Luton
Stockton
proclamation
MacArthur
capitalist
##oscience
Sawyer
##cal
intervened
Galicia
gland
rites
banana
Humboldt
obit
strapped
benches
Shaun
squinted
frogs
quarterly
irrational
lam
1772
Sover
Gateway
Growing
accumulation
backyard
Stal
arranging
Samsung
##ezvous
furnished
##rally
bullshit
##iska
CAS
maze
lure
worms
##iator
##arek
Historian
Felipe
Taft
Sainte
Aby
Pais
Regist
Crash
1786
rooft
##engo
unpredict
wholesale
Mank
tossing
Dent
##yps
cherry
Rue
Artistic
##ashri
Tyrone
trenches
Butt
scaled
senate
Rebel
rhythms
ambiguous
Camille
pitches
sock
Occasionally
Nope
sultan
Reviews
risky
pictured
##OO
Mn
##ersfield
interventions
Flames
implicated
##look
noteworthy
endowed
parcel
livery
Midway
reconcile
##oct
Luca
Billie
Lockheed
asshole
Salvation
supplemented
cruelty
##aten
drastically
Cassidy
patriotic
Balkans
counseling
graveyard
[...]
